{
  "version": "1.0",
  "truncation": null,
  "padding": null,
  "added_tokens": [
    {
      "id": 0,
      "content": "[UNK]",
      "single_word": false,
      "lstrip": false,
      "rstrip": false,
      "normalized": false,
      "special": true
    },
    {
      "id": 1,
      "content": "[CLS]",
      "single_word": false,
      "lstrip": false,
      "rstrip": false,
      "normalized": false,
      "special": true
    },
    {
      "id": 2,
      "content": "[SEP]",
      "single_word": false,
      "lstrip": false,
      "rstrip": false,
      "normalized": false,
      "special": true
    },
    {
      "id": 3,
      "content": "[PAD]",
      "single_word": false,
      "lstrip": false,
      "rstrip": false,
      "normalized": false,
      "special": true
    },
    {
      "id": 4,
      "content": "[MASK]",
      "single_word": false,
      "lstrip": false,
      "rstrip": false,
      "normalized": false,
      "special": true
    }
  ],
  "normalizer": null,
  "pre_tokenizer": {
    "type": "Whitespace"
  },
  "post_processor": null,
  "decoder": null,
  "model": {
    "type": "BPE",
    "dropout": null,
    "unk_token": "[UNK]",
    "continuing_subword_prefix": null,
    "end_of_word_suffix": null,
    "fuse_unk": false,
    "vocab": {
      "[UNK]": 0,
      "[CLS]": 1,
      "[SEP]": 2,
      "[PAD]": 3,
      "[MASK]": 4,
      "!": 5,
      "\"": 6,
      "#": 7,
      "$": 8,
      "%": 9,
      "&": 10,
      "'": 11,
      "(": 12,
      ")": 13,
      "*": 14,
      "+": 15,
      ",": 16,
      "-": 17,
      ".": 18,
      "/": 19,
      "0": 20,
      "1": 21,
      "2": 22,
      "3": 23,
      "4": 24,
      "5": 25,
      "6": 26,
      "7": 27,
      "8": 28,
      "9": 29,
      ":": 30,
      ";": 31,
      "<": 32,
      "=": 33,
      ">": 34,
      "?": 35,
      "@": 36,
      "A": 37,
      "B": 38,
      "C": 39,
      "D": 40,
      "E": 41,
      "F": 42,
      "G": 43,
      "H": 44,
      "I": 45,
      "J": 46,
      "K": 47,
      "L": 48,
      "M": 49,
      "N": 50,
      "O": 51,
      "P": 52,
      "Q": 53,
      "R": 54,
      "S": 55,
      "T": 56,
      "U": 57,
      "V": 58,
      "W": 59,
      "X": 60,
      "Y": 61,
      "Z": 62,
      "[": 63,
      "\\": 64,
      "]": 65,
      "^": 66,
      "_": 67,
      "`": 68,
      "a": 69,
      "b": 70,
      "c": 71,
      "d": 72,
      "e": 73,
      "f": 74,
      "g": 75,
      "h": 76,
      "i": 77,
      "j": 78,
      "k": 79,
      "l": 80,
      "m": 81,
      "n": 82,
      "o": 83,
      "p": 84,
      "q": 85,
      "r": 86,
      "s": 87,
      "t": 88,
      "u": 89,
      "v": 90,
      "w": 91,
      "x": 92,
      "y": 93,
      "z": 94,
      "{": 95,
      "|": 96,
      "}": 97,
      "~": 98,
      "": 99,
      "": 100,
      "": 101,
      "": 102,
      "": 103,
      "": 104,
      "": 105,
      "": 106,
      "": 107,
      "": 108,
      "": 109,
      "": 110,
      "": 111,
      "": 112,
      "": 113,
      "": 114,
      "": 115,
      "": 116,
      "": 117,
      "": 118,
      "": 119,
      "": 120,
      "": 121,
      "": 122,
      "": 123,
      "": 124,
      "": 125,
      "": 126,
      "": 127,
      "": 128,
      "": 129,
      "¡": 130,
      "¢": 131,
      "£": 132,
      "¤": 133,
      "¥": 134,
      "¦": 135,
      "§": 136,
      "¨": 137,
      "©": 138,
      "ª": 139,
      "«": 140,
      "¬": 141,
      "­": 142,
      "®": 143,
      "¯": 144,
      "°": 145,
      "±": 146,
      "²": 147,
      "³": 148,
      "´": 149,
      "µ": 150,
      "¶": 151,
      "·": 152,
      "¸": 153,
      "¹": 154,
      "º": 155,
      "»": 156,
      "¼": 157,
      "½": 158,
      "¾": 159,
      "¿": 160,
      "À": 161,
      "Á": 162,
      "Â": 163,
      "Ã": 164,
      "Ä": 165,
      "Å": 166,
      "Æ": 167,
      "Ç": 168,
      "È": 169,
      "É": 170,
      "Ê": 171,
      "Ë": 172,
      "Ì": 173,
      "Í": 174,
      "Î": 175,
      "Ï": 176,
      "Ð": 177,
      "Ñ": 178,
      "Ò": 179,
      "Ó": 180,
      "Ô": 181,
      "Õ": 182,
      "Ö": 183,
      "×": 184,
      "Ø": 185,
      "Ù": 186,
      "Ú": 187,
      "Û": 188,
      "Ü": 189,
      "Ý": 190,
      "Þ": 191,
      "ß": 192,
      "à": 193,
      "á": 194,
      "â": 195,
      "ã": 196,
      "ä": 197,
      "å": 198,
      "æ": 199,
      "ç": 200,
      "è": 201,
      "é": 202,
      "ê": 203,
      "ë": 204,
      "ì": 205,
      "í": 206,
      "î": 207,
      "ï": 208,
      "ð": 209,
      "ñ": 210,
      "ò": 211,
      "ó": 212,
      "ô": 213,
      "õ": 214,
      "ö": 215,
      "÷": 216,
      "ø": 217,
      "ù": 218,
      "ú": 219,
      "û": 220,
      "ü": 221,
      "ý": 222,
      "þ": 223,
      "ÿ": 224,
      "Ā": 225,
      "ā": 226,
      "Ă": 227,
      "ă": 228,
      "Ą": 229,
      "ą": 230,
      "Ć": 231,
      "ć": 232,
      "Ĉ": 233,
      "ĉ": 234,
      "Ċ": 235,
      "ċ": 236,
      "Č": 237,
      "č": 238,
      "Ď": 239,
      "ď": 240,
      "Đ": 241,
      "đ": 242,
      "Ē": 243,
      "ē": 244,
      "Ĕ": 245,
      "ĕ": 246,
      "Ė": 247,
      "ė": 248,
      "Ę": 249,
      "ę": 250,
      "Ě": 251,
      "ě": 252,
      "ĝ": 253,
      "ğ": 254,
      "Ġ": 255,
      "ġ": 256,
      "Ģ": 257,
      "ģ": 258,
      "ĥ": 259,
      "Ħ": 260,
      "ħ": 261,
      "ĩ": 262,
      "Ī": 263,
      "ī": 264,
      "ĭ": 265,
      "į": 266,
      "İ": 267,
      "ı": 268,
      "ĵ": 269,
      "Ķ": 270,
      "ķ": 271,
      "ĺ": 272,
      "Ļ": 273,
      "ļ": 274,
      "Ľ": 275,
      "ľ": 276,
      "Ł": 277,
      "ł": 278,
      "ń": 279,
      "ņ": 280,
      "Ň": 281,
      "ň": 282,
      "ŋ": 283,
      "Ō": 284,
      "ō": 285,
      "ŏ": 286,
      "Ő": 287,
      "ő": 288,
      "Œ": 289,
      "œ": 290,
      "Ŕ": 291,
      "ŕ": 292,
      "ŗ": 293,
      "Ř": 294,
      "ř": 295,
      "Ś": 296,
      "ś": 297,
      "Ŝ": 298,
      "ŝ": 299,
      "Ş": 300,
      "ş": 301,
      "Š": 302,
      "š": 303,
      "Ţ": 304,
      "ţ": 305,
      "ť": 306,
      "Ŧ": 307,
      "ũ": 308,
      "Ū": 309,
      "ū": 310,
      "ŭ": 311,
      "ů": 312,
      "ű": 313,
      "ų": 314,
      "ŵ": 315,
      "ŷ": 316,
      "Ÿ": 317,
      "Ź": 318,
      "ź": 319,
      "Ż": 320,
      "ż": 321,
      "Ž": 322,
      "ž": 323,
      "ſ": 324,
      "Ɔ": 325,
      "Ƌ": 326,
      "ƌ": 327,
      "Ǝ": 328,
      "Ƒ": 329,
      "ƒ": 330,
      "ơ": 331,
      "ư": 332,
      "ƶ": 333,
      "ǁ": 334,
      "ǂ": 335,
      "ǃ": 336,
      "Ǎ": 337,
      "ǎ": 338,
      "ǐ": 339,
      "ǒ": 340,
      "ǔ": 341,
      "ǚ": 342,
      "ǣ": 343,
      "Ǧ": 344,
      "ǧ": 345,
      "ǩ": 346,
      "Ǫ": 347,
      "ǫ": 348,
      "ǭ": 349,
      "ǰ": 350,
      "ǵ": 351,
      "ǹ": 352,
      "ǿ": 353,
      "ȃ": 354,
      "Ș": 355,
      "ș": 356,
      "Ț": 357,
      "ț": 358,
      "Ȝ": 359,
      "ȝ": 360,
      "ȳ": 361,
      "ȷ": 362,
      "Ɂ": 363,
      "ɂ": 364,
      "ɐ": 365,
      "ɑ": 366,
      "ɒ": 367,
      "ɓ": 368,
      "ɔ": 369,
      "ɕ": 370,
      "ɖ": 371,
      "ɗ": 372,
      "ɘ": 373,
      "ə": 374,
      "ɛ": 375,
      "ɜ": 376,
      "ɝ": 377,
      "ɠ": 378,
      "ɡ": 379,
      "ɢ": 380,
      "ɣ": 381,
      "ɥ": 382,
      "ɦ": 383,
      "ɨ": 384,
      "ɪ": 385,
      "ɫ": 386,
      "ɬ": 387,
      "ɮ": 388,
      "ɯ": 389,
      "ɲ": 390,
      "ɳ": 391,
      "ɴ": 392,
      "ɶ": 393,
      "ɹ": 394,
      "ɾ": 395,
      "ʀ": 396,
      "ʁ": 397,
      "ʂ": 398,
      "ʃ": 399,
      "ʄ": 400,
      "ʈ": 401,
      "ʉ": 402,
      "ʊ": 403,
      "ʋ": 404,
      "ʌ": 405,
      "ʎ": 406,
      "ʏ": 407,
      "ʐ": 408,
      "ʒ": 409,
      "ʔ": 410,
      "ʕ": 411,
      "ʙ": 412,
      "ʛ": 413,
      "ʜ": 414,
      "ʟ": 415,
      "ʤ": 416,
      "ʦ": 417,
      "ʰ": 418,
      "ʱ": 419,
      "ʲ": 420,
      "ʳ": 421,
      "ʷ": 422,
      "ʹ": 423,
      "ʻ": 424,
      "ʼ": 425,
      "ʽ": 426,
      "ʾ": 427,
      "ʿ": 428,
      "ˀ": 429,
      "ˁ": 430,
      "ˆ": 431,
      "ˇ": 432,
      "ˈ": 433,
      "ˊ": 434,
      "ˋ": 435,
      "ˌ": 436,
      "ː": 437,
      "˙": 438,
      "˚": 439,
      "˛": 440,
      "˜": 441,
      "ˡ": 442,
      "ˤ": 443,
      "˥": 444,
      "˧": 445,
      "˨": 446,
      "˩": 447,
      "˹": 448,
      "˺": 449,
      "̀": 450,
      "́": 451,
      "̂": 452,
      "̃": 453,
      "̄": 454,
      "̅": 455,
      "̆": 456,
      "̇": 457,
      "̈": 458,
      "̌": 459,
      "̍": 460,
      "̐": 461,
      "̓": 462,
      "̚": 463,
      "̞": 464,
      "̠": 465,
      "̣": 466,
      "̤": 467,
      "̥": 468,
      "̧": 469,
      "̨": 470,
      "̩": 471,
      "̪": 472,
      "̯": 473,
      "̱": 474,
      "̲": 475,
      "̺": 476,
      "̼": 477,
      "̿": 478,
      "͛": 479,
      "͜": 480,
      "͡": 481,
      "΄": 482,
      "Ά": 483,
      "·": 484,
      "Έ": 485,
      "Ή": 486,
      "Ί": 487,
      "Ό": 488,
      "Α": 489,
      "Β": 490,
      "Γ": 491,
      "Δ": 492,
      "Ε": 493,
      "Ζ": 494,
      "Η": 495,
      "Θ": 496,
      "Ι": 497,
      "Κ": 498,
      "Λ": 499,
      "Μ": 500,
      "Ν": 501,
      "Ξ": 502,
      "Ο": 503,
      "Π": 504,
      "Ρ": 505,
      "Σ": 506,
      "Τ": 507,
      "Υ": 508,
      "Φ": 509,
      "Χ": 510,
      "Ψ": 511,
      "Ω": 512,
      "ά": 513,
      "έ": 514,
      "ή": 515,
      "ί": 516,
      "α": 517,
      "β": 518,
      "γ": 519,
      "δ": 520,
      "ε": 521,
      "ζ": 522,
      "η": 523,
      "θ": 524,
      "ι": 525,
      "κ": 526,
      "λ": 527,
      "μ": 528,
      "ν": 529,
      "ξ": 530,
      "ο": 531,
      "π": 532,
      "ρ": 533,
      "ς": 534,
      "σ": 535,
      "τ": 536,
      "υ": 537,
      "φ": 538,
      "χ": 539,
      "ψ": 540,
      "ω": 541,
      "ϊ": 542,
      "ό": 543,
      "ύ": 544,
      "ώ": 545,
      "ϑ": 546,
      "ϕ": 547,
      "Ϙ": 548,
      "Ϛ": 549,
      "ϛ": 550,
      "Ϝ": 551,
      "ϝ": 552,
      "ϵ": 553,
      "Ϸ": 554,
      "ϸ": 555,
      "Ϲ": 556,
      "Ϻ": 557,
      "ϻ": 558,
      "Ѐ": 559,
      "Ё": 560,
      "Ђ": 561,
      "Ѓ": 562,
      "Є": 563,
      "Ѕ": 564,
      "І": 565,
      "Ї": 566,
      "Ј": 567,
      "Љ": 568,
      "Њ": 569,
      "Ќ": 570,
      "Ѝ": 571,
      "А": 572,
      "Б": 573,
      "В": 574,
      "Г": 575,
      "Д": 576,
      "Е": 577,
      "Ж": 578,
      "З": 579,
      "И": 580,
      "Й": 581,
      "К": 582,
      "Л": 583,
      "М": 584,
      "Н": 585,
      "О": 586,
      "П": 587,
      "Р": 588,
      "С": 589,
      "Т": 590,
      "У": 591,
      "Ф": 592,
      "Х": 593,
      "Ц": 594,
      "Ч": 595,
      "Ш": 596,
      "Щ": 597,
      "Ъ": 598,
      "Ы": 599,
      "Ь": 600,
      "Э": 601,
      "Ю": 602,
      "Я": 603,
      "а": 604,
      "б": 605,
      "в": 606,
      "г": 607,
      "д": 608,
      "е": 609,
      "ж": 610,
      "з": 611,
      "и": 612,
      "й": 613,
      "к": 614,
      "л": 615,
      "м": 616,
      "н": 617,
      "о": 618,
      "п": 619,
      "р": 620,
      "с": 621,
      "т": 622,
      "у": 623,
      "ф": 624,
      "х": 625,
      "ц": 626,
      "ч": 627,
      "ш": 628,
      "щ": 629,
      "ъ": 630,
      "ы": 631,
      "ь": 632,
      "э": 633,
      "ю": 634,
      "я": 635,
      "ѐ": 636,
      "ё": 637,
      "ђ": 638,
      "ѓ": 639,
      "є": 640,
      "ѕ": 641,
      "і": 642,
      "ї": 643,
      "ј": 644,
      "љ": 645,
      "њ": 646,
      "ћ": 647,
      "ќ": 648,
      "ѝ": 649,
      "ў": 650,
      "Ѡ": 651,
      "ѡ": 652,
      "Ѣ": 653,
      "ѣ": 654,
      "Ѧ": 655,
      "ѧ": 656,
      "Ѫ": 657,
      "ѫ": 658,
      "Ѯ": 659,
      "Ѱ": 660,
      "Ѳ": 661,
      "Ҁ": 662,
      "҆": 663,
      "ҍ": 664,
      "Ҏ": 665,
      "ҏ": 666,
      "Ґ": 667,
      "ґ": 668,
      "ғ": 669,
      "Қ": 670,
      "қ": 671,
      "ҡ": 672,
      "ҧ": 673,
      "Ҫ": 674,
      "Ү": 675,
      "ү": 676,
      "ұ": 677,
      "ҹ": 678,
      "Ӏ": 679,
      "ӆ": 680,
      "ӈ": 681,
      "Ӑ": 682,
      "Ӗ": 683,
      "Ә": 684,
      "ә": 685,
      "ӧ": 686,
      "Ө": 687,
      "ө": 688,
      "Ӱ": 689,
      "ӱ": 690,
      "Ӳ": 691,
      "Ԁ": 692,
      "ԁ": 693,
      "Ԙ": 694,
      "ԙ": 695,
      "Ա": 696,
      "Գ": 697,
      "Դ": 698,
      "Ե": 699,
      "Թ": 700,
      "Ժ": 701,
      "Ի": 702,
      "Լ": 703,
      "Խ": 704,
      "Կ": 705,
      "Հ": 706,
      "Մ": 707,
      "Յ": 708,
      "Ն": 709,
      "Շ": 710,
      "Ո": 711,
      "Պ": 712,
      "Ջ": 713,
      "Ռ": 714,
      "Ս": 715,
      "Վ": 716,
      "Ց": 717,
      "Փ": 718,
      "Ք": 719,
      "Ֆ": 720,
      "ա": 721,
      "բ": 722,
      "գ": 723,
      "դ": 724,
      "ե": 725,
      "զ": 726,
      "է": 727,
      "թ": 728,
      "ի": 729,
      "լ": 730,
      "խ": 731,
      "կ": 732,
      "հ": 733,
      "ձ": 734,
      "ղ": 735,
      "մ": 736,
      "յ": 737,
      "ն": 738,
      "շ": 739,
      "ո": 740,
      "չ": 741,
      "պ": 742,
      "ռ": 743,
      "ս": 744,
      "վ": 745,
      "տ": 746,
      "ր": 747,
      "ց": 748,
      "ւ": 749,
      "փ": 750,
      "ք": 751,
      "օ": 752,
      "ֆ": 753,
      "֔": 754,
      "֣": 755,
      "ְ": 756,
      "ִ": 757,
      "ֵ": 758,
      "ַ": 759,
      "ָ": 760,
      "ֹ": 761,
      "ּ": 762,
      "־": 763,
      "ֿ": 764,
      "ׁ": 765,
      "ׂ": 766,
      "א": 767,
      "ב": 768,
      "ג": 769,
      "ד": 770,
      "ה": 771,
      "ו": 772,
      "ז": 773,
      "ח": 774,
      "ט": 775,
      "י": 776,
      "ך": 777,
      "כ": 778,
      "ל": 779,
      "ם": 780,
      "מ": 781,
      "ן": 782,
      "נ": 783,
      "ס": 784,
      "ע": 785,
      "ף": 786,
      "פ": 787,
      "ץ": 788,
      "צ": 789,
      "ק": 790,
      "ר": 791,
      "ש": 792,
      "ת": 793,
      "װ": 794,
      "״": 795,
      "،": 796,
      "ء": 797,
      "آ": 798,
      "أ": 799,
      "ؤ": 800,
      "إ": 801,
      "ئ": 802,
      "ا": 803,
      "ب": 804,
      "ة": 805,
      "ت": 806,
      "ث": 807,
      "ج": 808,
      "ح": 809,
      "خ": 810,
      "د": 811,
      "ذ": 812,
      "ر": 813,
      "ز": 814,
      "س": 815,
      "ش": 816,
      "ص": 817,
      "ض": 818,
      "ط": 819,
      "ظ": 820,
      "ع": 821,
      "غ": 822,
      "ـ": 823,
      "ف": 824,
      "ق": 825,
      "ك": 826,
      "ل": 827,
      "م": 828,
      "ن": 829,
      "ه": 830,
      "و": 831,
      "ى": 832,
      "ي": 833,
      "ً": 834,
      "ٌ": 835,
      "ٍ": 836,
      "َ": 837,
      "ُ": 838,
      "ِ": 839,
      "ّ": 840,
      "ْ": 841,
      "ٓ": 842,
      "ٔ": 843,
      "١": 844,
      "٢": 845,
      "٤": 846,
      "٥": 847,
      "٦": 848,
      "٧": 849,
      "٨": 850,
      "٩": 851,
      "ٰ": 852,
      "ٱ": 853,
      "ٹ": 854,
      "ٽ": 855,
      "پ": 856,
      "ٿ": 857,
      "ڄ": 858,
      "څ": 859,
      "چ": 860,
      "ڈ": 861,
      "ڊ": 862,
      "ڌ": 863,
      "ڑ": 864,
      "ڕ": 865,
      "ژ": 866,
      "ښ": 867,
      "ڠ": 868,
      "ڤ": 869,
      "ک": 870,
      "ڬ": 871,
      "ڭ": 872,
      "گ": 873,
      "ڵ": 874,
      "ں": 875,
      "ڽ": 876,
      "ھ": 877,
      "ہ": 878,
      "ۆ": 879,
      "ی": 880,
      "ێ": 881,
      "ې": 882,
      "ے": 883,
      "ە": 884,
      "ۖ": 885,
      "ۗ": 886,
      "ۚ": 887,
      "۟": 888,
      "ۢ": 889,
      "ۥ": 890,
      "۶": 891,
      "۷": 892,
      "܅": 893,
      "ܐ": 894,
      "ܒ": 895,
      "ܕ": 896,
      "ܘ": 897,
      "ܚ": 898,
      "ܟ": 899,
      "ܡ": 900,
      "ܣ": 901,
      "ܪ": 902,
      "ܫ": 903,
      "ܬ": 904,
      "ݢ": 905,
      "ހ": 906,
      "ށ": 907,
      "ނ": 908,
      "ރ": 909,
      "ބ": 910,
      "ކ": 911,
      "އ": 912,
      "ވ": 913,
      "މ": 914,
      "ފ": 915,
      "ދ": 916,
      "ތ": 917,
      "ލ": 918,
      "ގ": 919,
      "ސ": 920,
      "ޑ": 921,
      "ޒ": 922,
      "ޔ": 923,
      "ޖ": 924,
      "ޙ": 925,
      "ޛ": 926,
      "ޝ": 927,
      "ޞ": 928,
      "ޢ": 929,
      "ޣ": 930,
      "ޤ": 931,
      "ަ": 932,
      "ާ": 933,
      "ި": 934,
      "ީ": 935,
      "ު": 936,
      "ޫ": 937,
      "ެ": 938,
      "ޭ": 939,
      "ޮ": 940,
      "ް": 941,
      "ँ": 942,
      "ं": 943,
      "ः": 944,
      "अ": 945,
      "आ": 946,
      "इ": 947,
      "उ": 948,
      "ऋ": 949,
      "ए": 950,
      "ओ": 951,
      "क": 952,
      "ख": 953,
      "ग": 954,
      "घ": 955,
      "ङ": 956,
      "च": 957,
      "छ": 958,
      "ज": 959,
      "ञ": 960,
      "ट": 961,
      "ठ": 962,
      "ड": 963,
      "ढ": 964,
      "ण": 965,
      "त": 966,
      "थ": 967,
      "द": 968,
      "ध": 969,
      "न": 970,
      "प": 971,
      "फ": 972,
      "ब": 973,
      "भ": 974,
      "म": 975,
      "य": 976,
      "र": 977,
      "ल": 978,
      "ळ": 979,
      "व": 980,
      "श": 981,
      "ष": 982,
      "स": 983,
      "ह": 984,
      "़": 985,
      "ऽ": 986,
      "ा": 987,
      "ि": 988,
      "ी": 989,
      "ु": 990,
      "ू": 991,
      "ृ": 992,
      "े": 993,
      "ै": 994,
      "ॉ": 995,
      "ो": 996,
      "ौ": 997,
      "्": 998,
      "।": 999,
      "॥": 1000,
      "०": 1001,
      "१": 1002,
      "२": 1003,
      "३": 1004,
      "४": 1005,
      "५": 1006,
      "६": 1007,
      "७": 1008,
      "ঁ": 1009,
      "ং": 1010,
      "অ": 1011,
      "আ": 1012,
      "ই": 1013,
      "উ": 1014,
      "এ": 1015,
      "ও": 1016,
      "ক": 1017,
      "খ": 1018,
      "গ": 1019,
      "ঘ": 1020,
      "ঙ": 1021,
      "চ": 1022,
      "ছ": 1023,
      "জ": 1024,
      "ঞ": 1025,
      "ট": 1026,
      "ড": 1027,
      "ঢ": 1028,
      "ণ": 1029,
      "ত": 1030,
      "থ": 1031,
      "দ": 1032,
      "ধ": 1033,
      "ন": 1034,
      "প": 1035,
      "ফ": 1036,
      "ব": 1037,
      "ভ": 1038,
      "ম": 1039,
      "য": 1040,
      "র": 1041,
      "ল": 1042,
      "শ": 1043,
      "ষ": 1044,
      "স": 1045,
      "হ": 1046,
      "়": 1047,
      "া": 1048,
      "ি": 1049,
      "ী": 1050,
      "ু": 1051,
      "ূ": 1052,
      "ৃ": 1053,
      "ে": 1054,
      "ৈ": 1055,
      "ো": 1056,
      "্": 1057,
      "ৎ": 1058,
      "ৰ": 1059,
      "ਂ": 1060,
      "ਅ": 1061,
      "ਆ": 1062,
      "ਈ": 1063,
      "ਓ": 1064,
      "ਔ": 1065,
      "ਖ": 1066,
      "ਗ": 1067,
      "ਘ": 1068,
      "ਚ": 1069,
      "ਜ": 1070,
      "ਠ": 1071,
      "ਣ": 1072,
      "ਤ": 1073,
      "ਥ": 1074,
      "ਦ": 1075,
      "ਨ": 1076,
      "ਪ": 1077,
      "ਫ": 1078,
      "ਬ": 1079,
      "ਮ": 1080,
      "ਰ": 1081,
      "ਲ": 1082,
      "ਵ": 1083,
      "ਸ": 1084,
      "ਹ": 1085,
      "਼": 1086,
      "ਾ": 1087,
      "ਿ": 1088,
      "ੀ": 1089,
      "ੁ": 1090,
      "ੇ": 1091,
      "ੈ": 1092,
      "ੋ": 1093,
      "ੜ": 1094,
      "ੰ": 1095,
      "ੱ": 1096,
      "ં": 1097,
      "ક": 1098,
      "ગ": 1099,
      "ચ": 1100,
      "છ": 1101,
      "જ": 1102,
      "ટ": 1103,
      "ડ": 1104,
      "ત": 1105,
      "દ": 1106,
      "ન": 1107,
      "બ": 1108,
      "ય": 1109,
      "ર": 1110,
      "લ": 1111,
      "સ": 1112,
      "હ": 1113,
      "ા": 1114,
      "િ": 1115,
      "ી": 1116,
      "ુ": 1117,
      "ે": 1118,
      "ો": 1119,
      "્": 1120,
      "ଂ": 1121,
      "ଛ": 1122,
      "ଜ": 1123,
      "ଡ": 1124,
      "ଣ": 1125,
      "ତ": 1126,
      "ଦ": 1127,
      "ଧ": 1128,
      "ନ": 1129,
      "ପ": 1130,
      "ବ": 1131,
      "ମ": 1132,
      "ର": 1133,
      "ଶ": 1134,
      "ସ": 1135,
      "ହ": 1136,
      "ା": 1137,
      "ି": 1138,
      "ୀ": 1139,
      "ୁ": 1140,
      "ୋ": 1141,
      "୍": 1142,
      "ୟ": 1143,
      "ஃ": 1144,
      "அ": 1145,
      "இ": 1146,
      "ஈ": 1147,
      "ஊ": 1148,
      "எ": 1149,
      "ஐ": 1150,
      "ஒ": 1151,
      "க": 1152,
      "ங": 1153,
      "ச": 1154,
      "ஜ": 1155,
      "ஞ": 1156,
      "ட": 1157,
      "ண": 1158,
      "த": 1159,
      "ந": 1160,
      "ன": 1161,
      "ப": 1162,
      "ம": 1163,
      "ய": 1164,
      "ர": 1165,
      "ற": 1166,
      "ல": 1167,
      "ள": 1168,
      "ழ": 1169,
      "வ": 1170,
      "ஸ": 1171,
      "ா": 1172,
      "ி": 1173,
      "ீ": 1174,
      "ு": 1175,
      "ூ": 1176,
      "ே": 1177,
      "ை": 1178,
      "ொ": 1179,
      "ோ": 1180,
      "்": 1181,
      "ం": 1182,
      "ః": 1183,
      "అ": 1184,
      "ఆ": 1185,
      "ఇ": 1186,
      "ఈ": 1187,
      "ఉ": 1188,
      "ఊ": 1189,
      "ఋ": 1190,
      "ఎ": 1191,
      "ఏ": 1192,
      "ఐ": 1193,
      "ఒ": 1194,
      "ఓ": 1195,
      "ఔ": 1196,
      "క": 1197,
      "ఖ": 1198,
      "గ": 1199,
      "ఘ": 1200,
      "ఙ": 1201,
      "చ": 1202,
      "ఛ": 1203,
      "జ": 1204,
      "ఝ": 1205,
      "ఞ": 1206,
      "ట": 1207,
      "ఠ": 1208,
      "డ": 1209,
      "ఢ": 1210,
      "ణ": 1211,
      "త": 1212,
      "థ": 1213,
      "ద": 1214,
      "ధ": 1215,
      "న": 1216,
      "ప": 1217,
      "ఫ": 1218,
      "బ": 1219,
      "భ": 1220,
      "మ": 1221,
      "య": 1222,
      "ర": 1223,
      "ఱ": 1224,
      "ల": 1225,
      "ళ": 1226,
      "వ": 1227,
      "శ": 1228,
      "ష": 1229,
      "స": 1230,
      "హ": 1231,
      "ా": 1232,
      "ి": 1233,
      "ీ": 1234,
      "ు": 1235,
      "ూ": 1236,
      "ె": 1237,
      "ై": 1238,
      "ో": 1239,
      "్": 1240,
      "ౕ": 1241,
      "ౠ": 1242,
      "౦": 1243,
      "౧": 1244,
      "౨": 1245,
      "౩": 1246,
      "౪": 1247,
      "౫": 1248,
      "౬": 1249,
      "౭": 1250,
      "౮": 1251,
      "౯": 1252,
      "ಂ": 1253,
      "ಕ": 1254,
      "ಗ": 1255,
      "ಜ": 1256,
      "ಟ": 1257,
      "ಡ": 1258,
      "ಣ": 1259,
      "ತ": 1260,
      "ನ": 1261,
      "ಪ": 1262,
      "ಬ": 1263,
      "ಭ": 1264,
      "ಮ": 1265,
      "ಯ": 1266,
      "ರ": 1267,
      "ಲ": 1268,
      "ಳ": 1269,
      "ವ": 1270,
      "ಶ": 1271,
      "ಸ": 1272,
      "ಹ": 1273,
      "ಾ": 1274,
      "ಿ": 1275,
      "ೀ": 1276,
      "ು": 1277,
      "ೂ": 1278,
      "ೇ": 1279,
      "ೈ": 1280,
      "ೊ": 1281,
      "್": 1282,
      "ം": 1283,
      "അ": 1284,
      "ഉ": 1285,
      "ക": 1286,
      "ഗ": 1287,
      "ങ": 1288,
      "ച": 1289,
      "ജ": 1290,
      "ഞ": 1291,
      "ട": 1292,
      "ത": 1293,
      "ദ": 1294,
      "ന": 1295,
      "പ": 1296,
      "മ": 1297,
      "യ": 1298,
      "ര": 1299,
      "റ": 1300,
      "ള": 1301,
      "വ": 1302,
      "ശ": 1303,
      "ഷ": 1304,
      "സ": 1305,
      "ഹ": 1306,
      "ാ": 1307,
      "ി": 1308,
      "ീ": 1309,
      "ു": 1310,
      "െ": 1311,
      "േ": 1312,
      "ോ": 1313,
      "്": 1314,
      "ൻ": 1315,
      "ർ": 1316,
      "ൽ": 1317,
      "ං": 1318,
      "අ": 1319,
      "ආ": 1320,
      "ඇ": 1321,
      "එ": 1322,
      "ඖ": 1323,
      "ක": 1324,
      "ග": 1325,
      "ච": 1326,
      "ජ": 1327,
      "ඥ": 1328,
      "ට": 1329,
      "ඨ": 1330,
      "ඩ": 1331,
      "ණ": 1332,
      "ත": 1333,
      "ද": 1334,
      "ධ": 1335,
      "න": 1336,
      "ප": 1337,
      "බ": 1338,
      "භ": 1339,
      "ම": 1340,
      "ය": 1341,
      "ර": 1342,
      "ල": 1343,
      "ව": 1344,
      "ශ": 1345,
      "ෂ": 1346,
      "ස": 1347,
      "හ": 1348,
      "්": 1349,
      "ා": 1350,
      "ැ": 1351,
      "ි": 1352,
      "ී": 1353,
      "ු": 1354,
      "ෘ": 1355,
      "ෙ": 1356,
      "ේ": 1357,
      "ො": 1358,
      "ෝ": 1359,
      "ก": 1360,
      "ข": 1361,
      "ค": 1362,
      "ง": 1363,
      "จ": 1364,
      "ฉ": 1365,
      "ช": 1366,
      "ซ": 1367,
      "ญ": 1368,
      "ฎ": 1369,
      "ฏ": 1370,
      "ฐ": 1371,
      "ฑ": 1372,
      "ฒ": 1373,
      "ณ": 1374,
      "ด": 1375,
      "ต": 1376,
      "ถ": 1377,
      "ท": 1378,
      "ธ": 1379,
      "น": 1380,
      "บ": 1381,
      "ป": 1382,
      "ผ": 1383,
      "ฝ": 1384,
      "พ": 1385,
      "ฟ": 1386,
      "ภ": 1387,
      "ม": 1388,
      "ย": 1389,
      "ร": 1390,
      "ฤ": 1391,
      "ล": 1392,
      "ว": 1393,
      "ศ": 1394,
      "ษ": 1395,
      "ส": 1396,
      "ห": 1397,
      "ฬ": 1398,
      "อ": 1399,
      "ฯ": 1400,
      "ะ": 1401,
      "ั": 1402,
      "า": 1403,
      "ำ": 1404,
      "ิ": 1405,
      "ี": 1406,
      "ึ": 1407,
      "ื": 1408,
      "ุ": 1409,
      "ู": 1410,
      "เ": 1411,
      "แ": 1412,
      "โ": 1413,
      "ใ": 1414,
      "ไ": 1415,
      "็": 1416,
      "่": 1417,
      "้": 1418,
      "๊": 1419,
      "์": 1420,
      "๏": 1421,
      "ກ": 1422,
      "ຄ": 1423,
      "ຊ": 1424,
      "ຍ": 1425,
      "ດ": 1426,
      "ທ": 1427,
      "ນ": 1428,
      "ບ": 1429,
      "ຜ": 1430,
      "ພ": 1431,
      "ລ": 1432,
      "ວ": 1433,
      "ສ": 1434,
      "ຫ": 1435,
      "ອ": 1436,
      "ຮ": 1437,
      "ະ": 1438,
      "ັ": 1439,
      "າ": 1440,
      "ຳ": 1441,
      "ິ": 1442,
      "ີ": 1443,
      "ຶ": 1444,
      "ື": 1445,
      "ູ": 1446,
      "ົ": 1447,
      "ເ": 1448,
      "ແ": 1449,
      "ໃ": 1450,
      "ໄ": 1451,
      "່": 1452,
      "້": 1453,
      "ໍ": 1454,
      "་": 1455,
      "།": 1456,
      "ཀ": 1457,
      "ག": 1458,
      "ང": 1459,
      "ཆ": 1460,
      "ཏ": 1461,
      "ཐ": 1462,
      "ད": 1463,
      "ན": 1464,
      "པ": 1465,
      "ཕ": 1466,
      "བ": 1467,
      "མ": 1468,
      "ཙ": 1469,
      "ཞ": 1470,
      "ཡ": 1471,
      "ར": 1472,
      "ལ": 1473,
      "ས": 1474,
      "ཧ": 1475,
      "ཱ": 1476,
      "ི": 1477,
      "ུ": 1478,
      "ེ": 1479,
      "ོ": 1480,
      "ྒ": 1481,
      "ྗ": 1482,
      "ྟ": 1483,
      "ྨ": 1484,
      "ྱ": 1485,
      "ྲ": 1486,
      "က": 1487,
      "ဃ": 1488,
      "င": 1489,
      "စ": 1490,
      "ဆ": 1491,
      "ဇ": 1492,
      "ဈ": 1493,
      "ဉ": 1494,
      "ည": 1495,
      "ဋ": 1496,
      "ဌ": 1497,
      "ဍ": 1498,
      "ဎ": 1499,
      "ဏ": 1500,
      "တ": 1501,
      "ထ": 1502,
      "ဓ": 1503,
      "န": 1504,
      "ပ": 1505,
      "ဗ": 1506,
      "ဘ": 1507,
      "မ": 1508,
      "ရ": 1509,
      "လ": 1510,
      "ဝ": 1511,
      "သ": 1512,
      "ဟ": 1513,
      "ဠ": 1514,
      "အ": 1515,
      "ဦ": 1516,
      "ါ": 1517,
      "ာ": 1518,
      "ိ": 1519,
      "ီ": 1520,
      "ု": 1521,
      "ူ": 1522,
      "ေ": 1523,
      "ံ": 1524,
      "့": 1525,
      "း": 1526,
      "်": 1527,
      "ျ": 1528,
      "ြ": 1529,
      "ွ": 1530,
      "ှ": 1531,
      "၀": 1532,
      "၁": 1533,
      "၂": 1534,
      "၃": 1535,
      "၄": 1536,
      "၅": 1537,
      "၆": 1538,
      "၇": 1539,
      "၈": 1540,
      "၉": 1541,
      "ၐ": 1542,
      "ၑ": 1543,
      "ა": 1544,
      "ბ": 1545,
      "გ": 1546,
      "დ": 1547,
      "ე": 1548,
      "ვ": 1549,
      "ზ": 1550,
      "თ": 1551,
      "ი": 1552,
      "კ": 1553,
      "ლ": 1554,
      "მ": 1555,
      "ნ": 1556,
      "ო": 1557,
      "რ": 1558,
      "ს": 1559,
      "ტ": 1560,
      "უ": 1561,
      "ქ": 1562,
      "ღ": 1563,
      "შ": 1564,
      "ც": 1565,
      "ძ": 1566,
      "წ": 1567,
      "ჭ": 1568,
      "ხ": 1569,
      "ჯ": 1570,
      "ሁ": 1571,
      "ህ": 1572,
      "ለ": 1573,
      "ሊ": 1574,
      "ላ": 1575,
      "ሌ": 1576,
      "ሓ": 1577,
      "ሕ": 1578,
      "መ": 1579,
      "ማ": 1580,
      "ሜ": 1581,
      "ም": 1582,
      "ረ": 1583,
      "ሪ": 1584,
      "ራ": 1585,
      "ር": 1586,
      "ሮ": 1587,
      "ሰ": 1588,
      "ሱ": 1589,
      "ሳ": 1590,
      "ሴ": 1591,
      "ስ": 1592,
      "ቂ": 1593,
      "ቃ": 1594,
      "ቅ": 1595,
      "ቆ": 1596,
      "ቈ": 1597,
      "ቢ": 1598,
      "ባ": 1599,
      "ብ": 1600,
      "ቦ": 1601,
      "ቲ": 1602,
      "ታ": 1603,
      "ቴ": 1604,
      "ት": 1605,
      "ቸ": 1606,
      "ነ": 1607,
      "ን": 1608,
      "ኖ": 1609,
      "አ": 1610,
      "ኢ": 1611,
      "ኣ": 1612,
      "ከ": 1613,
      "ኩ": 1614,
      "ኮ": 1615,
      "ወ": 1616,
      "ዊ": 1617,
      "ው": 1618,
      "ዎ": 1619,
      "ዐ": 1620,
      "ዕ": 1621,
      "ዘ": 1622,
      "ዝ": 1623,
      "የ": 1624,
      "ያ": 1625,
      "ይ": 1626,
      "ዮ": 1627,
      "ዲ": 1628,
      "ዳ": 1629,
      "ዴ": 1630,
      "ድ": 1631,
      "ገ": 1632,
      "ጌ": 1633,
      "ግ": 1634,
      "ጎ": 1635,
      "ጵ": 1636,
      "ፍ": 1637,
      "Ꭰ": 1638,
      "Ꭲ": 1639,
      "Ꭴ": 1640,
      "Ꭵ": 1641,
      "Ꭶ": 1642,
      "Ꭹ": 1643,
      "Ꭿ": 1644,
      "Ꮃ": 1645,
      "Ꮅ": 1646,
      "Ꮕ": 1647,
      "Ꮝ": 1648,
      "Ꮢ": 1649,
      "Ꮣ": 1650,
      "Ꮧ": 1651,
      "Ꮪ": 1652,
      "Ꮵ": 1653,
      "Ꮻ": 1654,
      "Ꮿ": 1655,
      "Ᏹ": 1656,
      "ᐃ": 1657,
      "ᐄ": 1658,
      "ᐅ": 1659,
      "ᐆ": 1660,
      "ᐊ": 1661,
      "ᐋ": 1662,
      "ᐦ": 1663,
      "ᐯ": 1664,
      "ᐱ": 1665,
      "ᐸ": 1666,
      "ᑉ": 1667,
      "ᑐ": 1668,
      "ᑕ": 1669,
      "ᑦ": 1670,
      "ᑲ": 1671,
      "ᒃ": 1672,
      "ᒡ": 1673,
      "ᒪ": 1674,
      "ᒻ": 1675,
      "ᓂ": 1676,
      "ᓄ": 1677,
      "ᓇ": 1678,
      "ᓐ": 1679,
      "ᓗ": 1680,
      "ᓪ": 1681,
      "ᓯ": 1682,
      "ᓴ": 1683,
      "ᔅ": 1684,
      "ᔨ": 1685,
      "ᔪ": 1686,
      "ᔭ": 1687,
      "ᔾ": 1688,
      "ᕐ": 1689,
      "ᕙ": 1690,
      "ᕝ": 1691,
      "ᕿ": 1692,
      "ᖃ": 1693,
      "ᖅ": 1694,
      "ᖏ": 1695,
      "ᖑ": 1696,
      "ᖕ": 1697,
      "ᖖ": 1698,
      "ᖦ": 1699,
      "ᗸ": 1700,
      "ᘅ": 1701,
      "ᚠ": 1702,
      "ᚢ": 1703,
      "ᚦ": 1704,
      "ᚨ": 1705,
      "ᚱ": 1706,
      "ᚲ": 1707,
      "ᛖ": 1708,
      "ᝢ": 1709,
      "ᝮ": 1710,
      "ក": 1711,
      "ខ": 1712,
      "គ": 1713,
      "ង": 1714,
      "ច": 1715,
      "ជ": 1716,
      "ញ": 1717,
      "ឌ": 1718,
      "ណ": 1719,
      "ត": 1720,
      "ទ": 1721,
      "ន": 1722,
      "ប": 1723,
      "ព": 1724,
      "ភ": 1725,
      "ម": 1726,
      "យ": 1727,
      "រ": 1728,
      "ល": 1729,
      "ស": 1730,
      "អ": 1731,
      "ឧ": 1732,
      "ា": 1733,
      "ិ": 1734,
      "ី": 1735,
      "ុ": 1736,
      "ួ": 1737,
      "ៀ": 1738,
      "េ": 1739,
      "ែ": 1740,
      "ោ": 1741,
      "ៅ": 1742,
      "ំ": 1743,
      "ះ": 1744,
      "់": 1745,
      "្": 1746,
      "០": 1747,
      "១": 1748,
      "២": 1749,
      "៣": 1750,
      "៤": 1751,
      "៥": 1752,
      "៦": 1753,
      "៧": 1754,
      "៨": 1755,
      "៩": 1756,
      "ᴀ": 1757,
      "ᴄ": 1758,
      "ᴅ": 1759,
      "ᴇ": 1760,
      "ᴍ": 1761,
      "ᴏ": 1762,
      "ᴖ": 1763,
      "ᴘ": 1764,
      "ᴛ": 1765,
      "ᴜ": 1766,
      "ᴢ": 1767,
      "ᴥ": 1768,
      "ᴫ": 1769,
      "ᵇ": 1770,
      "ᵉ": 1771,
      "ᵢ": 1772,
      "ᷛ": 1773,
      "ᷞ": 1774,
      "ᷟ": 1775,
      "ᷡ": 1776,
      "ᷢ": 1777,
      "Ḍ": 1778,
      "ḍ": 1779,
      "ḏ": 1780,
      "ḓ": 1781,
      "ḗ": 1782,
      "Ḡ": 1783,
      "Ḥ": 1784,
      "ḥ": 1785,
      "Ḩ": 1786,
      "ḩ": 1787,
      "ḫ": 1788,
      "ḱ": 1789,
      "Ḳ": 1790,
      "ḳ": 1791,
      "Ḵ": 1792,
      "ḵ": 1793,
      "ḷ": 1794,
      "ḻ": 1795,
      "ḽ": 1796,
      "ḿ": 1797,
      "ṁ": 1798,
      "ṃ": 1799,
      "ṅ": 1800,
      "Ṇ": 1801,
      "ṇ": 1802,
      "ṉ": 1803,
      "ṋ": 1804,
      "ṓ": 1805,
      "ṗ": 1806,
      "Ṛ": 1807,
      "ṛ": 1808,
      "ṟ": 1809,
      "Ṣ": 1810,
      "ṣ": 1811,
      "Ṭ": 1812,
      "ṭ": 1813,
      "Ṯ": 1814,
      "ṯ": 1815,
      "ṱ": 1816,
      "ṿ": 1817,
      "ẋ": 1818,
      "Ẓ": 1819,
      "ẓ": 1820,
      "Ẕ": 1821,
      "ẕ": 1822,
      "ẖ": 1823,
      "ẞ": 1824,
      "Ạ": 1825,
      "ạ": 1826,
      "Ả": 1827,
      "ả": 1828,
      "Ấ": 1829,
      "ấ": 1830,
      "ầ": 1831,
      "ẩ": 1832,
      "ậ": 1833,
      "Ắ": 1834,
      "ắ": 1835,
      "Ằ": 1836,
      "ằ": 1837,
      "Ẳ": 1838,
      "Ẵ": 1839,
      "ẵ": 1840,
      "Ặ": 1841,
      "ặ": 1842,
      "ẹ": 1843,
      "ẻ": 1844,
      "ẽ": 1845,
      "Ế": 1846,
      "ế": 1847,
      "ề": 1848,
      "ể": 1849,
      "ễ": 1850,
      "ệ": 1851,
      "ỉ": 1852,
      "ị": 1853,
      "Ọ": 1854,
      "ọ": 1855,
      "ỏ": 1856,
      "ố": 1857,
      "ồ": 1858,
      "ổ": 1859,
      "ỗ": 1860,
      "ộ": 1861,
      "ớ": 1862,
      "ờ": 1863,
      "ở": 1864,
      "ợ": 1865,
      "ụ": 1866,
      "ủ": 1867,
      "ứ": 1868,
      "ừ": 1869,
      "ử": 1870,
      "ữ": 1871,
      "ự": 1872,
      "ỳ": 1873,
      "ỹ": 1874,
      "ἀ": 1875,
      "ἁ": 1876,
      "ἂ": 1877,
      "ἄ": 1878,
      "ἅ": 1879,
      "Ἀ": 1880,
      "Ἄ": 1881,
      "Ἅ": 1882,
      "ἐ": 1883,
      "ἑ": 1884,
      "ἔ": 1885,
      "ἕ": 1886,
      "Ἐ": 1887,
      "Ἑ": 1888,
      "Ἔ": 1889,
      "Ἕ": 1890,
      "ἠ": 1891,
      "ἡ": 1892,
      "ἢ": 1893,
      "ἣ": 1894,
      "ἤ": 1895,
      "ἥ": 1896,
      "ἦ": 1897,
      "ἧ": 1898,
      "Ἠ": 1899,
      "Ἡ": 1900,
      "Ἤ": 1901,
      "ἰ": 1902,
      "ἱ": 1903,
      "ἴ": 1904,
      "ἵ": 1905,
      "ἶ": 1906,
      "ἷ": 1907,
      "Ἰ": 1908,
      "Ἱ": 1909,
      "ὀ": 1910,
      "ὁ": 1911,
      "ὂ": 1912,
      "ὄ": 1913,
      "ὅ": 1914,
      "Ὀ": 1915,
      "Ὅ": 1916,
      "ὐ": 1917,
      "ὑ": 1918,
      "ὔ": 1919,
      "ὕ": 1920,
      "ὖ": 1921,
      "ὗ": 1922,
      "Ὑ": 1923,
      "ὠ": 1924,
      "ὡ": 1925,
      "ὤ": 1926,
      "ὥ": 1927,
      "ὦ": 1928,
      "Ὦ": 1929,
      "ὰ": 1930,
      "ά": 1931,
      "ὲ": 1932,
      "έ": 1933,
      "ὴ": 1934,
      "ή": 1935,
      "ὶ": 1936,
      "ί": 1937,
      "ὸ": 1938,
      "ό": 1939,
      "ὺ": 1940,
      "ύ": 1941,
      "ὼ": 1942,
      "ώ": 1943,
      "ᾑ": 1944,
      "ᾖ": 1945,
      "ᾗ": 1946,
      "ᾧ": 1947,
      "ᾱ": 1948,
      "ᾳ": 1949,
      "ᾶ": 1950,
      "ᾷ": 1951,
      "ῃ": 1952,
      "ῄ": 1953,
      "ῆ": 1954,
      "ῇ": 1955,
      "ῐ": 1956,
      "ῑ": 1957,
      "ΐ": 1958,
      "ῖ": 1959,
      "ῡ": 1960,
      "ῤ": 1961,
      "ῥ": 1962,
      "ῦ": 1963,
      "Ῥ": 1964,
      "ῳ": 1965,
      "ῴ": 1966,
      "ῶ": 1967,
      "ῷ": 1968,
      "​": 1969,
      "‌": 1970,
      "‍": 1971,
      "‎": 1972,
      "‏": 1973,
      "‐": 1974,
      "‑": 1975,
      "‒": 1976,
      "–": 1977,
      "—": 1978,
      "―": 1979,
      "‖": 1980,
      "‘": 1981,
      "’": 1982,
      "‚": 1983,
      "‛": 1984,
      "“": 1985,
      "”": 1986,
      "„": 1987,
      "‟": 1988,
      "†": 1989,
      "‡": 1990,
      "•": 1991,
      "…": 1992,
      "‧": 1993,
      "‪": 1994,
      "‬": 1995,
      "‭": 1996,
      "‰": 1997,
      "′": 1998,
      "″": 1999,
      "›": 2000,
      "※": 2001,
      "‼": 2002,
      "‽": 2003,
      "‾": 2004,
      "‿": 2005,
      "⁄": 2006,
      "⁈": 2007,
      "⁠": 2008,
      "⁣": 2009,
      "⁰": 2010,
      "⁴": 2011,
      "⁵": 2012,
      "⁶": 2013,
      "⁸": 2014,
      "⁹": 2015,
      "⁺": 2016,
      "⁻": 2017,
      "ⁿ": 2018,
      "₀": 2019,
      "₁": 2020,
      "₂": 2021,
      "₃": 2022,
      "₄": 2023,
      "₅": 2024,
      "₆": 2025,
      "₇": 2026,
      "₈": 2027,
      "₋": 2028,
      "ₑ": 2029,
      "ₚ": 2030,
      "₡": 2031,
      "₣": 2032,
      "₤": 2033,
      "₦": 2034,
      "₩": 2035,
      "₪": 2036,
      "₫": 2037,
      "€": 2038,
      "₱": 2039,
      "₵": 2040,
      "₹": 2041,
      "₽": 2042,
      "₿": 2043,
      "℃": 2044,
      "℈": 2045,
      "℔": 2046,
      "ℕ": 2047,
      "№": 2048,
      "℗": 2049,
      "ℚ": 2050,
      "ℝ": 2051,
      "℞": 2052,
      "℠": 2053,
      "™": 2054,
      "℥": 2055,
      "⅓": 2056,
      "⅔": 2057,
      "⅕": 2058,
      "⅘": 2059,
      "⅛": 2060,
      "⅜": 2061,
      "⅝": 2062,
      "⅞": 2063,
      "Ⅰ": 2064,
      "Ⅱ": 2065,
      "Ⅲ": 2066,
      "←": 2067,
      "↑": 2068,
      "→": 2069,
      "↓": 2070,
      "↔": 2071,
      "↦": 2072,
      "↵": 2073,
      "↺": 2074,
      "⇏": 2075,
      "⇐": 2076,
      "⇒": 2077,
      "⇔": 2078,
      "∀": 2079,
      "∂": 2080,
      "∃": 2081,
      "∅": 2082,
      "∆": 2083,
      "∇": 2084,
      "∈": 2085,
      "∉": 2086,
      "∑": 2087,
      "−": 2088,
      "∕": 2089,
      "√": 2090,
      "∛": 2091,
      "∝": 2092,
      "∞": 2093,
      "∠": 2094,
      "∧": 2095,
      "∨": 2096,
      "∩": 2097,
      "∪": 2098,
      "∫": 2099,
      "∴": 2100,
      "∼": 2101,
      "≃": 2102,
      "≅": 2103,
      "≈": 2104,
      "≒": 2105,
      "≔": 2106,
      "≠": 2107,
      "≡": 2108,
      "≤": 2109,
      "≥": 2110,
      "≧": 2111,
      "≫": 2112,
      "⊂": 2113,
      "⊆": 2114,
      "⊕": 2115,
      "⊗": 2116,
      "⊙": 2117,
      "⋅": 2118,
      "⌀": 2119,
      "⌂": 2120,
      "⌬": 2121,
      "⏣": 2122,
      "①": 2123,
      "②": 2124,
      "③": 2125,
      "④": 2126,
      "⑤": 2127,
      "⑥": 2128,
      "⑦": 2129,
      "Ⓒ": 2130,
      "Ⓢ": 2131,
      "─": 2132,
      "│": 2133,
      "┌": 2134,
      "┐": 2135,
      "└": 2136,
      "┘": 2137,
      "┬": 2138,
      "┴": 2139,
      "┼": 2140,
      "═": 2141,
      "╗": 2142,
      "╚": 2143,
      "█": 2144,
      "■": 2145,
      "◅": 2146,
      "◊": 2147,
      "○": 2148,
      "◌": 2149,
      "●": 2150,
      "◾": 2151,
      "☃": 2152,
      "★": 2153,
      "☆": 2154,
      "☉": 2155,
      "☎": 2156,
      "☣": 2157,
      "☭": 2158,
      "☺": 2159,
      "☻": 2160,
      "♀": 2161,
      "♄": 2162,
      "♋": 2163,
      "♑": 2164,
      "♙": 2165,
      "♟": 2166,
      "♠": 2167,
      "♡": 2168,
      "♣": 2169,
      "♥": 2170,
      "♦": 2171,
      "♪": 2172,
      "♫": 2173,
      "♬": 2174,
      "♭": 2175,
      "♮": 2176,
      "♯": 2177,
      "⚥": 2178,
      "✓": 2179,
      "✚": 2180,
      "❤": 2181,
      "⟨": 2182,
      "⟩": 2183,
      "⬄": 2184,
      "ⱡ": 2185,
      "Ɽ": 2186,
      "ⲏ": 2187,
      "ⲓ": 2188,
      "ⲙ": 2189,
      "ⲛ": 2190,
      "ⲟ": 2191,
      "ⲡ": 2192,
      "ⲥ": 2193,
      "Ⲫ": 2194,
      "ⲱ": 2195,
      "ⴰ": 2196,
      "ⴱ": 2197,
      "ⴳ": 2198,
      "ⴷ": 2199,
      "ⴹ": 2200,
      "ⴻ": 2201,
      "ⴽ": 2202,
      "ⵀ": 2203,
      "ⵃ": 2204,
      "ⵅ": 2205,
      "ⵉ": 2206,
      "ⵊ": 2207,
      "ⵍ": 2208,
      "ⵎ": 2209,
      "ⵏ": 2210,
      "ⵓ": 2211,
      "ⵔ": 2212,
      "ⵖ": 2213,
      "ⵙ": 2214,
      "ⵛ": 2215,
      "ⵜ": 2216,
      "ⵡ": 2217,
      "ⵢ": 2218,
      "ⵣ": 2219,
      "⸺": 2220,
      "⿰": 2221,
      "⿱": 2222,
      "⿺": 2223,
      "、": 2224,
      "。": 2225,
      "〃": 2226,
      "々": 2227,
      "〈": 2228,
      "〉": 2229,
      "《": 2230,
      "》": 2231,
      "「": 2232,
      "」": 2233,
      "『": 2234,
      "』": 2235,
      "【": 2236,
      "】": 2237,
      "〔": 2238,
      "〕": 2239,
      "〜": 2240,
      "ぁ": 2241,
      "あ": 2242,
      "ぃ": 2243,
      "い": 2244,
      "う": 2245,
      "え": 2246,
      "お": 2247,
      "か": 2248,
      "が": 2249,
      "き": 2250,
      "ぎ": 2251,
      "く": 2252,
      "ぐ": 2253,
      "け": 2254,
      "げ": 2255,
      "こ": 2256,
      "ご": 2257,
      "さ": 2258,
      "ざ": 2259,
      "し": 2260,
      "じ": 2261,
      "す": 2262,
      "ず": 2263,
      "せ": 2264,
      "ぜ": 2265,
      "そ": 2266,
      "ぞ": 2267,
      "た": 2268,
      "だ": 2269,
      "ち": 2270,
      "っ": 2271,
      "つ": 2272,
      "づ": 2273,
      "て": 2274,
      "で": 2275,
      "と": 2276,
      "ど": 2277,
      "な": 2278,
      "に": 2279,
      "ね": 2280,
      "の": 2281,
      "は": 2282,
      "ば": 2283,
      "ひ": 2284,
      "び": 2285,
      "ぴ": 2286,
      "ふ": 2287,
      "ぶ": 2288,
      "ぷ": 2289,
      "へ": 2290,
      "べ": 2291,
      "ほ": 2292,
      "ぼ": 2293,
      "ま": 2294,
      "み": 2295,
      "む": 2296,
      "め": 2297,
      "も": 2298,
      "ゃ": 2299,
      "や": 2300,
      "ゅ": 2301,
      "ゆ": 2302,
      "ょ": 2303,
      "よ": 2304,
      "ら": 2305,
      "り": 2306,
      "る": 2307,
      "れ": 2308,
      "ろ": 2309,
      "わ": 2310,
      "を": 2311,
      "ん": 2312,
      "ァ": 2313,
      "ア": 2314,
      "ィ": 2315,
      "イ": 2316,
      "ウ": 2317,
      "ェ": 2318,
      "エ": 2319,
      "ォ": 2320,
      "オ": 2321,
      "カ": 2322,
      "ガ": 2323,
      "キ": 2324,
      "ギ": 2325,
      "ク": 2326,
      "グ": 2327,
      "ケ": 2328,
      "ゲ": 2329,
      "コ": 2330,
      "ゴ": 2331,
      "サ": 2332,
      "ザ": 2333,
      "シ": 2334,
      "ジ": 2335,
      "ス": 2336,
      "ズ": 2337,
      "セ": 2338,
      "ゼ": 2339,
      "ソ": 2340,
      "ゾ": 2341,
      "タ": 2342,
      "ダ": 2343,
      "チ": 2344,
      "ヂ": 2345,
      "ッ": 2346,
      "ツ": 2347,
      "テ": 2348,
      "デ": 2349,
      "ト": 2350,
      "ド": 2351,
      "ナ": 2352,
      "ニ": 2353,
      "ヌ": 2354,
      "ネ": 2355,
      "ノ": 2356,
      "ハ": 2357,
      "バ": 2358,
      "パ": 2359,
      "ヒ": 2360,
      "ビ": 2361,
      "ピ": 2362,
      "フ": 2363,
      "ブ": 2364,
      "プ": 2365,
      "ヘ": 2366,
      "ベ": 2367,
      "ペ": 2368,
      "ホ": 2369,
      "ボ": 2370,
      "ポ": 2371,
      "マ": 2372,
      "ミ": 2373,
      "ム": 2374,
      "メ": 2375,
      "モ": 2376,
      "ャ": 2377,
      "ヤ": 2378,
      "ュ": 2379,
      "ユ": 2380,
      "ョ": 2381,
      "ヨ": 2382,
      "ラ": 2383,
      "リ": 2384,
      "ル": 2385,
      "レ": 2386,
      "ロ": 2387,
      "ワ": 2388,
      "ン": 2389,
      "ヶ": 2390,
      "・": 2391,
      "ー": 2392,
      "ㄌ": 2393,
      "ㄑ": 2394,
      "ㄒ": 2395,
      "ㄓ": 2396,
      "ㄕ": 2397,
      "ㄘ": 2398,
      "ㄚ": 2399,
      "ㄢ": 2400,
      "ㄣ": 2401,
      "ㄤ": 2402,
      "ㄧ": 2403,
      "ㄨ": 2404,
      "ㄩ": 2405,
      "ㄱ": 2406,
      "ㄴ": 2407,
      "ㄷ": 2408,
      "ㄹ": 2409,
      "ㅁ": 2410,
      "ㅂ": 2411,
      "ㅅ": 2412,
      "ㅇ": 2413,
      "ㅈ": 2414,
      "ㅊ": 2415,
      "ㅋ": 2416,
      "ㅌ": 2417,
      "ㅍ": 2418,
      "ㅎ": 2419,
      "ㅗ": 2420,
      "ㅜ": 2421,
      "ㅠ": 2422,
      "ㅡ": 2423,
      "㎜": 2424,
      "㎡": 2425,
      "㎥": 2426,
      "一": 2427,
      "丁": 2428,
      "七": 2429,
      "万": 2430,
      "丈": 2431,
      "三": 2432,
      "上": 2433,
      "下": 2434,
      "不": 2435,
      "与": 2436,
      "且": 2437,
      "世": 2438,
      "丙": 2439,
      "业": 2440,
      "东": 2441,
      "两": 2442,
      "並": 2443,
      "个": 2444,
      "中": 2445,
      "丸": 2446,
      "丹": 2447,
      "为": 2448,
      "主": 2449,
      "丽": 2450,
      "乃": 2451,
      "久": 2452,
      "么": 2453,
      "义": 2454,
      "之": 2455,
      "乌": 2456,
      "乐": 2457,
      "乙": 2458,
      "九": 2459,
      "也": 2460,
      "书": 2461,
      "乳": 2462,
      "乾": 2463,
      "亂": 2464,
      "亅": 2465,
      "了": 2466,
      "予": 2467,
      "争": 2468,
      "事": 2469,
      "二": 2470,
      "于": 2471,
      "云": 2472,
      "五": 2473,
      "井": 2474,
      "亚": 2475,
      "些": 2476,
      "亜": 2477,
      "亞": 2478,
      "亡": 2479,
      "亣": 2480,
      "交": 2481,
      "亦": 2482,
      "亨": 2483,
      "京": 2484,
      "亭": 2485,
      "亮": 2486,
      "人": 2487,
      "亻": 2488,
      "什": 2489,
      "仁": 2490,
      "今": 2491,
      "介": 2492,
      "仏": 2493,
      "仑": 2494,
      "仔": 2495,
      "他": 2496,
      "付": 2497,
      "仙": 2498,
      "仝": 2499,
      "代": 2500,
      "令": 2501,
      "以": 2502,
      "们": 2503,
      "仰": 2504,
      "仲": 2505,
      "件": 2506,
      "任": 2507,
      "伉": 2508,
      "伊": 2509,
      "伎": 2510,
      "伏": 2511,
      "伐": 2512,
      "休": 2513,
      "伙": 2514,
      "会": 2515,
      "伟": 2516,
      "传": 2517,
      "伪": 2518,
      "伯": 2519,
      "伸": 2520,
      "似": 2521,
      "伽": 2522,
      "位": 2523,
      "住": 2524,
      "佐": 2525,
      "体": 2526,
      "佔": 2527,
      "何": 2528,
      "佘": 2529,
      "余": 2530,
      "佛": 2531,
      "作": 2532,
      "你": 2533,
      "佩": 2534,
      "佳": 2535,
      "使": 2536,
      "來": 2537,
      "侍": 2538,
      "侘": 2539,
      "供": 2540,
      "依": 2541,
      "侧": 2542,
      "侯": 2543,
      "便": 2544,
      "促": 2545,
      "俊": 2546,
      "俗": 2547,
      "保": 2548,
      "俞": 2549,
      "俟": 2550,
      "信": 2551,
      "俭": 2552,
      "修": 2553,
      "倉": 2554,
      "倍": 2555,
      "候": 2556,
      "借": 2557,
      "値": 2558,
      "倩": 2559,
      "倪": 2560,
      "倫": 2561,
      "假": 2562,
      "偉": 2563,
      "偏": 2564,
      "做": 2565,
      "健": 2566,
      "側": 2567,
      "傑": 2568,
      "備": 2569,
      "傣": 2570,
      "傳": 2571,
      "傷": 2572,
      "働": 2573,
      "僕": 2574,
      "僖": 2575,
      "儀": 2576,
      "億": 2577,
      "儒": 2578,
      "優": 2579,
      "儿": 2580,
      "兀": 2581,
      "元": 2582,
      "充": 2583,
      "兇": 2584,
      "先": 2585,
      "光": 2586,
      "克": 2587,
      "児": 2588,
      "兒": 2589,
      "党": 2590,
      "兜": 2591,
      "入": 2592,
      "內": 2593,
      "全": 2594,
      "八": 2595,
      "公": 2596,
      "六": 2597,
      "兰": 2598,
      "共": 2599,
      "关": 2600,
      "兴": 2601,
      "兵": 2602,
      "其": 2603,
      "典": 2604,
      "养": 2605,
      "兼": 2606,
      "冀": 2607,
      "冂": 2608,
      "内": 2609,
      "円": 2610,
      "再": 2611,
      "冒": 2612,
      "写": 2613,
      "军": 2614,
      "冠": 2615,
      "冨": 2616,
      "冬": 2617,
      "冰": 2618,
      "决": 2619,
      "冶": 2620,
      "凍": 2621,
      "凰": 2622,
      "凱": 2623,
      "出": 2624,
      "函": 2625,
      "刀": 2626,
      "刃": 2627,
      "分": 2628,
      "切": 2629,
      "刊": 2630,
      "列": 2631,
      "刘": 2632,
      "刚": 2633,
      "初": 2634,
      "判": 2635,
      "別": 2636,
      "利": 2637,
      "到": 2638,
      "制": 2639,
      "刻": 2640,
      "剅": 2641,
      "則": 2642,
      "剋": 2643,
      "前": 2644,
      "剑": 2645,
      "剔": 2646,
      "剛": 2647,
      "剣": 2648,
      "剱": 2649,
      "創": 2650,
      "劈": 2651,
      "劉": 2652,
      "劍": 2653,
      "力": 2654,
      "功": 2655,
      "加": 2656,
      "务": 2657,
      "动": 2658,
      "助": 2659,
      "努": 2660,
      "励": 2661,
      "劳": 2662,
      "勇": 2663,
      "勉": 2664,
      "動": 2665,
      "務": 2666,
      "勛": 2667,
      "勝": 2668,
      "勞": 2669,
      "勢": 2670,
      "勤": 2671,
      "勲": 2672,
      "勳": 2673,
      "勸": 2674,
      "勾": 2675,
      "勿": 2676,
      "化": 2677,
      "北": 2678,
      "匙": 2679,
      "匯": 2680,
      "区": 2681,
      "區": 2682,
      "十": 2683,
      "千": 2684,
      "升": 2685,
      "午": 2686,
      "半": 2687,
      "华": 2688,
      "卓": 2689,
      "協": 2690,
      "单": 2691,
      "南": 2692,
      "単": 2693,
      "博": 2694,
      "卜": 2695,
      "卞": 2696,
      "占": 2697,
      "卡": 2698,
      "卢": 2699,
      "卫": 2700,
      "卬": 2701,
      "卵": 2702,
      "厂": 2703,
      "历": 2704,
      "厚": 2705,
      "厝": 2706,
      "原": 2707,
      "厳": 2708,
      "去": 2709,
      "县": 2710,
      "参": 2711,
      "參": 2712,
      "又": 2713,
      "叉": 2714,
      "及": 2715,
      "友": 2716,
      "双": 2717,
      "反": 2718,
      "収": 2719,
      "叔": 2720,
      "受": 2721,
      "叟": 2722,
      "叢": 2723,
      "口": 2724,
      "古": 2725,
      "句": 2726,
      "只": 2727,
      "可": 2728,
      "台": 2729,
      "史": 2730,
      "叶": 2731,
      "号": 2732,
      "司": 2733,
      "吃": 2734,
      "合": 2735,
      "吉": 2736,
      "同": 2737,
      "名": 2738,
      "后": 2739,
      "向": 2740,
      "吕": 2741,
      "君": 2742,
      "吝": 2743,
      "吟": 2744,
      "吧": 2745,
      "启": 2746,
      "吳": 2747,
      "吴": 2748,
      "吸": 2749,
      "吹": 2750,
      "吾": 2751,
      "呂": 2752,
      "呈": 2753,
      "周": 2754,
      "味": 2755,
      "呼": 2756,
      "命": 2757,
      "咋": 2758,
      "和": 2759,
      "咒": 2760,
      "咖": 2761,
      "咨": 2762,
      "咲": 2763,
      "哀": 2764,
      "品": 2765,
      "哈": 2766,
      "哉": 2767,
      "員": 2768,
      "哥": 2769,
      "哲": 2770,
      "唐": 2771,
      "唯": 2772,
      "商": 2773,
      "問": 2774,
      "啓": 2775,
      "啟": 2776,
      "啡": 2777,
      "啦": 2778,
      "喃": 2779,
      "善": 2780,
      "喆": 2781,
      "喇": 2782,
      "喜": 2783,
      "單": 2784,
      "営": 2785,
      "嘉": 2786,
      "嘗": 2787,
      "嘛": 2788,
      "嘴": 2789,
      "噌": 2790,
      "器": 2791,
      "嚎": 2792,
      "嚴": 2793,
      "囁": 2794,
      "囂": 2795,
      "囘": 2796,
      "四": 2797,
      "回": 2798,
      "因": 2799,
      "団": 2800,
      "囧": 2801,
      "囬": 2802,
      "园": 2803,
      "囯": 2804,
      "囲": 2805,
      "围": 2806,
      "固": 2807,
      "国": 2808,
      "图": 2809,
      "圃": 2810,
      "國": 2811,
      "園": 2812,
      "圖": 2813,
      "團": 2814,
      "土": 2815,
      "圣": 2816,
      "在": 2817,
      "地": 2818,
      "坂": 2819,
      "均": 2820,
      "坊": 2821,
      "坐": 2822,
      "坡": 2823,
      "坤": 2824,
      "垂": 2825,
      "型": 2826,
      "垣": 2827,
      "城": 2828,
      "埔": 2829,
      "域": 2830,
      "執": 2831,
      "培": 2832,
      "基": 2833,
      "埼": 2834,
      "堀": 2835,
      "堂": 2836,
      "堤": 2837,
      "堪": 2838,
      "堯": 2839,
      "報": 2840,
      "場": 2841,
      "塊": 2842,
      "塔": 2843,
      "塚": 2844,
      "塞": 2845,
      "塩": 2846,
      "塽": 2847,
      "境": 2848,
      "墓": 2849,
      "墨": 2850,
      "壤": 2851,
      "士": 2852,
      "声": 2853,
      "売": 2854,
      "壳": 2855,
      "壽": 2856,
      "复": 2857,
      "夏": 2858,
      "夕": 2859,
      "外": 2860,
      "多": 2861,
      "夜": 2862,
      "够": 2863,
      "夢": 2864,
      "大": 2865,
      "天": 2866,
      "太": 2867,
      "夫": 2868,
      "央": 2869,
      "失": 2870,
      "头": 2871,
      "夷": 2872,
      "夾": 2873,
      "奇": 2874,
      "奈": 2875,
      "奉": 2876,
      "契": 2877,
      "奕": 2878,
      "奖": 2879,
      "套": 2880,
      "奚": 2881,
      "奥": 2882,
      "奮": 2883,
      "女": 2884,
      "奴": 2885,
      "奶": 2886,
      "好": 2887,
      "如": 2888,
      "妃": 2889,
      "妏": 2890,
      "妖": 2891,
      "妙": 2892,
      "妮": 2893,
      "妹": 2894,
      "妻": 2895,
      "姊": 2896,
      "始": 2897,
      "姑": 2898,
      "委": 2899,
      "姚": 2900,
      "姜": 2901,
      "姫": 2902,
      "姬": 2903,
      "威": 2904,
      "娃": 2905,
      "娜": 2906,
      "娣": 2907,
      "娥": 2908,
      "婉": 2909,
      "婦": 2910,
      "媛": 2911,
      "媽": 2912,
      "嬌": 2913,
      "嬰": 2914,
      "孃": 2915,
      "子": 2916,
      "孔": 2917,
      "字": 2918,
      "存": 2919,
      "孙": 2920,
      "孚": 2921,
      "孝": 2922,
      "孟": 2923,
      "季": 2924,
      "学": 2925,
      "孩": 2926,
      "孫": 2927,
      "學": 2928,
      "宁": 2929,
      "宅": 2930,
      "宇": 2931,
      "守": 2932,
      "安": 2933,
      "宋": 2934,
      "完": 2935,
      "宏": 2936,
      "宓": 2937,
      "宕": 2938,
      "宗": 2939,
      "官": 2940,
      "宙": 2941,
      "定": 2942,
      "宛": 2943,
      "宜": 2944,
      "宝": 2945,
      "实": 2946,
      "実": 2947,
      "客": 2948,
      "宣": 2949,
      "室": 2950,
      "宮": 2951,
      "宰": 2952,
      "害": 2953,
      "家": 2954,
      "容": 2955,
      "宿": 2956,
      "寂": 2957,
      "寄": 2958,
      "寇": 2959,
      "富": 2960,
      "寒": 2961,
      "寓": 2962,
      "寛": 2963,
      "察": 2964,
      "實": 2965,
      "寧": 2966,
      "寵": 2967,
      "寶": 2968,
      "对": 2969,
      "寺": 2970,
      "対": 2971,
      "寿": 2972,
      "封": 2973,
      "専": 2974,
      "射": 2975,
      "將": 2976,
      "專": 2977,
      "尉": 2978,
      "尊": 2979,
      "尋": 2980,
      "對": 2981,
      "小": 2982,
      "少": 2983,
      "尔": 2984,
      "尘": 2985,
      "尚": 2986,
      "尝": 2987,
      "尭": 2988,
      "尸": 2989,
      "尹": 2990,
      "尼": 2991,
      "尾": 2992,
      "局": 2993,
      "屁": 2994,
      "居": 2995,
      "屋": 2996,
      "屏": 2997,
      "展": 2998,
      "属": 2999,
      "屠": 3000,
      "履": 3001,
      "山": 3002,
      "岁": 3003,
      "岑": 3004,
      "岛": 3005,
      "岡": 3006,
      "岩": 3007,
      "岳": 3008,
      "岸": 3009,
      "峡": 3010,
      "峨": 3011,
      "峰": 3012,
      "島": 3013,
      "峻": 3014,
      "崇": 3015,
      "崎": 3016,
      "崔": 3017,
      "崛": 3018,
      "崧": 3019,
      "崴": 3020,
      "嵯": 3021,
      "嶋": 3022,
      "嶺": 3023,
      "巉": 3024,
      "巖": 3025,
      "川": 3026,
      "州": 3027,
      "巢": 3028,
      "工": 3029,
      "左": 3030,
      "巧": 3031,
      "差": 3032,
      "己": 3033,
      "巳": 3034,
      "巴": 3035,
      "巻": 3036,
      "市": 3037,
      "布": 3038,
      "帅": 3039,
      "帆": 3040,
      "师": 3041,
      "希": 3042,
      "帝": 3043,
      "帥": 3044,
      "带": 3045,
      "師": 3046,
      "帯": 3047,
      "帶": 3048,
      "常": 3049,
      "帽": 3050,
      "幅": 3051,
      "幕": 3052,
      "幡": 3053,
      "幫": 3054,
      "干": 3055,
      "平": 3056,
      "年": 3057,
      "幸": 3058,
      "幹": 3059,
      "幻": 3060,
      "幽": 3061,
      "幾": 3062,
      "广": 3063,
      "庁": 3064,
      "広": 3065,
      "庄": 3066,
      "庆": 3067,
      "序": 3068,
      "庙": 3069,
      "府": 3070,
      "度": 3071,
      "座": 3072,
      "庫": 3073,
      "庭": 3074,
      "庵": 3075,
      "庶": 3076,
      "康": 3077,
      "庾": 3078,
      "廈": 3079,
      "廉": 3080,
      "廊": 3081,
      "廓": 3082,
      "廟": 3083,
      "廣": 3084,
      "延": 3085,
      "建": 3086,
      "廻": 3087,
      "廽": 3088,
      "弁": 3089,
      "异": 3090,
      "弄": 3091,
      "弅": 3092,
      "式": 3093,
      "弓": 3094,
      "弗": 3095,
      "弘": 3096,
      "张": 3097,
      "弥": 3098,
      "弦": 3099,
      "張": 3100,
      "強": 3101,
      "弹": 3102,
      "强": 3103,
      "弾": 3104,
      "彈": 3105,
      "归": 3106,
      "当": 3107,
      "彤": 3108,
      "彥": 3109,
      "彦": 3110,
      "彩": 3111,
      "彪": 3112,
      "彫": 3113,
      "彭": 3114,
      "影": 3115,
      "彼": 3116,
      "往": 3117,
      "征": 3118,
      "径": 3119,
      "待": 3120,
      "很": 3121,
      "律": 3122,
      "後": 3123,
      "徐": 3124,
      "徒": 3125,
      "得": 3126,
      "從": 3127,
      "御": 3128,
      "復": 3129,
      "徳": 3130,
      "徵": 3131,
      "德": 3132,
      "徽": 3133,
      "心": 3134,
      "忌": 3135,
      "忍": 3136,
      "志": 3137,
      "忘": 3138,
      "忠": 3139,
      "快": 3140,
      "念": 3141,
      "怖": 3142,
      "思": 3143,
      "怡": 3144,
      "急": 3145,
      "性": 3146,
      "总": 3147,
      "恂": 3148,
      "恋": 3149,
      "恐": 3150,
      "恭": 3151,
      "息": 3152,
      "恵": 3153,
      "悠": 3154,
      "悪": 3155,
      "情": 3156,
      "惜": 3157,
      "惠": 3158,
      "惡": 3159,
      "想": 3160,
      "意": 3161,
      "愛": 3162,
      "感": 3163,
      "愿": 3164,
      "慈": 3165,
      "慢": 3166,
      "慧": 3167,
      "慮": 3168,
      "慶": 3169,
      "憲": 3170,
      "應": 3171,
      "懷": 3172,
      "懿": 3173,
      "戀": 3174,
      "戊": 3175,
      "戌": 3176,
      "戎": 3177,
      "成": 3178,
      "我": 3179,
      "战": 3180,
      "戟": 3181,
      "戦": 3182,
      "戯": 3183,
      "戰": 3184,
      "戲": 3185,
      "戶": 3186,
      "户": 3187,
      "戸": 3188,
      "房": 3189,
      "所": 3190,
      "扇": 3191,
      "手": 3192,
      "才": 3193,
      "打": 3194,
      "托": 3195,
      "扣": 3196,
      "扬": 3197,
      "承": 3198,
      "技": 3199,
      "把": 3200,
      "折": 3201,
      "抛": 3202,
      "抠": 3203,
      "护": 3204,
      "报": 3205,
      "披": 3206,
      "抵": 3207,
      "抹": 3208,
      "拂": 3209,
      "拉": 3210,
      "拌": 3211,
      "拓": 3212,
      "拔": 3213,
      "拙": 3214,
      "拜": 3215,
      "拨": 3216,
      "拭": 3217,
      "拯": 3218,
      "拳": 3219,
      "拿": 3220,
      "挂": 3221,
      "指": 3222,
      "按": 3223,
      "挑": 3224,
      "挙": 3225,
      "掃": 3226,
      "授": 3227,
      "掌": 3228,
      "掐": 3229,
      "掘": 3230,
      "探": 3231,
      "推": 3232,
      "掩": 3233,
      "措": 3234,
      "掸": 3235,
      "揚": 3236,
      "搏": 3237,
      "搖": 3238,
      "搜": 3239,
      "搞": 3240,
      "搯": 3241,
      "携": 3242,
      "摘": 3243,
      "摩": 3244,
      "摺": 3245,
      "撃": 3246,
      "撑": 3247,
      "撥": 3248,
      "播": 3249,
      "撮": 3250,
      "擇": 3251,
      "擒": 3252,
      "攀": 3253,
      "攔": 3254,
      "支": 3255,
      "攻": 3256,
      "放": 3257,
      "政": 3258,
      "故": 3259,
      "敎": 3260,
      "敏": 3261,
      "救": 3262,
      "教": 3263,
      "散": 3264,
      "敦": 3265,
      "敬": 3266,
      "文": 3267,
      "斉": 3268,
      "斋": 3269,
      "斎": 3270,
      "斗": 3271,
      "料": 3272,
      "斛": 3273,
      "斩": 3274,
      "斬": 3275,
      "断": 3276,
      "斯": 3277,
      "新": 3278,
      "方": 3279,
      "於": 3280,
      "施": 3281,
      "旅": 3282,
      "旋": 3283,
      "族": 3284,
      "旗": 3285,
      "无": 3286,
      "既": 3287,
      "日": 3288,
      "旧": 3289,
      "早": 3290,
      "旱": 3291,
      "时": 3292,
      "旺": 3293,
      "旽": 3294,
      "昂": 3295,
      "昆": 3296,
      "昇": 3297,
      "昌": 3298,
      "明": 3299,
      "易": 3300,
      "昔": 3301,
      "星": 3302,
      "映": 3303,
      "春": 3304,
      "昭": 3305,
      "是": 3306,
      "晁": 3307,
      "時": 3308,
      "晃": 3309,
      "晉": 3310,
      "晋": 3311,
      "晨": 3312,
      "晩": 3313,
      "普": 3314,
      "景": 3315,
      "晴": 3316,
      "晶": 3317,
      "智": 3318,
      "暁": 3319,
      "暐": 3320,
      "暢": 3321,
      "暦": 3322,
      "暨": 3323,
      "暴": 3324,
      "曉": 3325,
      "曙": 3326,
      "曜": 3327,
      "曰": 3328,
      "曲": 3329,
      "曳": 3330,
      "更": 3331,
      "書": 3332,
      "曹": 3333,
      "曽": 3334,
      "曾": 3335,
      "最": 3336,
      "會": 3337,
      "月": 3338,
      "有": 3339,
      "朗": 3340,
      "望": 3341,
      "朝": 3342,
      "期": 3343,
      "朧": 3344,
      "木": 3345,
      "未": 3346,
      "末": 3347,
      "本": 3348,
      "朮": 3349,
      "术": 3350,
      "朱": 3351,
      "朴": 3352,
      "权": 3353,
      "杉": 3354,
      "李": 3355,
      "杏": 3356,
      "村": 3357,
      "杖": 3358,
      "杜": 3359,
      "杞": 3360,
      "束": 3361,
      "条": 3362,
      "来": 3363,
      "杨": 3364,
      "杰": 3365,
      "東": 3366,
      "松": 3367,
      "板": 3368,
      "极": 3369,
      "析": 3370,
      "林": 3371,
      "果": 3372,
      "枝": 3373,
      "枣": 3374,
      "枪": 3375,
      "枯": 3376,
      "枳": 3377,
      "架": 3378,
      "枸": 3379,
      "柄": 3380,
      "柏": 3381,
      "柑": 3382,
      "染": 3383,
      "柔": 3384,
      "柚": 3385,
      "柜": 3386,
      "柱": 3387,
      "柳": 3388,
      "柴": 3389,
      "査": 3390,
      "栄": 3391,
      "标": 3392,
      "树": 3393,
      "栗": 3394,
      "校": 3395,
      "株": 3396,
      "根": 3397,
      "桂": 3398,
      "桃": 3399,
      "案": 3400,
      "桐": 3401,
      "桑": 3402,
      "桥": 3403,
      "梁": 3404,
      "梅": 3405,
      "梓": 3406,
      "梔": 3407,
      "梗": 3408,
      "梢": 3409,
      "梨": 3410,
      "检": 3411,
      "棋": 3412,
      "棠": 3413,
      "森": 3414,
      "植": 3415,
      "椎": 3416,
      "椒": 3417,
      "椙": 3418,
      "椛": 3419,
      "楊": 3420,
      "楝": 3421,
      "楠": 3422,
      "業": 3423,
      "極": 3424,
      "楼": 3425,
      "楽": 3426,
      "榆": 3427,
      "榔": 3428,
      "榜": 3429,
      "榧": 3430,
      "榮": 3431,
      "榴": 3432,
      "槍": 3433,
      "槐": 3434,
      "槑": 3435,
      "樂": 3436,
      "樊": 3437,
      "樓": 3438,
      "樣": 3439,
      "横": 3440,
      "樫": 3441,
      "樵": 3442,
      "樸": 3443,
      "樹": 3444,
      "橋": 3445,
      "橘": 3446,
      "橙": 3447,
      "機": 3448,
      "檔": 3449,
      "檳": 3450,
      "欠": 3451,
      "次": 3452,
      "欧": 3453,
      "欲": 3454,
      "欽": 3455,
      "款": 3456,
      "歌": 3457,
      "歙": 3458,
      "正": 3459,
      "步": 3460,
      "武": 3461,
      "歩": 3462,
      "歯": 3463,
      "歳": 3464,
      "歴": 3465,
      "歷": 3466,
      "歸": 3467,
      "死": 3468,
      "殊": 3469,
      "残": 3470,
      "殘": 3471,
      "段": 3472,
      "殷": 3473,
      "殺": 3474,
      "殿": 3475,
      "毁": 3476,
      "毅": 3477,
      "母": 3478,
      "毒": 3479,
      "比": 3480,
      "毘": 3481,
      "毛": 3482,
      "氏": 3483,
      "民": 3484,
      "気": 3485,
      "氣": 3486,
      "水": 3487,
      "永": 3488,
      "氾": 3489,
      "汀": 3490,
      "汁": 3491,
      "求": 3492,
      "汉": 3493,
      "汝": 3494,
      "江": 3495,
      "池": 3496,
      "汪": 3497,
      "決": 3498,
      "汽": 3499,
      "汾": 3500,
      "沈": 3501,
      "沉": 3502,
      "沒": 3503,
      "沖": 3504,
      "沘": 3505,
      "沙": 3506,
      "沟": 3507,
      "没": 3508,
      "沢": 3509,
      "沤": 3510,
      "沮": 3511,
      "河": 3512,
      "治": 3513,
      "沼": 3514,
      "沽": 3515,
      "況": 3516,
      "泉": 3517,
      "泊": 3518,
      "法": 3519,
      "泛": 3520,
      "波": 3521,
      "注": 3522,
      "泰": 3523,
      "泱": 3524,
      "泳": 3525,
      "泻": 3526,
      "洁": 3527,
      "洋": 3528,
      "洗": 3529,
      "洙": 3530,
      "洚": 3531,
      "洛": 3532,
      "洞": 3533,
      "津": 3534,
      "洪": 3535,
      "洲": 3536,
      "活": 3537,
      "派": 3538,
      "流": 3539,
      "浄": 3540,
      "浅": 3541,
      "济": 3542,
      "浚": 3543,
      "浜": 3544,
      "浦": 3545,
      "浩": 3546,
      "浪": 3547,
      "浮": 3548,
      "海": 3549,
      "涇": 3550,
      "消": 3551,
      "涉": 3552,
      "涙": 3553,
      "涼": 3554,
      "淇": 3555,
      "淑": 3556,
      "淚": 3557,
      "淡": 3558,
      "淨": 3559,
      "淫": 3560,
      "淮": 3561,
      "深": 3562,
      "淳": 3563,
      "淵": 3564,
      "混": 3565,
      "淸": 3566,
      "淺": 3567,
      "清": 3568,
      "済": 3569,
      "渉": 3570,
      "渋": 3571,
      "減": 3572,
      "渝": 3573,
      "渠": 3574,
      "渡": 3575,
      "温": 3576,
      "港": 3577,
      "游": 3578,
      "渹": 3579,
      "渾": 3580,
      "湄": 3581,
      "湖": 3582,
      "湘": 3583,
      "湛": 3584,
      "湯": 3585,
      "湾": 3586,
      "満": 3587,
      "源": 3588,
      "溜": 3589,
      "溪": 3590,
      "溫": 3591,
      "滅": 3592,
      "滑": 3593,
      "滚": 3594,
      "滝": 3595,
      "满": 3596,
      "滾": 3597,
      "漁": 3598,
      "漆": 3599,
      "漢": 3600,
      "漫": 3601,
      "漬": 3602,
      "潔": 3603,
      "潘": 3604,
      "潤": 3605,
      "潭": 3606,
      "澤": 3607,
      "澧": 3608,
      "澳": 3609,
      "濃": 3610,
      "濟": 3611,
      "濡": 3612,
      "濫": 3613,
      "濬": 3614,
      "瀉": 3615,
      "瀑": 3616,
      "瀟": 3617,
      "灘": 3618,
      "灣": 3619,
      "火": 3620,
      "灯": 3621,
      "灶": 3622,
      "灸": 3623,
      "炊": 3624,
      "炎": 3625,
      "炒": 3626,
      "炙": 3627,
      "炜": 3628,
      "炟": 3629,
      "炮": 3630,
      "炳": 3631,
      "為": 3632,
      "烈": 3633,
      "烏": 3634,
      "無": 3635,
      "焰": 3636,
      "焱": 3637,
      "然": 3638,
      "煊": 3639,
      "煌": 3640,
      "煙": 3641,
      "煞": 3642,
      "煥": 3643,
      "照": 3644,
      "煬": 3645,
      "煮": 3646,
      "熊": 3647,
      "熙": 3648,
      "熟": 3649,
      "熱": 3650,
      "燁": 3651,
      "燃": 3652,
      "燕": 3653,
      "營": 3654,
      "爆": 3655,
      "爱": 3656,
      "父": 3657,
      "爷": 3658,
      "爸": 3659,
      "爺": 3660,
      "爽": 3661,
      "爾": 3662,
      "片": 3663,
      "版": 3664,
      "牙": 3665,
      "牛": 3666,
      "牡": 3667,
      "物": 3668,
      "特": 3669,
      "牽": 3670,
      "犀": 3671,
      "犬": 3672,
      "狂": 3673,
      "狐": 3674,
      "狗": 3675,
      "狙": 3676,
      "狩": 3677,
      "独": 3678,
      "狮": 3679,
      "狱": 3680,
      "狼": 3681,
      "猛": 3682,
      "猪": 3683,
      "猫": 3684,
      "献": 3685,
      "猱": 3686,
      "猶": 3687,
      "猿": 3688,
      "獄": 3689,
      "獎": 3690,
      "獨": 3691,
      "獸": 3692,
      "玄": 3693,
      "玉": 3694,
      "王": 3695,
      "玑": 3696,
      "玛": 3697,
      "玫": 3698,
      "玲": 3699,
      "珈": 3700,
      "珊": 3701,
      "珍": 3702,
      "珠": 3703,
      "珪": 3704,
      "班": 3705,
      "現": 3706,
      "球": 3707,
      "琅": 3708,
      "理": 3709,
      "琉": 3710,
      "琊": 3711,
      "琛": 3712,
      "琤": 3713,
      "琪": 3714,
      "琮": 3715,
      "琲": 3716,
      "琴": 3717,
      "瑚": 3718,
      "瑛": 3719,
      "瑜": 3720,
      "瑞": 3721,
      "瑟": 3722,
      "瑤": 3723,
      "瑪": 3724,
      "瑰": 3725,
      "環": 3726,
      "瓊": 3727,
      "瓜": 3728,
      "瓦": 3729,
      "甄": 3730,
      "甘": 3731,
      "生": 3732,
      "産": 3733,
      "用": 3734,
      "甫": 3735,
      "田": 3736,
      "由": 3737,
      "甲": 3738,
      "申": 3739,
      "电": 3740,
      "男": 3741,
      "町": 3742,
      "画": 3743,
      "畅": 3744,
      "界": 3745,
      "畔": 3746,
      "留": 3747,
      "畢": 3748,
      "略": 3749,
      "番": 3750,
      "畫": 3751,
      "異": 3752,
      "畵": 3753,
      "當": 3754,
      "疆": 3755,
      "疊": 3756,
      "疎": 3757,
      "疤": 3758,
      "痒": 3759,
      "痕": 3760,
      "痛": 3761,
      "痴": 3762,
      "癯": 3763,
      "発": 3764,
      "登": 3765,
      "發": 3766,
      "白": 3767,
      "百": 3768,
      "的": 3769,
      "皆": 3770,
      "皇": 3771,
      "皓": 3772,
      "皮": 3773,
      "盆": 3774,
      "益": 3775,
      "盐": 3776,
      "监": 3777,
      "盛": 3778,
      "盟": 3779,
      "盤": 3780,
      "盥": 3781,
      "盧": 3782,
      "目": 3783,
      "直": 3784,
      "相": 3785,
      "省": 3786,
      "眉": 3787,
      "県": 3788,
      "真": 3789,
      "眷": 3790,
      "眼": 3791,
      "眾": 3792,
      "睛": 3793,
      "睡": 3794,
      "督": 3795,
      "瞎": 3796,
      "瞳": 3797,
      "矗": 3798,
      "矢": 3799,
      "矣": 3800,
      "知": 3801,
      "矩": 3802,
      "矯": 3803,
      "石": 3804,
      "砂": 3805,
      "研": 3806,
      "破": 3807,
      "硏": 3808,
      "硝": 3809,
      "碁": 3810,
      "碇": 3811,
      "碑": 3812,
      "碗": 3813,
      "碟": 3814,
      "碣": 3815,
      "碧": 3816,
      "磁": 3817,
      "磐": 3818,
      "磨": 3819,
      "磯": 3820,
      "礁": 3821,
      "礼": 3822,
      "社": 3823,
      "祀": 3824,
      "祉": 3825,
      "祐": 3826,
      "祕": 3827,
      "祖": 3828,
      "祜": 3829,
      "神": 3830,
      "祠": 3831,
      "祥": 3832,
      "祭": 3833,
      "祯": 3834,
      "祿": 3835,
      "禁": 3836,
      "禄": 3837,
      "禎": 3838,
      "福": 3839,
      "禧": 3840,
      "禪": 3841,
      "禮": 3842,
      "禰": 3843,
      "禹": 3844,
      "禽": 3845,
      "禾": 3846,
      "禿": 3847,
      "秀": 3848,
      "私": 3849,
      "秂": 3850,
      "秉": 3851,
      "秋": 3852,
      "科": 3853,
      "秒": 3854,
      "秘": 3855,
      "秦": 3856,
      "程": 3857,
      "稔": 3858,
      "稚": 3859,
      "種": 3860,
      "稲": 3861,
      "稷": 3862,
      "稽": 3863,
      "穀": 3864,
      "穂": 3865,
      "穆": 3866,
      "積": 3867,
      "穎": 3868,
      "究": 3869,
      "穷": 3870,
      "空": 3871,
      "穿": 3872,
      "突": 3873,
      "窗": 3874,
      "窟": 3875,
      "竇": 3876,
      "竈": 3877,
      "立": 3878,
      "站": 3879,
      "竜": 3880,
      "竞": 3881,
      "章": 3882,
      "童": 3883,
      "竦": 3884,
      "端": 3885,
      "競": 3886,
      "竹": 3887,
      "笈": 3888,
      "笏": 3889,
      "笑": 3890,
      "笔": 3891,
      "第": 3892,
      "筆": 3893,
      "等": 3894,
      "筑": 3895,
      "筒": 3896,
      "策": 3897,
      "筠": 3898,
      "筷": 3899,
      "签": 3900,
      "简": 3901,
      "箋": 3902,
      "箍": 3903,
      "箏": 3904,
      "管": 3905,
      "箸": 3906,
      "節": 3907,
      "篆": 3908,
      "篠": 3909,
      "篤": 3910,
      "簡": 3911,
      "籌": 3912,
      "籜": 3913,
      "米": 3914,
      "粉": 3915,
      "粗": 3916,
      "粤": 3917,
      "粥": 3918,
      "粵": 3919,
      "精": 3920,
      "糖": 3921,
      "糸": 3922,
      "系": 3923,
      "紀": 3924,
      "約": 3925,
      "紅": 3926,
      "紆": 3927,
      "紋": 3928,
      "納": 3929,
      "純": 3930,
      "紘": 3931,
      "紙": 3932,
      "素": 3933,
      "紡": 3934,
      "索": 3935,
      "紫": 3936,
      "細": 3937,
      "紹": 3938,
      "終": 3939,
      "絃": 3940,
      "組": 3941,
      "経": 3942,
      "結": 3943,
      "絜": 3944,
      "給": 3945,
      "絨": 3946,
      "絫": 3947,
      "統": 3948,
      "絲": 3949,
      "絵": 3950,
      "絹": 3951,
      "經": 3952,
      "続": 3953,
      "維": 3954,
      "綱": 3955,
      "綸": 3956,
      "綿": 3957,
      "総": 3958,
      "線": 3959,
      "緩": 3960,
      "縄": 3961,
      "縣": 3962,
      "縫": 3963,
      "總": 3964,
      "織": 3965,
      "繩": 3966,
      "纂": 3967,
      "红": 3968,
      "级": 3969,
      "纳": 3970,
      "纵": 3971,
      "纶": 3972,
      "细": 3973,
      "绍": 3974,
      "经": 3975,
      "绒": 3976,
      "结": 3977,
      "绛": 3978,
      "绝": 3979,
      "统": 3980,
      "绥": 3981,
      "续": 3982,
      "维": 3983,
      "缺": 3984,
      "罗": 3985,
      "罨": 3986,
      "置": 3987,
      "署": 3988,
      "羁": 3989,
      "羅": 3990,
      "羊": 3991,
      "羌": 3992,
      "美": 3993,
      "羡": 3994,
      "群": 3995,
      "義": 3996,
      "羲": 3997,
      "羽": 3998,
      "翁": 3999,
      "習": 4000,
      "翘": 4001,
      "翠": 4002,
      "翰": 4003,
      "翻": 4004,
      "翼": 4005,
      "耀": 4006,
      "老": 4007,
      "考": 4008,
      "者": 4009,
      "耉": 4010,
      "而": 4011,
      "耐": 4012,
      "耦": 4013,
      "耳": 4014,
      "耶": 4015,
      "耿": 4016,
      "聂": 4017,
      "职": 4018,
      "聖": 4019,
      "聚": 4020,
      "聞": 4021,
      "聯": 4022,
      "聰": 4023,
      "聲": 4024,
      "聶": 4025,
      "聽": 4026,
      "聾": 4027,
      "聿": 4028,
      "肉": 4029,
      "肖": 4030,
      "股": 4031,
      "肤": 4032,
      "肥": 4033,
      "育": 4034,
      "胆": 4035,
      "背": 4036,
      "胎": 4037,
      "胜": 4038,
      "胞": 4039,
      "胡": 4040,
      "胶": 4041,
      "能": 4042,
      "脂": 4043,
      "脈": 4044,
      "脊": 4045,
      "脚": 4046,
      "脩": 4047,
      "脫": 4048,
      "脱": 4049,
      "腐": 4050,
      "腕": 4051,
      "腥": 4052,
      "腹": 4053,
      "腺": 4054,
      "腾": 4055,
      "膏": 4056,
      "膾": 4057,
      "臣": 4058,
      "臧": 4059,
      "臨": 4060,
      "自": 4061,
      "臭": 4062,
      "臯": 4063,
      "至": 4064,
      "致": 4065,
      "臺": 4066,
      "臼": 4067,
      "舂": 4068,
      "與": 4069,
      "興": 4070,
      "舉": 4071,
      "舊": 4072,
      "舜": 4073,
      "舞": 4074,
      "舟": 4075,
      "航": 4076,
      "船": 4077,
      "艘": 4078,
      "良": 4079,
      "色": 4080,
      "艺": 4081,
      "艽": 4082,
      "艾": 4083,
      "芍": 4084,
      "芎": 4085,
      "芒": 4086,
      "芝": 4087,
      "芡": 4088,
      "芥": 4089,
      "芦": 4090,
      "芩": 4091,
      "芫": 4092,
      "芬": 4093,
      "芭": 4094,
      "花": 4095,
      "芳": 4096,
      "芷": 4097,
      "芸": 4098,
      "芽": 4099,
      "苇": 4100,
      "苍": 4101,
      "苏": 4102,
      "苓": 4103,
      "苔": 4104,
      "苗": 4105,
      "苚": 4106,
      "苡": 4107,
      "若": 4108,
      "苦": 4109,
      "苧": 4110,
      "英": 4111,
      "范": 4112,
      "茅": 4113,
      "茜": 4114,
      "茯": 4115,
      "茱": 4116,
      "茴": 4117,
      "茵": 4118,
      "茶": 4119,
      "茸": 4120,
      "茹": 4121,
      "荆": 4122,
      "荇": 4123,
      "草": 4124,
      "荑": 4125,
      "荒": 4126,
      "荖": 4127,
      "荡": 4128,
      "荫": 4129,
      "药": 4130,
      "荳": 4131,
      "荷": 4132,
      "莉": 4133,
      "莊": 4134,
      "莧": 4135,
      "莨": 4136,
      "莪": 4137,
      "莫": 4138,
      "莱": 4139,
      "莲": 4140,
      "莽": 4141,
      "菀": 4142,
      "菅": 4143,
      "菊": 4144,
      "菎": 4145,
      "菔": 4146,
      "菖": 4147,
      "菜": 4148,
      "華": 4149,
      "菱": 4150,
      "菴": 4151,
      "菹": 4152,
      "萆": 4153,
      "萊": 4154,
      "萌": 4155,
      "萧": 4156,
      "萨": 4157,
      "萬": 4158,
      "萸": 4159,
      "落": 4160,
      "葆": 4161,
      "葉": 4162,
      "著": 4163,
      "葛": 4164,
      "葱": 4165,
      "葵": 4166,
      "葶": 4167,
      "蒋": 4168,
      "蒐": 4169,
      "蒙": 4170,
      "蒜": 4171,
      "蒟": 4172,
      "蒡": 4173,
      "蒲": 4174,
      "蒻": 4175,
      "蒼": 4176,
      "蒿": 4177,
      "蓀": 4178,
      "蓁": 4179,
      "蓉": 4180,
      "蓋": 4181,
      "蓑": 4182,
      "蓝": 4183,
      "蓟": 4184,
      "蓮": 4185,
      "蓯": 4186,
      "蔡": 4187,
      "蔵": 4188,
      "蔻": 4189,
      "蕤": 4190,
      "蕩": 4191,
      "蕭": 4192,
      "薄": 4193,
      "薇": 4194,
      "薏": 4195,
      "薑": 4196,
      "薔": 4197,
      "薛": 4198,
      "薢": 4199,
      "薤": 4200,
      "薷": 4201,
      "藍": 4202,
      "藏": 4203,
      "藤": 4204,
      "藥": 4205,
      "藩": 4206,
      "藻": 4207,
      "藿": 4208,
      "蘇": 4209,
      "蘊": 4210,
      "蘭": 4211,
      "虎": 4212,
      "處": 4213,
      "虛": 4214,
      "虫": 4215,
      "虹": 4216,
      "蚧": 4217,
      "蛇": 4218,
      "蛙": 4219,
      "蛤": 4220,
      "蛭": 4221,
      "蛸": 4222,
      "蜀": 4223,
      "蜕": 4224,
      "蝉": 4225,
      "蝶": 4226,
      "融": 4227,
      "螞": 4228,
      "螵": 4229,
      "蟻": 4230,
      "蟾": 4231,
      "蠅": 4232,
      "蠣": 4233,
      "血": 4234,
      "衆": 4235,
      "行": 4236,
      "術": 4237,
      "街": 4238,
      "衛": 4239,
      "衝": 4240,
      "衣": 4241,
      "补": 4242,
      "衫": 4243,
      "衰": 4244,
      "袁": 4245,
      "袋": 4246,
      "裏": 4247,
      "裕": 4248,
      "裙": 4249,
      "補": 4250,
      "裳": 4251,
      "裴": 4252,
      "裸": 4253,
      "製": 4254,
      "襲": 4255,
      "西": 4256,
      "要": 4257,
      "覆": 4258,
      "見": 4259,
      "視": 4260,
      "覚": 4261,
      "親": 4262,
      "観": 4263,
      "覺": 4264,
      "觀": 4265,
      "观": 4266,
      "视": 4267,
      "角": 4268,
      "解": 4269,
      "言": 4270,
      "訓": 4271,
      "記": 4272,
      "訣": 4273,
      "設": 4274,
      "訶": 4275,
      "証": 4276,
      "評": 4277,
      "詠": 4278,
      "話": 4279,
      "詳": 4280,
      "誌": 4281,
      "語": 4282,
      "誠": 4283,
      "說": 4284,
      "説": 4285,
      "読": 4286,
      "誰": 4287,
      "調": 4288,
      "談": 4289,
      "論": 4290,
      "諸": 4291,
      "謎": 4292,
      "謝": 4293,
      "識": 4294,
      "譜": 4295,
      "警": 4296,
      "議": 4297,
      "護": 4298,
      "讃": 4299,
      "變": 4300,
      "讓": 4301,
      "让": 4302,
      "训": 4303,
      "讯": 4304,
      "记": 4305,
      "讲": 4306,
      "诏": 4307,
      "诗": 4308,
      "诚": 4309,
      "话": 4310,
      "该": 4311,
      "语": 4312,
      "请": 4313,
      "谎": 4314,
      "谐": 4315,
      "谷": 4316,
      "豆": 4317,
      "豉": 4318,
      "豊": 4319,
      "豐": 4320,
      "豚": 4321,
      "象": 4322,
      "豫": 4323,
      "豬": 4324,
      "貝": 4325,
      "貞": 4326,
      "財": 4327,
      "貫": 4328,
      "責": 4329,
      "貳": 4330,
      "貴": 4331,
      "貶": 4332,
      "買": 4333,
      "貼": 4334,
      "資": 4335,
      "賓": 4336,
      "賔": 4337,
      "賜": 4338,
      "賞": 4339,
      "賢": 4340,
      "賦": 4341,
      "質": 4342,
      "賴": 4343,
      "賽": 4344,
      "贊": 4345,
      "贝": 4346,
      "贞": 4347,
      "财": 4348,
      "败": 4349,
      "贫": 4350,
      "贯": 4351,
      "贵": 4352,
      "贺": 4353,
      "贼": 4354,
      "资": 4355,
      "赞": 4356,
      "赤": 4357,
      "赫": 4358,
      "赭": 4359,
      "走": 4360,
      "赵": 4361,
      "起": 4362,
      "超": 4363,
      "越": 4364,
      "趙": 4365,
      "趣": 4366,
      "足": 4367,
      "跌": 4368,
      "路": 4369,
      "蹊": 4370,
      "蹴": 4371,
      "身": 4372,
      "躬": 4373,
      "車": 4374,
      "軍": 4375,
      "軒": 4376,
      "転": 4377,
      "軫": 4378,
      "軸": 4379,
      "軼": 4380,
      "軾": 4381,
      "輔": 4382,
      "輝": 4383,
      "輪": 4384,
      "輯": 4385,
      "輿": 4386,
      "轄": 4387,
      "轉": 4388,
      "车": 4389,
      "轮": 4390,
      "载": 4391,
      "辈": 4392,
      "辛": 4393,
      "辞": 4394,
      "辣": 4395,
      "辦": 4396,
      "辰": 4397,
      "農": 4398,
      "边": 4399,
      "辺": 4400,
      "込": 4401,
      "辽": 4402,
      "达": 4403,
      "迅": 4404,
      "迈": 4405,
      "运": 4406,
      "近": 4407,
      "返": 4408,
      "进": 4409,
      "远": 4410,
      "连": 4411,
      "迦": 4412,
      "迪": 4413,
      "迫": 4414,
      "述": 4415,
      "迴": 4416,
      "迷": 4417,
      "追": 4418,
      "送": 4419,
      "逃": 4420,
      "逆": 4421,
      "选": 4422,
      "逊": 4423,
      "透": 4424,
      "途": 4425,
      "通": 4426,
      "速": 4427,
      "連": 4428,
      "逥": 4429,
      "週": 4430,
      "進": 4431,
      "逸": 4432,
      "遂": 4433,
      "遇": 4434,
      "遊": 4435,
      "運": 4436,
      "遍": 4437,
      "過": 4438,
      "道": 4439,
      "達": 4440,
      "違": 4441,
      "遠": 4442,
      "選": 4443,
      "遼": 4444,
      "邉": 4445,
      "邊": 4446,
      "邑": 4447,
      "邡": 4448,
      "那": 4449,
      "邯": 4450,
      "邳": 4451,
      "邴": 4452,
      "邵": 4453,
      "邸": 4454,
      "邻": 4455,
      "郁": 4456,
      "郎": 4457,
      "郑": 4458,
      "郡": 4459,
      "部": 4460,
      "郭": 4461,
      "郷": 4462,
      "都": 4463,
      "鄉": 4464,
      "鄒": 4465,
      "鄧": 4466,
      "鄭": 4467,
      "鄮": 4468,
      "鄰": 4469,
      "配": 4470,
      "酒": 4471,
      "酱": 4472,
      "酸": 4473,
      "醂": 4474,
      "醉": 4475,
      "醋": 4476,
      "醤": 4477,
      "醫": 4478,
      "醲": 4479,
      "釋": 4480,
      "里": 4481,
      "重": 4482,
      "野": 4483,
      "量": 4484,
      "金": 4485,
      "釜": 4486,
      "鈴": 4487,
      "鈸": 4488,
      "鉄": 4489,
      "鉅": 4490,
      "鉢": 4491,
      "鉴": 4492,
      "銀": 4493,
      "銃": 4494,
      "銘": 4495,
      "鋏": 4496,
      "鋼": 4497,
      "錄": 4498,
      "錢": 4499,
      "錦": 4500,
      "録": 4501,
      "鍋": 4502,
      "鍠": 4503,
      "鎌": 4504,
      "鎖": 4505,
      "鎞": 4506,
      "鎭": 4507,
      "鎮": 4508,
      "鏊": 4509,
      "鏟": 4510,
      "鏡": 4511,
      "鐵": 4512,
      "鑑": 4513,
      "鑛": 4514,
      "鑴": 4515,
      "针": 4516,
      "钏": 4517,
      "钞": 4518,
      "钟": 4519,
      "钱": 4520,
      "铁": 4521,
      "铃": 4522,
      "银": 4523,
      "键": 4524,
      "镇": 4525,
      "镜": 4526,
      "長": 4527,
      "镸": 4528,
      "长": 4529,
      "門": 4530,
      "閆": 4531,
      "開": 4532,
      "閏": 4533,
      "閑": 4534,
      "間": 4535,
      "関": 4536,
      "閣": 4537,
      "閻": 4538,
      "闘": 4539,
      "關": 4540,
      "闞": 4541,
      "门": 4542,
      "闫": 4543,
      "闭": 4544,
      "问": 4545,
      "间": 4546,
      "闻": 4547,
      "阁": 4548,
      "阜": 4549,
      "队": 4550,
      "阪": 4551,
      "阮": 4552,
      "防": 4553,
      "阴": 4554,
      "阿": 4555,
      "陀": 4556,
      "附": 4557,
      "际": 4558,
      "陆": 4559,
      "陈": 4560,
      "降": 4561,
      "限": 4562,
      "院": 4563,
      "陣": 4564,
      "险": 4565,
      "陰": 4566,
      "陳": 4567,
      "陵": 4568,
      "陶": 4569,
      "陸": 4570,
      "陽": 4571,
      "隆": 4572,
      "隐": 4573,
      "隗": 4574,
      "障": 4575,
      "險": 4576,
      "隷": 4577,
      "难": 4578,
      "雀": 4579,
      "雁": 4580,
      "雄": 4581,
      "雅": 4582,
      "集": 4583,
      "雒": 4584,
      "雖": 4585,
      "雙": 4586,
      "雞": 4587,
      "雨": 4588,
      "雪": 4589,
      "雲": 4590,
      "零": 4591,
      "雷": 4592,
      "電": 4593,
      "霄": 4594,
      "霆": 4595,
      "震": 4596,
      "霊": 4597,
      "霍": 4598,
      "霖": 4599,
      "霜": 4600,
      "霞": 4601,
      "霧": 4602,
      "霸": 4603,
      "靂": 4604,
      "靈": 4605,
      "青": 4606,
      "靖": 4607,
      "静": 4608,
      "靜": 4609,
      "非": 4610,
      "面": 4611,
      "革": 4612,
      "靴": 4613,
      "鞠": 4614,
      "韓": 4615,
      "韜": 4616,
      "韦": 4617,
      "韩": 4618,
      "音": 4619,
      "韶": 4620,
      "響": 4621,
      "頂": 4622,
      "順": 4623,
      "須": 4624,
      "頓": 4625,
      "領": 4626,
      "頭": 4627,
      "頷": 4628,
      "頼": 4629,
      "題": 4630,
      "顏": 4631,
      "願": 4632,
      "類": 4633,
      "顧": 4634,
      "顯": 4635,
      "顺": 4636,
      "题": 4637,
      "風": 4638,
      "风": 4639,
      "飘": 4640,
      "飛": 4641,
      "飞": 4642,
      "食": 4643,
      "飯": 4644,
      "餅": 4645,
      "養": 4646,
      "餐": 4647,
      "館": 4648,
      "饅": 4649,
      "馆": 4650,
      "首": 4651,
      "香": 4652,
      "馨": 4653,
      "馬": 4654,
      "馮": 4655,
      "駅": 4656,
      "駰": 4657,
      "駿": 4658,
      "騎": 4659,
      "騭": 4660,
      "驅": 4661,
      "驚": 4662,
      "马": 4663,
      "骨": 4664,
      "體": 4665,
      "高": 4666,
      "髪": 4667,
      "髮": 4668,
      "鬚": 4669,
      "鬱": 4670,
      "鬼": 4671,
      "魁": 4672,
      "魂": 4673,
      "魅": 4674,
      "魏": 4675,
      "魔": 4676,
      "魚": 4677,
      "魯": 4678,
      "鮎": 4679,
      "鮑": 4680,
      "鮓": 4681,
      "鮨": 4682,
      "鮪": 4683,
      "鮮": 4684,
      "鯀": 4685,
      "鯊": 4686,
      "鰯": 4687,
      "鱀": 4688,
      "鱈": 4689,
      "鱉": 4690,
      "鱒": 4691,
      "鱚": 4692,
      "鱼": 4693,
      "鲁": 4694,
      "鲜": 4695,
      "鳥": 4696,
      "鳳": 4697,
      "鳴": 4698,
      "鳶": 4699,
      "鴻": 4700,
      "鵝": 4701,
      "鵬": 4702,
      "鵰": 4703,
      "鷆": 4704,
      "鸡": 4705,
      "鸿": 4706,
      "鹅": 4707,
      "鹤": 4708,
      "鹰": 4709,
      "鹽": 4710,
      "鹿": 4711,
      "麒": 4712,
      "麓": 4713,
      "麗": 4714,
      "麝": 4715,
      "麟": 4716,
      "麦": 4717,
      "麩": 4718,
      "麴": 4719,
      "麹": 4720,
      "麻": 4721,
      "黃": 4722,
      "黄": 4723,
      "黎": 4724,
      "黑": 4725,
      "黒": 4726,
      "默": 4727,
      "黛": 4728,
      "黨": 4729,
      "鼐": 4730,
      "鼠": 4731,
      "鼻": 4732,
      "齊": 4733,
      "齋": 4734,
      "齦": 4735,
      "齿": 4736,
      "龍": 4737,
      "龙": 4738,
      "龜": 4739,
      "龟": 4740,
      "Ꙑ": 4741,
      "ꙑ": 4742,
      "Ꙥ": 4743,
      "ꙥ": 4744,
      "ꙩ": 4745,
      "Ꜧ": 4746,
      "ꜧ": 4747,
      "꞉": 4748,
      "ꦑ": 4749,
      "ꦗ": 4750,
      "ꦢ": 4751,
      "ꦮ": 4752,
      "ꦶ": 4753,
      "꧈": 4754,
      "ꯀ": 4755,
      "ꯁ": 4756,
      "ꯂ": 4757,
      "ꯃ": 4758,
      "ꯄ": 4759,
      "ꯅ": 4760,
      "ꯆ": 4761,
      "ꯇ": 4762,
      "ꯈ": 4763,
      "ꯉ": 4764,
      "ꯊ": 4765,
      "ꯍ": 4766,
      "ꯎ": 4767,
      "ꯏ": 4768,
      "ꯑ": 4769,
      "ꯔ": 4770,
      "ꯕ": 4771,
      "ꯖ": 4772,
      "ꯗ": 4773,
      "ꯛ": 4774,
      "ꯜ": 4775,
      "ꯝ": 4776,
      "ꯟ": 4777,
      "ꯡ": 4778,
      "ꯢ": 4779,
      "ꯣ": 4780,
      "ꯤ": 4781,
      "ꯥ": 4782,
      "ꯦ": 4783,
      "ꯧ": 4784,
      "ꯨ": 4785,
      "ꯩ": 4786,
      "가": 4787,
      "각": 4788,
      "간": 4789,
      "감": 4790,
      "갑": 4791,
      "강": 4792,
      "같": 4793,
      "개": 4794,
      "거": 4795,
      "건": 4796,
      "걸": 4797,
      "검": 4798,
      "게": 4799,
      "겠": 4800,
      "결": 4801,
      "경": 4802,
      "계": 4803,
      "고": 4804,
      "곡": 4805,
      "공": 4806,
      "과": 4807,
      "관": 4808,
      "광": 4809,
      "괴": 4810,
      "교": 4811,
      "구": 4812,
      "국": 4813,
      "군": 4814,
      "굴": 4815,
      "궁": 4816,
      "귀": 4817,
      "규": 4818,
      "근": 4819,
      "글": 4820,
      "기": 4821,
      "길": 4822,
      "김": 4823,
      "까": 4824,
      "깨": 4825,
      "꽃": 4826,
      "꾼": 4827,
      "꿈": 4828,
      "나": 4829,
      "난": 4830,
      "날": 4831,
      "남": 4832,
      "너": 4833,
      "널": 4834,
      "넷": 4835,
      "녀": 4836,
      "년": 4837,
      "노": 4838,
      "농": 4839,
      "누": 4840,
      "눈": 4841,
      "는": 4842,
      "늘": 4843,
      "능": 4844,
      "니": 4845,
      "님": 4846,
      "다": 4847,
      "단": 4848,
      "담": 4849,
      "답": 4850,
      "당": 4851,
      "대": 4852,
      "덕": 4853,
      "데": 4854,
      "도": 4855,
      "독": 4856,
      "돈": 4857,
      "동": 4858,
      "된": 4859,
      "두": 4860,
      "드": 4861,
      "들": 4862,
      "등": 4863,
      "디": 4864,
      "떡": 4865,
      "라": 4866,
      "락": 4867,
      "란": 4868,
      "람": 4869,
      "래": 4870,
      "랙": 4871,
      "량": 4872,
      "럼": 4873,
      "렁": 4874,
      "레": 4875,
      "려": 4876,
      "력": 4877,
      "령": 4878,
      "례": 4879,
      "로": 4880,
      "룡": 4881,
      "르": 4882,
      "를": 4883,
      "름": 4884,
      "리": 4885,
      "림": 4886,
      "립": 4887,
      "릿": 4888,
      "마": 4889,
      "막": 4890,
      "만": 4891,
      "말": 4892,
      "망": 4893,
      "매": 4894,
      "맹": 4895,
      "머": 4896,
      "먹": 4897,
      "먼": 4898,
      "메": 4899,
      "며": 4900,
      "면": 4901,
      "명": 4902,
      "모": 4903,
      "목": 4904,
      "묘": 4905,
      "무": 4906,
      "묵": 4907,
      "문": 4908,
      "물": 4909,
      "미": 4910,
      "민": 4911,
      "바": 4912,
      "박": 4913,
      "반": 4914,
      "발": 4915,
      "밤": 4916,
      "밥": 4917,
      "방": 4918,
      "배": 4919,
      "백": 4920,
      "버": 4921,
      "벌": 4922,
      "범": 4923,
      "베": 4924,
      "변": 4925,
      "별": 4926,
      "병": 4927,
      "보": 4928,
      "복": 4929,
      "본": 4930,
      "봉": 4931,
      "부": 4932,
      "북": 4933,
      "불": 4934,
      "브": 4935,
      "븐": 4936,
      "블": 4937,
      "비": 4938,
      "빅": 4939,
      "빈": 4940,
      "빛": 4941,
      "빠": 4942,
      "뻐": 4943,
      "사": 4944,
      "산": 4945,
      "삼": 4946,
      "상": 4947,
      "새": 4948,
      "생": 4949,
      "샤": 4950,
      "서": 4951,
      "석": 4952,
      "선": 4953,
      "설": 4954,
      "성": 4955,
      "세": 4956,
      "션": 4957,
      "소": 4958,
      "속": 4959,
      "손": 4960,
      "송": 4961,
      "쇼": 4962,
      "수": 4963,
      "숙": 4964,
      "순": 4965,
      "술": 4966,
      "슐": 4967,
      "스": 4968,
      "슬": 4969,
      "습": 4970,
      "승": 4971,
      "시": 4972,
      "식": 4973,
      "신": 4974,
      "실": 4975,
      "심": 4976,
      "십": 4977,
      "싸": 4978,
      "쌈": 4979,
      "쌍": 4980,
      "썬": 4981,
      "씨": 4982,
      "씹": 4983,
      "아": 4984,
      "악": 4985,
      "안": 4986,
      "알": 4987,
      "암": 4988,
      "앙": 4989,
      "앞": 4990,
      "애": 4991,
      "앤": 4992,
      "야": 4993,
      "약": 4994,
      "양": 4995,
      "어": 4996,
      "언": 4997,
      "얼": 4998,
      "엄": 4999,
      "었": 5000,
      "에": 5001,
      "엑": 5002,
      "엔": 5003,
      "여": 5004,
      "역": 5005,
      "연": 5006,
      "영": 5007,
      "예": 5008,
      "오": 5009,
      "옥": 5010,
      "온": 5011,
      "옷": 5012,
      "옹": 5013,
      "와": 5014,
      "완": 5015,
      "왕": 5016,
      "왜": 5017,
      "외": 5018,
      "요": 5019,
      "용": 5020,
      "우": 5021,
      "운": 5022,
      "울": 5023,
      "원": 5024,
      "월": 5025,
      "위": 5026,
      "유": 5027,
      "육": 5028,
      "윤": 5029,
      "융": 5030,
      "으": 5031,
      "은": 5032,
      "을": 5033,
      "음": 5034,
      "응": 5035,
      "의": 5036,
      "이": 5037,
      "익": 5038,
      "인": 5039,
      "일": 5040,
      "임": 5041,
      "자": 5042,
      "작": 5043,
      "잘": 5044,
      "장": 5045,
      "재": 5046,
      "잴": 5047,
      "쟁": 5048,
      "저": 5049,
      "전": 5050,
      "절": 5051,
      "점": 5052,
      "접": 5053,
      "젓": 5054,
      "정": 5055,
      "제": 5056,
      "젝": 5057,
      "조": 5058,
      "족": 5059,
      "종": 5060,
      "좋": 5061,
      "좌": 5062,
      "주": 5063,
      "준": 5064,
      "줄": 5065,
      "중": 5066,
      "지": 5067,
      "직": 5068,
      "진": 5069,
      "징": 5070,
      "짜": 5071,
      "짱": 5072,
      "찌": 5073,
      "찬": 5074,
      "찰": 5075,
      "참": 5076,
      "창": 5077,
      "채": 5078,
      "처": 5079,
      "척": 5080,
      "천": 5081,
      "철": 5082,
      "첩": 5083,
      "청": 5084,
      "초": 5085,
      "촌": 5086,
      "총": 5087,
      "최": 5088,
      "추": 5089,
      "축": 5090,
      "춘": 5091,
      "츄": 5092,
      "치": 5093,
      "칠": 5094,
      "침": 5095,
      "카": 5096,
      "칵": 5097,
      "컴": 5098,
      "코": 5099,
      "콤": 5100,
      "큐": 5101,
      "크": 5102,
      "타": 5103,
      "탁": 5104,
      "탄": 5105,
      "탈": 5106,
      "탕": 5107,
      "태": 5108,
      "터": 5109,
      "테": 5110,
      "텐": 5111,
      "토": 5112,
      "통": 5113,
      "트": 5114,
      "특": 5115,
      "티": 5116,
      "틴": 5117,
      "파": 5118,
      "판": 5119,
      "패": 5120,
      "페": 5121,
      "편": 5122,
      "평": 5123,
      "포": 5124,
      "풍": 5125,
      "프": 5126,
      "피": 5127,
      "필": 5128,
      "핑": 5129,
      "하": 5130,
      "학": 5131,
      "한": 5132,
      "할": 5133,
      "합": 5134,
      "항": 5135,
      "해": 5136,
      "행": 5137,
      "헌": 5138,
      "혁": 5139,
      "현": 5140,
      "협": 5141,
      "형": 5142,
      "혜": 5143,
      "호": 5144,
      "홀": 5145,
      "홉": 5146,
      "홍": 5147,
      "화": 5148,
      "환": 5149,
      "활": 5150,
      "황": 5151,
      "회": 5152,
      "효": 5153,
      "후": 5154,
      "훈": 5155,
      "훗": 5156,
      "훼": 5157,
      "휴": 5158,
      "흠": 5159,
      "흥": 5160,
      "희": 5161,
      "": 5162,
      "": 5163,
      "﨑": 5164,
      "ﬁ": 5165,
      "ﬂ": 5166,
      "ﷲ": 5167,
      "️": 5168,
      "︢": 5169,
      "﹎": 5170,
      "﹔": 5171,
      "ﺍ": 5172,
      "ﺏ": 5173,
      "ﺒ": 5174,
      "ﺤ": 5175,
      "ﺩ": 5176,
      "ﻁ": 5177,
      "ﻙ": 5178,
      "ﻟ": 5179,
      "ﻨ": 5180,
      "ﻫ": 5181,
      "ﻲ": 5182,
      "﻿": 5183,
      "！": 5184,
      "＄": 5185,
      "（": 5186,
      "）": 5187,
      "＊": 5188,
      "，": 5189,
      "－": 5190,
      "．": 5191,
      "／": 5192,
      "２": 5193,
      "５": 5194,
      "：": 5195,
      "；": 5196,
      "＞": 5197,
      "？": 5198,
      "＿": 5199,
      "｝": 5200,
      "～": 5201,
      "ｺ": 5202,
      "ﾃ": 5203,
      "ﾄ": 5204,
      "￣": 5205,
      "￥": 5206,
      "￦": 5207,
      "￼": 5208,
      "�": 5209,
      "𐎹": 5210,
      "𐤁": 5211,
      "𐤂": 5212,
      "𐤋": 5213,
      "𐨂": 5214,
      "𐨐": 5215,
      "𐨤": 5216,
      "𐨪": 5217,
      "𐬀": 5218,
      "𐬌": 5219,
      "𐬨": 5220,
      "𐬫": 5221,
      "𑐣": 5222,
      "𑐰": 5223,
      "𑐵": 5224,
      "𑐾": 5225,
      "𑑅": 5226,
      "𒀸": 5227,
      "𒁺": 5228,
      "𒋗": 5229,
      "𓏞": 5230,
      "𓏟": 5231,
      "𝄫": 5232,
      "𝝱": 5233,
      "💗": 5234,
      "💩": 5235,
      "😃": 5236,
      "😆": 5237,
      "😞": 5238,
      "😷": 5239,
      "🜸": 5240,
      "🤓": 5241,
      "th": 5242,
      "in": 5243,
      "er": 5244,
      "an": 5245,
      "the": 5246,
      "ou": 5247,
      "on": 5248,
      "at": 5249,
      "re": 5250,
      "is": 5251,
      "en": 5252,
      "to": 5253,
      "ed": 5254,
      "or": 5255,
      "ing": 5256,
      "al": 5257,
      "as": 5258,
      "it": 5259,
      "es": 5260,
      "and": 5261,
      "ar": 5262,
      "of": 5263,
      "he": 5264,
      "you": 5265,
      "me": 5266,
      "le": 5267,
      "st": 5268,
      "ll": 5269,
      "ow": 5270,
      "se": 5271,
      "ic": 5272,
      "ve": 5273,
      "be": 5274,
      "wh": 5275,
      "ay": 5276,
      "ha": 5277,
      "ro": 5278,
      "that": 5279,
      "ere": 5280,
      "ac": 5281,
      "ly": 5282,
      "ion": 5283,
      "id": 5284,
      "ot": 5285,
      "gh": 5286,
      "ent": 5287,
      "for": 5288,
      "ld": 5289,
      "was": 5290,
      "ch": 5291,
      "ver": 5292,
      "ut": 5293,
      "wi": 5294,
      "ad": 5295,
      "li": 5296,
      "so": 5297,
      "ri": 5298,
      "et": 5299,
      "co": 5300,
      "we": 5301,
      "..": 5302,
      "ir": 5303,
      "ke": 5304,
      "nd": 5305,
      "are": 5306,
      "ght": 5307,
      "am": 5308,
      "oo": 5309,
      "all": 5310,
      "The": 5311,
      "do": 5312,
      "im": 5313,
      "ter": 5314,
      "us": 5315,
      "ab": 5316,
      "with": 5317,
      "ne": 5318,
      "out": 5319,
      "one": 5320,
      "ur": 5321,
      "ce": 5322,
      "now": 5323,
      "ag": 5324,
      "Th": 5325,
      "mo": 5326,
      "un": 5327,
      "ther": 5328,
      "pe": 5329,
      "de": 5330,
      "have": 5331,
      "this": 5332,
      "go": 5333,
      "Wh": 5334,
      "lo": 5335,
      "not": 5336,
      "ould": 5337,
      "sh": 5338,
      "up": 5339,
      "ant": 5340,
      "ust": 5341,
      "il": 5342,
      "You": 5343,
      "ation": 5344,
      "te": 5345,
      "tr": 5346,
      "ain": 5347,
      "if": 5348,
      "He": 5349,
      "It": 5350,
      "my": 5351,
      "po": 5352,
      "his": 5353,
      "know": 5354,
      "ct": 5355,
      "con": 5356,
      "pl": 5357,
      "rom": 5358,
      "man": 5359,
      "ul": 5360,
      "what": 5361,
      "can": 5362,
      "fe": 5363,
      "thing": 5364,
      "...": 5365,
      "our": 5366,
      "ap": 5367,
      "by": 5368,
      "est": 5369,
      "her": 5370,
      "art": 5371,
      "no": 5372,
      "they": 5373,
      "res": 5374,
      "your": 5375,
      "ill": 5376,
      "sa": 5377,
      "com": 5378,
      "op": 5379,
      "from": 5380,
      "um": 5381,
      "ers": 5382,
      "but": 5383,
      "ess": 5384,
      "We": 5385,
      "there": 5386,
      "wor": 5387,
      "some": 5388,
      "ti": 5389,
      "had": 5390,
      "ate": 5391,
      "ca": 5392,
      "19": 5393,
      "pro": 5394,
      "ally": 5395,
      "ard": 5396,
      "qu": 5397,
      "ex": 5398,
      "get": 5399,
      "like": 5400,
      "su": 5401,
      "him": 5402,
      "ack": 5403,
      "ig": 5404,
      "bo": 5405,
      "way": 5406,
      "ind": 5407,
      "And": 5408,
      "ah": 5409,
      "very": 5410,
      "she": 5411,
      "don": 5412,
      "20": 5413,
      "ist": 5414,
      "ge": 5415,
      "end": 5416,
      "king": 5417,
      "ry": 5418,
      "ight": 5419,
      "ood": 5420,
      "ake": 5421,
      "ie": 5422,
      "ong": 5423,
      "about": 5424,
      "ive": 5425,
      "ment": 5426,
      "ound": 5427,
      "were": 5428,
      "just": 5429,
      "ye": 5430,
      "ber": 5431,
      "own": 5432,
      "who": 5433,
      "ity": 5434,
      "ast": 5435,
      "use": 5436,
      "ich": 5437,
      "ink": 5438,
      "ck": 5439,
      "What": 5440,
      "here": 5441,
      "right": 5442,
      "el": 5443,
      "any": 5444,
      "see": 5445,
      "ook": 5446,
      "fo": 5447,
      "did": 5448,
      "So": 5449,
      "gr": 5450,
      "ho": 5451,
      "na": 5452,
      "wo": 5453,
      "No": 5454,
      "ine": 5455,
      "In": 5456,
      "ish": 5457,
      "them": 5458,
      "want": 5459,
      "would": 5460,
      "ra": 5461,
      "per": 5462,
      "ven": 5463,
      "ide": 5464,
      "other": 5465,
      "will": 5466,
      "ort": 5467,
      "got": 5468,
      "ep": 5469,
      "ous": 5470,
      "has": 5471,
      "ice": 5472,
      "act": 5473,
      "ci": 5474,
      "om": 5475,
      "red": 5476,
      "ough": 5477,
      "ak": 5478,
      "think": 5479,
      "bl": 5480,
      "which": 5481,
      "day": 5482,
      "when": 5483,
      "time": 5484,
      "itt": 5485,
      "di": 5486,
      "oun": 5487,
      "say": 5488,
      "ol": 5489,
      "cl": 5490,
      "age": 5491,
      "ace": 5492,
      "af": 5493,
      "been": 5494,
      "But": 5495,
      "ty": 5496,
      "sp": 5497,
      "said": 5498,
      "br": 5499,
      "more": 5500,
      "over": 5501,
      "Oh": 5502,
      "ass": 5503,
      "--": 5504,
      "Ye": 5505,
      "ure": 5506,
      "come": 5507,
      "ree": 5508,
      "off": 5509,
      "und": 5510,
      "then": 5511,
      "That": 5512,
      "ick": 5513,
      "ans": 5514,
      "ite": 5515,
      "ies": 5516,
      "ople": 5517,
      "ang": 5518,
      "ary": 5519,
      "ple": 5520,
      "going": 5521,
      "their": 5522,
      "back": 5523,
      "too": 5524,
      "ach": 5525,
      "Yeah": 5526,
      "pp": 5527,
      "ia": 5528,
      "could": 5529,
      "where": 5530,
      "mer": 5531,
      "cause": 5532,
      "ars": 5533,
      "how": 5534,
      "ated": 5535,
      "irst": 5536,
      "part": 5537,
      "Ch": 5538,
      "tor": 5539,
      "let": 5540,
      "people": 5541,
      "ble": 5542,
      "dy": 5543,
      "ank": 5544,
      "sel": 5545,
      "two": 5546,
      "St": 5547,
      "ue": 5548,
      "good": 5549,
      "She": 5550,
      "ved": 5551,
      "pr": 5552,
      "ord": 5553,
      "look": 5554,
      "ade": 5555,
      "av": 5556,
      "ase": 5557,
      "work": 5558,
      "au": 5559,
      "This": 5560,
      "They": 5561,
      "down": 5562,
      "first": 5563,
      "em": 5564,
      "si": 5565,
      "into": 5566,
      "kay": 5567,
      "well": 5568,
      "ittle": 5569,
      "ance": 5570,
      "00": 5571,
      "fore": 5572,
      "able": 5573,
      "dis": 5574,
      "reat": 5575,
      "Well": 5576,
      "ave": 5577,
      "play": 5578,
      "call": 5579,
      "ence": 5580,
      "ip": 5581,
      "its": 5582,
      "new": 5583,
      "orn": 5584,
      "mber": 5585,
      "ud": 5586,
      "int": 5587,
      "gu": 5588,
      "only": 5589,
      "ser": 5590,
      "put": 5591,
      "oh": 5592,
      "little": 5593,
      "also": 5594,
      "ret": 5595,
      "ought": 5596,
      "pos": 5597,
      "min": 5598,
      "ater": 5599,
      "ions": 5600,
      "fer": 5601,
      "every": 5602,
      "land": 5603,
      "ren": 5604,
      "again": 5605,
      "ian": 5606,
      "tal": 5607,
      "mu": 5608,
      "bet": 5609,
      "pres": 5610,
      "self": 5611,
      "urn": 5612,
      "str": 5613,
      "201": 5614,
      "ever": 5615,
      "sto": 5616,
      "need": 5617,
      "ild": 5618,
      "than": 5619,
      "read": 5620,
      "ving": 5621,
      "spe": 5622,
      "aw": 5623,
      "because": 5624,
      "tell": 5625,
      "after": 5626,
      "make": 5627,
      "port": 5628,
      "take": 5629,
      "bu": 5630,
      "Yes": 5631,
      "ob": 5632,
      "fa": 5633,
      "ves": 5634,
      "There": 5635,
      "mon": 5636,
      "hi": 5637,
      "od": 5638,
      "pt": 5639,
      "sc": 5640,
      ".\"": 5641,
      "Un": 5642,
      "mar": 5643,
      "ma": 5644,
      "old": 5645,
      "ose": 5646,
      "long": 5647,
      "came": 5648,
      "most": 5649,
      "should": 5650,
      "really": 5651,
      "ical": 5652,
      "thr": 5653,
      "try": 5654,
      "happ": 5655,
      "form": 5656,
      "under": 5657,
      "ile": 5658,
      "ign": 5659,
      "How": 5660,
      "does": 5661,
      "gon": 5662,
      "these": 5663,
      "Co": 5664,
      "ph": 5665,
      "fl": 5666,
      "ens": 5667,
      "iss": 5668,
      "much": 5669,
      "iz": 5670,
      "An": 5671,
      "something": 5672,
      "uh": 5673,
      "ting": 5674,
      "tain": 5675,
      "made": 5676,
      "men": 5677,
      "used": 5678,
      "du": 5679,
      "wr": 5680,
      "ction": 5681,
      "mean": 5682,
      "coun": 5683,
      "inter": 5684,
      "Be": 5685,
      "gonna": 5686,
      "won": 5687,
      "If": 5688,
      "ath": 5689,
      "hel": 5690,
      "Do": 5691,
      "ts": 5692,
      "many": 5693,
      "even": 5694,
      "may": 5695,
      "ps": 5696,
      "ire": 5697,
      "200": 5698,
      "car": 5699,
      "ng": 5700,
      "cr": 5701,
      "never": 5702,
      "before": 5703,
      "body": 5704,
      "went": 5705,
      "cent": 5706,
      "fu": 5707,
      "ool": 5708,
      "ates": 5709,
      "ask": 5710,
      "Mr": 5711,
      "ta": 5712,
      "hand": 5713,
      "Mar": 5714,
      "yes": 5715,
      "ys": 5716,
      "didn": 5717,
      "ft": 5718,
      "ouse": 5719,
      "fin": 5720,
      "side": 5721,
      "les": 5722,
      "med": 5723,
      "des": 5724,
      "years": 5725,
      "amp": 5726,
      "ms": 5727,
      "pre": 5728,
      "Ro": 5729,
      "att": 5730,
      "ict": 5731,
      "lie": 5732,
      "Ne": 5733,
      "ition": 5734,
      "ily": 5735,
      "ise": 5736,
      "head": 5737,
      "through": 5738,
      "atch": 5739,
      "ited": 5740,
      "vi": 5741,
      "ful": 5742,
      "stand": 5743,
      "dif": 5744,
      "cont": 5745,
      "Re": 5746,
      "Al": 5747,
      "der": 5748,
      "three": 5749,
      "ually": 5750,
      "18": 5751,
      "ried": 5752,
      "sup": 5753,
      "De": 5754,
      "ss": 5755,
      "vers": 5756,
      "life": 5757,
      "comp": 5758,
      "okay": 5759,
      "ations": 5760,
      "start": 5761,
      "Is": 5762,
      "great": 5763,
      "found": 5764,
      "All": 5765,
      "those": 5766,
      "son": 5767,
      "vis": 5768,
      "ces": 5769,
      "cle": 5770,
      "cour": 5771,
      "thought": 5772,
      "away": 5773,
      "cer": 5774,
      "things": 5775,
      "give": 5776,
      "clo": 5777,
      "TH": 5778,
      "Br": 5779,
      "ince": 5780,
      "still": 5781,
      "ward": 5782,
      "gen": 5783,
      "tim": 5784,
      "gi": 5785,
      "love": 5786,
      "find": 5787,
      "ways": 5788,
      "night": 5789,
      "last": 5790,
      "Why": 5791,
      "llow": 5792,
      "IN": 5793,
      "Don": 5794,
      "dr": 5795,
      "home": 5796,
      "Now": 5797,
      "cess": 5798,
      "ten": 5799,
      "must": 5800,
      "yeah": 5801,
      "col": 5802,
      "bit": 5803,
      "doing": 5804,
      "Ar": 5805,
      "Le": 5806,
      "help": 5807,
      "fri": 5808,
      "als": 5809,
      "ton": 5810,
      "cond": 5811,
      "sy": 5812,
      "show": 5813,
      "name": 5814,
      "being": 5815,
      "fr": 5816,
      "care": 5817,
      "place": 5818,
      "cre": 5819,
      "ug": 5820,
      "irl": 5821,
      "sm": 5822,
      "ship": 5823,
      "less": 5824,
      "called": 5825,
      "bro": 5826,
      "che": 5827,
      "''": 5828,
      "ear": 5829,
      "ange": 5830,
      "ult": 5831,
      "light": 5832,
      "ican": 5833,
      "``": 5834,
      "lot": 5835,
      "pol": 5836,
      "Amer": 5837,
      "unt": 5838,
      "sure": 5839,
      "ident": 5840,
      "ational": 5841,
      "why": 5842,
      "ings": 5843,
      "ele": 5844,
      "friend": 5845,
      "pri": 5846,
      "On": 5847,
      "oney": 5848,
      "ced": 5849,
      "ff": 5850,
      "set": 5851,
      "fam": 5852,
      "air": 5853,
      "\".": 5854,
      "uck": 5855,
      "ened": 5856,
      "Se": 5857,
      "ub": 5858,
      "As": 5859,
      "ait": 5860,
      "Let": 5861,
      "gan": 5862,
      "child": 5863,
      "such": 5864,
      "chool": 5865,
      "kind": 5866,
      "kill": 5867,
      "reg": 5868,
      "bab": 5869,
      "big": 5870,
      "sing": 5871,
      "same": 5872,
      "member": 5873,
      "pu": 5874,
      "pers": 5875,
      "comm": 5876,
      "My": 5877,
      "sur": 5878,
      "ning": 5879,
      "When": 5880,
      "point": 5881,
      "feel": 5882,
      "vie": 5883,
      "house": 5884,
      "Come": 5885,
      "cted": 5886,
      "world": 5887,
      "ason": 5888,
      "Fr": 5889,
      "je": 5890,
      "born": 5891,
      "nor": 5892,
      "times": 5893,
      "For": 5894,
      "ial": 5895,
      "ark": 5896,
      "differ": 5897,
      "jo": 5898,
      "vent": 5899,
      "mp": 5900,
      "cur": 5901,
      "num": 5902,
      "ress": 5903,
      "la": 5904,
      "Okay": 5905,
      "ased": 5906,
      "talk": 5907,
      "ner": 5908,
      "around": 5909,
      "ash": 5910,
      "199": 5911,
      "atter": 5912,
      "led": 5913,
      "year": 5914,
      "ower": 5915,
      "ER": 5916,
      "Ju": 5917,
      "girl": 5918,
      "xt": 5919,
      "ek": 5920,
      "bre": 5921,
      "might": 5922,
      "known": 5923,
      "ith": 5924,
      "ese": 5925,
      "turn": 5926,
      "val": 5927,
      "Hey": 5928,
      ").": 5929,
      "run": 5930,
      "ating": 5931,
      "word": 5932,
      "four": 5933,
      "another": 5934,
      "log": 5935,
      "AN": 5936,
      "uring": 5937,
      "\",": 5938,
      "To": 5939,
      "cy": 5940,
      "May": 5941,
      "Thank": 5942,
      "ame": 5943,
      "ctor": 5944,
      "ready": 5945,
      "outh": 5946,
      "ins": 5947,
      "always": 5948,
      "ween": 5949,
      "Can": 5950,
      "cons": 5951,
      "io": 5952,
      "high": 5953,
      "ball": 5954,
      "orry": 5955,
      "cord": 5956,
      "real": 5957,
      "main": 5958,
      "New": 5959,
      "ered": 5960,
      "ics": 5961,
      "stu": 5962,
      "anything": 5963,
      "),": 5964,
      "Mo": 5965,
      "room": 5966,
      "Sh": 5967,
      "better": 5968,
      "left": 5969,
      "done": 5970,
      "God": 5971,
      "cha": 5972,
      "keep": 5973,
      "while": 5974,
      "erm": 5975,
      "war": 5976,
      "bus": 5977,
      "person": 5978,
      "gl": 5979,
      "ute": 5980,
      "belie": 5981,
      "ness": 5982,
      "between": 5983,
      "incl": 5984,
      "ious": 5985,
      "At": 5986,
      "ular": 5987,
      "though": 5988,
      "second": 5989,
      "cial": 5990,
      "rest": 5991,
      "ors": 5992,
      "Then": 5993,
      "told": 5994,
      "book": 5995,
      "mus": 5996,
      "school": 5997,
      "His": 5998,
      "lar": 5999,
      "Just": 6000,
      ",\"": 6001,
      "ished": 6002,
      "tri": 6003,
      "row": 6004,
      "eng": 6005,
      "ual": 6006,
      "ister": 6007,
      "father": 6008,
      "ared": 6009,
      "char": 6010,
      "par": 6011,
      "money": 6012,
      "tow": 6013,
      "different": 6014,
      "sub": 6015,
      "ird": 6016,
      "mb": 6017,
      "loo": 6018,
      "top": 6019,
      "full": 6020,
      "ale": 6021,
      "Who": 6022,
      "water": 6023,
      "ste": 6024,
      "far": 6025,
      "OU": 6026,
      "ris": 6027,
      "vol": 6028,
      "10": 6029,
      "course": 6030,
      "American": 6031,
      "Con": 6032,
      "os": 6033,
      "ents": 6034,
      "died": 6035,
      "ny": 6036,
      "cap": 6037,
      "Com": 6038,
      "mother": 6039,
      "United": 6040,
      "Where": 6041,
      "aster": 6042,
      "list": 6043,
      "az": 6044,
      "ail": 6045,
      "||": 6046,
      "until": 6047,
      "add": 6048,
      "198": 6049,
      "tory": 6050,
      "coming": 6051,
      "took": 6052,
      "Not": 6053,
      "oc": 6054,
      "gg": 6055,
      "produ": 6056,
      "bed": 6057,
      "fun": 6058,
      "Some": 6059,
      "both": 6060,
      "each": 6061,
      "ef": 6062,
      "Are": 6063,
      "pass": 6064,
      "ative": 6065,
      "plan": 6066,
      "next": 6067,
      "nothing": 6068,
      "mind": 6069,
      "number": 6070,
      "nam": 6071,
      "sha": 6072,
      "uary": 6073,
      "hard": 6074,
      "best": 6075,
      "saw": 6076,
      "later": 6077,
      "follow": 6078,
      "Go": 6079,
      "ted": 6080,
      "face": 6081,
      "rel": 6082,
      "Joh": 6083,
      "eral": 6084,
      "city": 6085,
      "fect": 6086,
      "ities": 6087,
      "sk": 6088,
      "gether": 6089,
      "sl": 6090,
      "mor": 6091,
      "akes": 6092,
      "cri": 6093,
      "ped": 6094,
      "appe": 6095,
      "quest": 6096,
      "doesn": 6097,
      "team": 6098,
      "miss": 6099,
      "week": 6100,
      "family": 6101,
      "aren": 6102,
      "hal": 6103,
      "vid": 6104,
      "Coun": 6105,
      "Nor": 6106,
      "dec": 6107,
      "Eng": 6108,
      "ross": 6109,
      "wait": 6110,
      "five": 6111,
      "cept": 6112,
      "197": 6113,
      "ON": 6114,
      "sol": 6115,
      "Good": 6116,
      "together": 6117,
      "town": 6118,
      "ures": 6119,
      "John": 6120,
      "state": 6121,
      "actually": 6122,
      "lt": 6123,
      "ject": 6124,
      "band": 6125,
      "boy": 6126,
      "enough": 6127,
      "Ind": 6128,
      "Bo": 6129,
      "Right": 6130,
      "Gr": 6131,
      "leg": 6132,
      "cal": 6133,
      "against": 6134,
      "seen": 6135,
      "iness": 6136,
      "else": 6137,
      "ments": 6138,
      "small": 6139,
      "Look": 6140,
      "hu": 6141,
      "ger": 6142,
      "One": 6143,
      "publ": 6144,
      "pop": 6145,
      "dire": 6146,
      "ING": 6147,
      "present": 6148,
      "without": 6149,
      "live": 6150,
      "young": 6151,
      "proble": 6152,
      "ivers": 6153,
      "den": 6154,
      "ush": 6155,
      "line": 6156,
      "pret": 6157,
      "hear": 6158,
      "aught": 6159,
      "bad": 6160,
      "six": 6161,
      "hold": 6162,
      "cut": 6163,
      "sorry": 6164,
      "ons": 6165,
      "wal": 6166,
      "Af": 6167,
      "States": 6168,
      "few": 6169,
      "wanted": 6170,
      "Er": 6171,
      "became": 6172,
      "15": 6173,
      "once": 6174,
      "looking": 6175,
      "everything": 6176,
      "understand": 6177,
      "sign": 6178,
      "ung": 6179,
      "sho": 6180,
      "sim": 6181,
      "move": 6182,
      "press": 6183,
      "serv": 6184,
      "17": 6185,
      "vo": 6186,
      "mm": 6187,
      "national": 6188,
      "sit": 6189,
      "ier": 6190,
      "Uh": 6191,
      "heart": 6192,
      "ned": 6193,
      "ze": 6194,
      "ago": 6195,
      "stem": 6196,
      "leave": 6197,
      "remember": 6198,
      "near": 6199,
      "ling": 6200,
      "ix": 6201,
      "open": 6202,
      "Li": 6203,
      "stay": 6204,
      "ific": 6205,
      "gre": 6206,
      "mark": 6207,
      "Or": 6208,
      "since": 6209,
      "round": 6210,
      "ley": 6211,
      "dri": 6212,
      "arch": 6213,
      "AT": 6214,
      "aut": 6215,
      "Car": 6216,
      "cover": 6217,
      "ters": 6218,
      "meet": 6219,
      "huh": 6220,
      "igh": 6221,
      "says": 6222,
      "lead": 6223,
      "gin": 6224,
      "ls": 6225,
      "days": 6226,
      "children": 6227,
      "during": 6228,
      "pect": 6229,
      "believe": 6230,
      "Jan": 6231,
      "please": 6232,
      "Did": 6233,
      "music": 6234,
      "RE": 6235,
      "llo": 6236,
      "196": 6237,
      "ield": 6238,
      "import": 6239,
      "law": 6240,
      "quite": 6241,
      "fact": 6242,
      "foot": 6243,
      "Your": 6244,
      "today": 6245,
      "cus": 6246,
      "kid": 6247,
      "Ger": 6248,
      "ants": 6249,
      "includ": 6250,
      "half": 6251,
      "ones": 6252,
      "getting": 6253,
      "orning": 6254,
      "ina": 6255,
      "Pr": 6256,
      "ream": 6257,
      "isn": 6258,
      "hour": 6259,
      "wan": 6260,
      "oup": 6261,
      "ica": 6262,
      "ied": 6263,
      "ather": 6264,
      "ury": 6265,
      "build": 6266,
      "tre": 6267,
      "THE": 6268,
      "nice": 6269,
      "happened": 6270,
      "woman": 6271,
      "eyes": 6272,
      "ont": 6273,
      "possi": 6274,
      "ital": 6275,
      "000": 6276,
      "ond": 6277,
      "Tr": 6278,
      "ork": 6279,
      "Me": 6280,
      "Ex": 6281,
      "watch": 6282,
      "power": 6283,
      "interest": 6284,
      "sort": 6285,
      "12": 6286,
      "rele": 6287,
      "vision": 6288,
      "ator": 6289,
      "16": 6290,
      "Ma": 6291,
      "fil": 6292,
      "After": 6293,
      "played": 6294,
      "door": 6295,
      "whole": 6296,
      "bar": 6297,
      "Cl": 6298,
      "matter": 6299,
      "heard": 6300,
      "mil": 6301,
      "pain": 6302,
      "app": 6303,
      "raw": 6304,
      "ames": 6305,
      "dist": 6306,
      "hy": 6307,
      "itch": 6308,
      "win": 6309,
      "ral": 6310,
      "Get": 6311,
      "yet": 6312,
      "case": 6313,
      "vil": 6314,
      "comes": 6315,
      "Te": 6316,
      "job": 6317,
      "Mm": 6318,
      "ists": 6319,
      "system": 6320,
      "himself": 6321,
      "song": 6322,
      "morning": 6323,
      "view": 6324,
      "having": 6325,
      "pay": 6326,
      "Will": 6327,
      "eat": 6328,
      "II": 6329,
      "order": 6330,
      "upon": 6331,
      "velo": 6332,
      "Man": 6333,
      "started": 6334,
      "?\"": 6335,
      "sle": 6336,
      "record": 6337,
      "Ho": 6338,
      "Pro": 6339,
      "eter": 6340,
      "Here": 6341,
      "ude": 6342,
      "ages": 6343,
      "peri": 6344,
      "lad": 6345,
      "ense": 6346,
      "ither": 6347,
      "thank": 6348,
      "ines": 6349,
      "asked": 6350,
      "knew": 6351,
      "Col": 6352,
      "gover": 6353,
      "cor": 6354,
      "ised": 6355,
      "change": 6356,
      "death": 6357,
      "talking": 6358,
      "polit": 6359,
      "stop": 6360,
      "ok": 6361,
      "Bl": 6362,
      "soon": 6363,
      "along": 6364,
      "important": 6365,
      "eas": 6366,
      "already": 6367,
      "qui": 6368,
      "sir": 6369,
      "month": 6370,
      "ene": 6371,
      "que": 6372,
      "brother": 6373,
      "30": 6374,
      "ai": 6375,
      "hur": 6376,
      "urch": 6377,
      "fort": 6378,
      "Ge": 6379,
      "shall": 6380,
      "ring": 6381,
      "key": 6382,
      "exam": 6383,
      "wrong": 6384,
      "idea": 6385,
      "King": 6386,
      "country": 6387,
      "swe": 6388,
      "return": 6389,
      "lear": 6390,
      "iversity": 6391,
      "saying": 6392,
      "AR": 6393,
      "answ": 6394,
      "gy": 6395,
      "comple": 6396,
      "gave": 6397,
      "dead": 6398,
      "ety": 6399,
      "tem": 6400,
      "game": 6401,
      "fac": 6402,
      "ann": 6403,
      "wind": 6404,
      "prom": 6405,
      "Jo": 6406,
      "Fe": 6407,
      "wife": 6408,
      "ature": 6409,
      "sound": 6410,
      "trans": 6411,
      "means": 6412,
      "sent": 6413,
      "ution": 6414,
      "nment": 6415,
      "met": 6416,
      "ran": 6417,
      "posed": 6418,
      "trying": 6419,
      "road": 6420,
      "ries": 6421,
      "certain": 6422,
      "class": 6423,
      "chang": 6424,
      "gone": 6425,
      "allow": 6426,
      "ati": 6427,
      "Because": 6428,
      "195": 6429,
      "ism": 6430,
      "ility": 6431,
      "contin": 6432,
      "dam": 6433,
      "fine": 6434,
      "mill": 6435,
      "business": 6436,
      "area": 6437,
      "ically": 6438,
      "LL": 6439,
      "bring": 6440,
      "low": 6441,
      "ST": 6442,
      "reason": 6443,
      "bably": 6444,
      "Cha": 6445,
      ".”": 6446,
      "grap": 6447,
      "lish": 6448,
      "ster": 6449,
      "pped": 6450,
      "aughter": 6451,
      "ets": 6452,
      "organ": 6453,
      "fall": 6454,
      "uro": 6455,
      "Her": 6456,
      "uc": 6457,
      "bum": 6458,
      "Wor": 6459,
      "making": 6460,
      "cho": 6461,
      "pretty": 6462,
      "14": 6463,
      "offic": 6464,
      "gt": 6465,
      "194": 6466,
      "Brit": 6467,
      "movie": 6468,
      "ended": 6469,
      "inking": 6470,
      "wanna": 6471,
      "With": 6472,
      "story": 6473,
      "began": 6474,
      "vel": 6475,
      "suc": 6476,
      "ik": 6477,
      "fre": 6478,
      "oper": 6479,
      "late": 6480,
      "baby": 6481,
      "hor": 6482,
      "field": 6483,
      "Fo": 6484,
      "train": 6485,
      "guy": 6486,
      "plac": 6487,
      "stru": 6488,
      "often": 6489,
      "lost": 6490,
      "lay": 6491,
      "van": 6492,
      "fight": 6493,
      "dro": 6494,
      "happen": 6495,
      "inv": 6496,
      "human": 6497,
      "clear": 6498,
      "ural": 6499,
      "gram": 6500,
      "YOU": 6501,
      "colle": 6502,
      "whe": 6503,
      "beaut": 6504,
      "break": 6505,
      "iter": 6506,
      "partic": 6507,
      "ized": 6508,
      "ats": 6509,
      "plain": 6510,
      "prof": 6511,
      "tern": 6512,
      "fire": 6513,
      "OR": 6514,
      "given": 6515,
      "soci": 6516,
      "Par": 6517,
      "ground": 6518,
      "wards": 6519,
      "ional": 6520,
      "goes": 6521,
      "ili": 6522,
      "13": 6523,
      "Ple": 6524,
      "problem": 6525,
      "looked": 6526,
      "Miss": 6527,
      "someone": 6528,
      "Every": 6529,
      "lock": 6530,
      "augh": 6531,
      "EN": 6532,
      "wasn": 6533,
      "develo": 6534,
      "var": 6535,
      "dad": 6536,
      "moment": 6537,
      "aken": 6538,
      "Pe": 6539,
      "walk": 6540,
      "test": 6541,
      "close": 6542,
      "fic": 6543,
      "Sp": 6544,
      "women": 6545,
      "hm": 6546,
      "working": 6547,
      "wonder": 6548,
      "season": 6549,
      "War": 6550,
      "large": 6551,
      "aged": 6552,
      "Dr": 6553,
      "probably": 6554,
      "maybe": 6555,
      "yourself": 6556,
      "ali": 6557,
      "dep": 6558,
      "undred": 6559,
      "pie": 6560,
      "ison": 6561,
      "wish": 6562,
      "hope": 6563,
      "group": 6564,
      "cu": 6565,
      "commun": 6566,
      "County": 6567,
      "York": 6568,
      "short": 6569,
      "ately": 6570,
      "guys": 6571,
      "Har": 6572,
      "true": 6573,
      "rece": 6574,
      "possible": 6575,
      "ery": 6576,
      "wood": 6577,
      "pose": 6578,
      "lly": 6579,
      "ney": 6580,
      "sleep": 6581,
      "exp": 6582,
      "22": 6583,
      "white": 6584,
      "hind": 6585,
      "resp": 6586,
      "mid": 6587,
      "aper": 6588,
      "Bar": 6589,
      "Lo": 6590,
      "These": 6591,
      "stit": 6592,
      "ined": 6593,
      "wouldn": 6594,
      "ards": 6595,
      "happy": 6596,
      "Please": 6597,
      "mag": 6598,
      "hundred": 6599,
      "Je": 6600,
      "arm": 6601,
      "rew": 6602,
      "ices": 6603,
      "ulation": 6604,
      "ouch": 6605,
      "deal": 6606,
      "become": 6607,
      "qual": 6608,
      "Mrs": 6609,
      "IT": 6610,
      "fair": 6611,
      "public": 6612,
      "Po": 6613,
      "IS": 6614,
      "early": 6615,
      "tru": 6616,
      "jor": 6617,
      "haven": 6618,
      "free": 6619,
      "January": 6620,
      "ama": 6621,
      "Ah": 6622,
      "friends": 6623,
      "University": 6624,
      "eight": 6625,
      "vide": 6626,
      ",”": 6627,
      "World": 6628,
      "bur": 6629,
      "Ab": 6630,
      "Gu": 6631,
      "gent": 6632,
      "black": 6633,
      "almost": 6634,
      "21": 6635,
      "hon": 6636,
      "contro": 6637,
      "Of": 6638,
      "LE": 6639,
      "acti": 6640,
      "question": 6641,
      "orig": 6642,
      "unch": 6643,
      "pen": 6644,
      "ague": 6645,
      "using": 6646,
      "hands": 6647,
      "rent": 6648,
      "company": 6649,
      "cret": 6650,
      "apan": 6651,
      "emp": 6652,
      "phone": 6653,
      "least": 6654,
      "ham": 6655,
      "words": 6656,
      "married": 6657,
      "die": 6658,
      "25": 6659,
      "Pres": 6660,
      "event": 6661,
      "reach": 6662,
      "ump": 6663,
      "myself": 6664,
      "!\"": 6665,
      "Aug": 6666,
      "ouble": 6667,
      "Japan": 6668,
      "South": 6669,
      "CH": 6670,
      "killed": 6671,
      "cas": 6672,
      "pa": 6673,
      "consid": 6674,
      "cell": 6675,
      "Aust": 6676,
      "Min": 6677,
      "fully": 6678,
      "angu": 6679,
      "government": 6680,
      "alth": 6681,
      "blood": 6682,
      "alone": 6683,
      "anim": 6684,
      "conf": 6685,
      "English": 6686,
      "Euro": 6687,
      "rid": 6688,
      "gun": 6689,
      "sever": 6690,
      "March": 6691,
      "ilt": 6692,
      "Ste": 6693,
      "iful": 6694,
      "ru": 6695,
      "mit": 6696,
      "draw": 6697,
      "11": 6698,
      "tom": 6699,
      "dog": 6700,
      "utes": 6701,
      "released": 6702,
      "logy": 6703,
      "US": 6704,
      "loc": 6705,
      "cli": 6706,
      "Char": 6707,
      "origin": 6708,
      "Hello": 6709,
      "fast": 6710,
      "tele": 6711,
      "grow": 6712,
      "guess": 6713,
      "France": 6714,
      "taken": 6715,
      "hot": 6716,
      "Ke": 6717,
      "August": 6718,
      "raz": 6719,
      "aim": 6720,
      "album": 6721,
      "enn": 6722,
      "Oc": 6723,
      "Sep": 6724,
      "vious": 6725,
      "Per": 6726,
      "series": 6727,
      "behind": 6728,
      "oud": 6729,
      "cot": 6730,
      "pick": 6731,
      "OK": 6732,
      "pur": 6733,
      "bor": 6734,
      "brought": 6735,
      "wel": 6736,
      "position": 6737,
      "appro": 6738,
      "ged": 6739,
      "taking": 6740,
      "speak": 6741,
      "ony": 6742,
      "June": 6743,
      "rench": 6744,
      "makes": 6745,
      "selves": 6746,
      "mal": 6747,
      "mom": 6748,
      "strong": 6749,
      "gn": 6750,
      "ford": 6751,
      "front": 6752,
      "step": 6753,
      "tember": 6754,
      "British": 6755,
      "several": 6756,
      "food": 6757,
      "moved": 6758,
      "por": 6759,
      "anger": 6760,
      "Have": 6761,
      "held": 6762,
      "ides": 6763,
      "ken": 6764,
      "named": 6765,
      "search": 6766,
      "ane": 6767,
      "star": 6768,
      "rist": 6769,
      "iting": 6770,
      "bot": 6771,
      "arr": 6772,
      "By": 6773,
      "success": 6774,
      "ances": 6775,
      "trict": 6776,
      "fig": 6777,
      "bas": 6778,
      "cking": 6779,
      "daughter": 6780,
      "North": 6781,
      "sat": 6782,
      "former": 6783,
      "ending": 6784,
      "ory": 6785,
      "lling": 6786,
      "September": 6787,
      "ues": 6788,
      "listen": 6789,
      "stuff": 6790,
      "thor": 6791,
      "ino": 6792,
      "either": 6793,
      "support": 6794,
      "charac": 6795,
      "ured": 6796,
      "design": 6797,
      "rock": 6798,
      "TO": 6799,
      "sold": 6800,
      "Apri": 6801,
      "laugh": 6802,
      "April": 6803,
      "party": 6804,
      "July": 6805,
      "tra": 6806,
      "gener": 6807,
      "remain": 6808,
      "looks": 6809,
      "tober": 6810,
      "stead": 6811,
      "Maybe": 6812,
      "haps": 6813,
      "squ": 6814,
      "ME": 6815,
      "atic": 6816,
      "pict": 6817,
      "million": 6818,
      "October": 6819,
      "Europe": 6820,
      "ext": 6821,
      "rather": 6822,
      "cast": 6823,
      "lled": 6824,
      "ows": 6825,
      "ize": 6826,
      "seven": 6827,
      "ply": 6828,
      "quick": 6829,
      "minute": 6830,
      "sum": 6831,
      "thinking": 6832,
      "sed": 6833,
      "living": 6834,
      "minutes": 6835,
      "Ser": 6836,
      "reet": 6837,
      "attack": 6838,
      "program": 6839,
      "report": 6840,
      "rad": 6841,
      "ering": 6842,
      "langu": 6843,
      "box": 6844,
      "National": 6845,
      "aking": 6846,
      "kes": 6847,
      "others": 6848,
      "inform": 6849,
      "193": 6850,
      "example": 6851,
      "AS": 6852,
      "del": 6853,
      "iver": 6854,
      "vill": 6855,
      "within": 6856,
      "ler": 6857,
      "24": 6858,
      "couldn": 6859,
      "ete": 6860,
      "including": 6861,
      "Geor": 6862,
      "Mon": 6863,
      "Dece": 6864,
      "sil": 6865,
      "beautiful": 6866,
      "begin": 6867,
      "iam": 6868,
      "sw": 6869,
      "Any": 6870,
      "depart": 6871,
      "December": 6872,
      "cies": 6873,
      "tract": 6874,
      "turned": 6875,
      "fle": 6876,
      "sister": 6877,
      "spo": 6878,
      "ief": 6879,
      "thern": 6880,
      "cient": 6881,
      "Nove": 6882,
      "prote": 6883,
      "lived": 6884,
      "wenty": 6885,
      "cou": 6886,
      "leav": 6887,
      "wants": 6888,
      "north": 6889,
      "gar": 6890,
      "sun": 6891,
      "based": 6892,
      "Tom": 6893,
      "police": 6894,
      "ctr": 6895,
      "works": 6896,
      "mun": 6897,
      "special": 6898,
      "inside": 6899,
      "Qu": 6900,
      "November": 6901,
      "third": 6902,
      "film": 6903,
      "Jack": 6904,
      "itten": 6905,
      "Mic": 6906,
      "buy": 6907,
      "50": 6908,
      "playing": 6909,
      "mess": 6910,
      "itting": 6911,
      "dle": 6912,
      "ctions": 6913,
      "ches": 6914,
      "Chris": 6915,
      "single": 6916,
      "ding": 6917,
      "past": 6918,
      "actly": 6919,
      "dear": 6920,
      "Hi": 6921,
      "sex": 6922,
      "French": 6923,
      "Ac": 6924,
      "sometimes": 6925,
      "dream": 6926,
      "bert": 6927,
      "Ed": 6928,
      "tle": 6929,
      "board": 6930,
      "aring": 6931,
      "shot": 6932,
      "built": 6933,
      "gets": 6934,
      "See": 6935,
      "ousand": 6936,
      "Dan": 6937,
      "ived": 6938,
      "mis": 6939,
      "bruary": 6940,
      "hair": 6941,
      "February": 6942,
      "raid": 6943,
      "tw": 6944,
      "2010": 6945,
      "touch": 6946,
      "ax": 6947,
      "net": 6948,
      "fish": 6949,
      "hus": 6950,
      "voice": 6951,
      "ib": 6952,
      "poor": 6953,
      "felt": 6954,
      "sou": 6955,
      "gest": 6956,
      "hell": 6957,
      "issu": 6958,
      "mur": 6959,
      "worked": 6960,
      "across": 6961,
      "dark": 6962,
      "fif": 6963,
      "cir": 6964,
      "----": 6965,
      "German": 6966,
      "outside": 6967,
      "Pl": 6968,
      "stud": 6969,
      "vir": 6970,
      "club": 6971,
      "President": 6972,
      "months": 6973,
      "mbers": 6974,
      "mand": 6975,
      "mine": 6976,
      "teen": 6977,
      "grand": 6978,
      "hours": 6979,
      "football": 6980,
      "sal": 6981,
      "sport": 6982,
      "ided": 6983,
      "profess": 6984,
      "cil": 6985,
      "ends": 6986,
      "hit": 6987,
      "among": 6988,
      "building": 6989,
      "City": 6990,
      "roy": 6991,
      "tit": 6992,
      "Like": 6993,
      "following": 6994,
      "thousand": 6995,
      "Ear": 6996,
      "joy": 6997,
      "usually": 6998,
      "drink": 6999,
      "Rus": 7000,
      "effect": 7001,
      "flo": 7002,
      "camp": 7003,
      "har": 7004,
      "From": 7005,
      "major": 7006,
      "bird": 7007,
      "vot": 7008,
      "cop": 7009,
      "till": 7010,
      "Rep": 7011,
      "Pa": 7012,
      "husband": 7013,
      "Dav": 7014,
      "morrow": 7015,
      "terri": 7016,
      "rain": 7017,
      "Take": 7018,
      "ks": 7019,
      "abo": 7020,
      "fur": 7021,
      "paren": 7022,
      "ata": 7023,
      "wed": 7024,
      "Thanks": 7025,
      "ences": 7026,
      "career": 7027,
      "history": 7028,
      "West": 7029,
      "Christ": 7030,
      "proper": 7031,
      "tried": 7032,
      "Lon": 7033,
      "Dis": 7034,
      "inc": 7035,
      "Wait": 7036,
      "claim": 7037,
      "Gen": 7038,
      "local": 7039,
      "west": 7040,
      "feet": 7041,
      "irth": 7042,
      "population": 7043,
      "Wal": 7044,
      "century": 7045,
      "covered": 7046,
      "ming": 7047,
      "complete": 7048,
      "Cent": 7049,
      "office": 7050,
      "0s": 7051,
      "mpion": 7052,
      "lands": 7053,
      "tood": 7054,
      "Lu": 7055,
      "NO": 7056,
      "particular": 7057,
      "table": 7058,
      "dom": 7059,
      "cup": 7060,
      "gold": 7061,
      "attle": 7062,
      "written": 7063,
      "inst": 7064,
      "However": 7065,
      "station": 7066,
      "gotta": 7067,
      "post": 7068,
      "check": 7069,
      "En": 7070,
      "worth": 7071,
      "concer": 7072,
      "din": 7073,
      "mi": 7074,
      "wall": 7075,
      "lives": 7076,
      "Dad": 7077,
      "ubl": 7078,
      "23": 7079,
      "action": 7080,
      "Ad": 7081,
      "adv": 7082,
      "dest": 7083,
      "iv": 7084,
      "chance": 7085,
      "ountain": 7086,
      "twenty": 7087,
      "sea": 7088,
      "fell": 7089,
      "tors": 7090,
      "ana": 7091,
      "London": 7092,
      "ES": 7093,
      "iled": 7094,
      "Peter": 7095,
      "cry": 7096,
      "Ber": 7097,
      "whether": 7098,
      "Great": 7099,
      "ior": 7100,
      "anc": 7101,
      "anyone": 7102,
      "match": 7103,
      "cold": 7104,
      "Bu": 7105,
      "Cor": 7106,
      "spir": 7107,
      "ality": 7108,
      "Cap": 7109,
      "tro": 7110,
      "zer": 7111,
      "fav": 7112,
      "answer": 7113,
      "Sy": 7114,
      "members": 7115,
      "type": 7116,
      "cum": 7117,
      "formed": 7118,
      "god": 7119,
      "worry": 7120,
      "ula": 7121,
      "Pri": 7122,
      "served": 7123,
      "general": 7124,
      "idge": 7125,
      "pot": 7126,
      "cost": 7127,
      "develop": 7128,
      "knows": 7129,
      "player": 7130,
      "pract": 7131,
      "bri": 7132,
      "easy": 7133,
      "Inter": 7134,
      "nat": 7135,
      "descri": 7136,
      "plic": 7137,
      "reen": 7138,
      "Lord": 7139,
      "boys": 7140,
      "ples": 7141,
      "bal": 7142,
      "def": 7143,
      "count": 7144,
      "flu": 7145,
      "fly": 7146,
      "mission": 7147,
      "doctor": 7148,
      "common": 7149,
      "Sir": 7150,
      "secret": 7151,
      "rote": 7152,
      "dies": 7153,
      "Ph": 7154,
      "cannot": 7155,
      "La": 7156,
      "26": 7157,
      "changed": 7158,
      "south": 7159,
      "ban": 7160,
      "Pol": 7161,
      "region": 7162,
      "write": 7163,
      "experi": 7164,
      "current": 7165,
      "27": 7166,
      "ribut": 7167,
      "AND": 7168,
      "ium": 7169,
      "seems": 7170,
      "pho": 7171,
      "ked": 7172,
      "trad": 7173,
      "irty": 7174,
      "bes": 7175,
      "process": 7176,
      "everyone": 7177,
      "appear": 7178,
      "Bill": 7179,
      "wrote": 7180,
      "lied": 7181,
      "paper": 7182,
      "England": 7183,
      "ently": 7184,
      "fill": 7185,
      "seemed": 7186,
      "28": 7187,
      "tech": 7188,
      "birth": 7189,
      "Erm": 7190,
      "Part": 7191,
      "da": 7192,
      "exactly": 7193,
      "Sam": 7194,
      "vin": 7195,
      "couple": 7196,
      "une": 7197,
      "tomorrow": 7198,
      "itions": 7199,
      "afraid": 7200,
      "fuck": 7201,
      "RO": 7202,
      "WH": 7203,
      "compet": 7204,
      "character": 7205,
      "Mc": 7206,
      "ime": 7207,
      "incre": 7208,
      "quar": 7209,
      "diffic": 7210,
      "tree": 7211,
      "Tell": 7212,
      "LA": 7213,
      "Fl": 7214,
      "mouth": 7215,
      "100": 7216,
      "sense": 7217,
      "Ital": 7218,
      "sof": 7219,
      "church": 7220,
      "unk": 7221,
      "loy": 7222,
      "Sorry": 7223,
      "invol": 7224,
      "cos": 7225,
      "mach": 7226,
      "pal": 7227,
      "ots": 7228,
      "Austral": 7229,
      "ges": 7230,
      "exc": 7231,
      "girls": 7232,
      "mes": 7233,
      "running": 7234,
      "respon": 7235,
      "Scot": 7236,
      "service": 7237,
      "ya": 7238,
      "control": 7239,
      "sn": 7240,
      "va": 7241,
      "blue": 7242,
      "lies": 7243,
      "graph": 7244,
      "luck": 7245,
      "educ": 7246,
      "longer": 7247,
      "cross": 7248,
      "author": 7249,
      "department": 7250,
      "super": 7251,
      "ible": 7252,
      "stra": 7253,
      "alright": 7254,
      "clean": 7255,
      "ounds": 7256,
      "news": 7257,
      "information": 7258,
      "Am": 7259,
      "ians": 7260,
      "shit": 7261,
      "List": 7262,
      "kids": 7263,
      "tired": 7264,
      "language": 7265,
      "appeared": 7266,
      "somebody": 7267,
      "burn": 7268,
      "conne": 7269,
      "chair": 7270,
      "Canad": 7271,
      "America": 7272,
      "period": 7273,
      "truth": 7274,
      "gas": 7275,
      "defin": 7276,
      "represent": 7277,
      "piece": 7278,
      "reco": 7279,
      "mist": 7280,
      "Mus": 7281,
      "force": 7282,
      "lin": 7283,
      "refer": 7284,
      "Two": 7285,
      "tee": 7286,
      "asure": 7287,
      "grad": 7288,
      "green": 7289,
      "ore": 7290,
      "ount": 7291,
      "shop": 7292,
      "gain": 7293,
      "supposed": 7294,
      "arri": 7295,
      "trave": 7296,
      "stat": 7297,
      "sweet": 7298,
      "School": 7299,
      "det": 7300,
      "rep": 7301,
      "kept": 7302,
      "cording": 7303,
      "ament": 7304,
      "level": 7305,
      "hurt": 7306,
      "pes": 7307,
      "Em": 7308,
      "non": 7309,
      "State": 7310,
      "Stop": 7311,
      "bank": 7312,
      "trouble": 7313,
      "uation": 7314,
      "fut": 7315,
      "prison": 7316,
      "received": 7317,
      "feat": 7318,
      "television": 7319,
      "icip": 7320,
      "tonight": 7321,
      "aint": 7322,
      "ulti": 7323,
      "ener": 7324,
      "ified": 7325,
      "created": 7326,
      "accept": 7327,
      "bye": 7328,
      "cially": 7329,
      "Afr": 7330,
      "ED": 7331,
      "ron": 7332,
      "acc": 7333,
      "space": 7334,
      "uses": 7335,
      "29": 7336,
      "GH": 7337,
      "Sup": 7338,
      "ency": 7339,
      "acy": 7340,
      "wide": 7341,
      "itary": 7342,
      "lady": 7343,
      "stri": 7344,
      "Su": 7345,
      "ae": 7346,
      "bs": 7347,
      "needs": 7348,
      "comput": 7349,
      "learn": 7350,
      "track": 7351,
      "OF": 7352,
      "aven": 7353,
      "avy": 7354,
      "spital": 7355,
      "themselves": 7356,
      "zz": 7357,
      "dden": 7358,
      "Even": 7359,
      "whatever": 7360,
      "acher": 7361,
      "chan": 7362,
      "Ca": 7363,
      "thes": 7364,
      "everybody": 7365,
      "entire": 7366,
      "San": 7367,
      "ician": 7368,
      "waiting": 7369,
      "books": 7370,
      "tries": 7371,
      "parents": 7372,
      "serious": 7373,
      "electr": 7374,
      "William": 7375,
      "mic": 7376,
      "ki": 7377,
      "Bro": 7378,
      "deep": 7379,
      "agree": 7380,
      "species": 7381,
      "perhaps": 7382,
      "eye": 7383,
      "lls": 7384,
      "cat": 7385,
      "First": 7386,
      "include": 7387,
      "ilar": 7388,
      "sudden": 7389,
      "sco": 7390,
      "village": 7391,
      "exist": 7392,
      "People": 7393,
      "creat": 7394,
      "priv": 7395,
      "rul": 7396,
      "surpr": 7397,
      "BE": 7398,
      "ky": 7399,
      "above": 7400,
      "straight": 7401,
      "House": 7402,
      "2018": 7403,
      "George": 7404,
      "rap": 7405,
      "finished": 7406,
      "reli": 7407,
      "dress": 7408,
      "sugg": 7409,
      "itive": 7410,
      "explain": 7411,
      "suggest": 7412,
      "however": 7413,
      "study": 7414,
      "ror": 7415,
      "Roman": 7416,
      "fucking": 7417,
      "2014": 7418,
      "nal": 7419,
      "Red": 7420,
      "nia": 7421,
      "president": 7422,
      "nine": 7423,
      "Che": 7424,
      "mot": 7425,
      "continu": 7426,
      "High": 7427,
      "Que": 7428,
      "due": 7429,
      "za": 7430,
      "tori": 7431,
      "ager": 7432,
      "perfect": 7433,
      "letter": 7434,
      "instead": 7435,
      "era": 7436,
      "ses": 7437,
      "forget": 7438,
      "dou": 7439,
      "ught": 7440,
      "trust": 7441,
      "bi": 7442,
      "imag": 7443,
      "fix": 7444,
      "popular": 7445,
      "hang": 7446,
      "IC": 7447,
      "Give": 7448,
      "future": 7449,
      "ention": 7450,
      "cience": 7451,
      "estern": 7452,
      "itself": 7453,
      "sus": 7454,
      "picture": 7455,
      "final": 7456,
      "carry": 7457,
      "treat": 7458,
      "jud": 7459,
      "horse": 7460,
      "lim": 7461,
      "video": 7462,
      "bers": 7463,
      "takes": 7464,
      "40": 7465,
      "send": 7466,
      "feeling": 7467,
      "hael": 7468,
      "tour": 7469,
      "respect": 7470,
      "ships": 7471,
      "master": 7472,
      "push": 7473,
      "safe": 7474,
      "flow": 7475,
      "decided": 7476,
      "David": 7477,
      "HE": 7478,
      "AL": 7479,
      "bill": 7480,
      "yle": 7481,
      "activ": 7482,
      "League": 7483,
      "problems": 7484,
      "murder": 7485,
      "court": 7486,
      "river": 7487,
      "Ale": 7488,
      "Jes": 7489,
      "rich": 7490,
      "corn": 7491,
      "Really": 7492,
      "tempt": 7493,
      "TV": 7494,
      "ka": 7495,
      "ays": 7496,
      "giving": 7497,
      "Sha": 7498,
      "tian": 7499,
      "aff": 7500,
      "appoint": 7501,
      "Mary": 7502,
      "health": 7503,
      "shoot": 7504,
      "airs": 7505,
      "bag": 7506,
      "cture": 7507,
      "depend": 7508,
      "Nothing": 7509,
      "engine": 7510,
      "ID": 7511,
      "equ": 7512,
      "Paul": 7513,
      "tar": 7514,
      "ched": 7515,
      "2011": 7516,
      "aver": 7517,
      "male": 7518,
      "lose": 7519,
      "earth": 7520,
      "catch": 7521,
      "throw": 7522,
      "herself": 7523,
      "ially": 7524,
      "recogn": 7525,
      "Fin": 7526,
      "2017": 7527,
      "telling": 7528,
      "mir": 7529,
      "Lou": 7530,
      "passed": 7531,
      "sian": 7532,
      "Park": 7533,
      "cts": 7534,
      "razy": 7535,
      "slow": 7536,
      "nin": 7537,
      "social": 7538,
      "pet": 7539,
      "host": 7540,
      "?”": 7541,
      "raft": 7542,
      "district": 7543,
      "fing": 7544,
      "placed": 7545,
      "estab": 7546,
      "ato": 7547,
      "seat": 7548,
      "Germany": 7549,
      "pati": 7550,
      "Ben": 7551,
      "memor": 7552,
      "mune": 7553,
      "nel": 7554,
      "seem": 7555,
      "ico": 7556,
      "expect": 7557,
      "mas": 7558,
      "CO": 7559,
      "anyway": 7560,
      "gentle": 7561,
      "Indian": 7562,
      "sen": 7563,
      "county": 7564,
      "James": 7565,
      "sequ": 7566,
      "ref": 7567,
      "famous": 7568,
      "except": 7569,
      "jour": 7570,
      "Mad": 7571,
      "necess": 7572,
      "viously": 7573,
      "happens": 7574,
      "wit": 7575,
      "wise": 7576,
      "bel": 7577,
      "Rich": 7578,
      "term": 7579,
      "mad": 7580,
      "spec": 7581,
      "object": 7582,
      "rog": 7583,
      "opened": 7584,
      "econ": 7585,
      "ization": 7586,
      "ife": 7587,
      "Cal": 7588,
      "bow": 7589,
      "beat": 7590,
      "figure": 7591,
      "prin": 7592,
      "ctive": 7593,
      "solute": 7594,
      "crit": 7595,
      "East": 7596,
      "invest": 7597,
      "bt": 7598,
      "2013": 7599,
      "indi": 7600,
      "middle": 7601,
      "danger": 7602,
      "El": 7603,
      "Gover": 7604,
      "weeks": 7605,
      "relation": 7606,
      "save": 7607,
      "contain": 7608,
      "original": 7609,
      "(\"": 7610,
      "forward": 7611,
      "role": 7612,
      "Hu": 7613,
      "further": 7614,
      "ington": 7615,
      "Frank": 7616,
      "evening": 7617,
      "SE": 7618,
      "ga": 7619,
      "ping": 7620,
      "General": 7621,
      "pan": 7622,
      "Med": 7623,
      "vince": 7624,
      "Sm": 7625,
      "WE": 7626,
      "meant": 7627,
      "teach": 7628,
      "ffic": 7629,
      "meeting": 7630,
      "inde": 7631,
      "funny": 7632,
      "cult": 7633,
      "standing": 7634,
      "Our": 7635,
      "Cali": 7636,
      "itted": 7637,
      "sell": 7638,
      "bear": 7639,
      "ric": 7640,
      "River": 7641,
      "ni": 7642,
      "cried": 7643,
      "bey": 7644,
      "capital": 7645,
      "games": 7646,
      "ahead": 7647,
      "market": 7648,
      "AP": 7649,
      "cool": 7650,
      "result": 7651,
      "Spe": 7652,
      "Jim": 7653,
      "moder": 7654,
      "comb": 7655,
      "political": 7656,
      "intro": 7657,
      "sick": 7658,
      "2020": 7659,
      "race": 7660,
      "During": 7661,
      "returned": 7662,
      "glad": 7663,
      "Grand": 7664,
      "natural": 7665,
      "2012": 7666,
      "2019": 7667,
      "announ": 7668,
      "ben": 7669,
      "crazy": 7670,
      "stage": 7671,
      "ffer": 7672,
      "project": 7673,
      "photo": 7674,
      "Mart": 7675,
      "tin": 7676,
      "wa": 7677,
      "fornia": 7678,
      "medi": 7679,
      "ara": 7680,
      "stick": 7681,
      "hood": 7682,
      "Hel": 7683,
      "hop": 7684,
      "loved": 7685,
      "command": 7686,
      "leaving": 7687,
      "ination": 7688,
      "hey": 7689,
      "sess": 7690,
      "2015": 7691,
      "quiet": 7692,
      "base": 7693,
      "date": 7694,
      "floor": 7695,
      "ging": 7696,
      "parts": 7697,
      "stood": 7698,
      "Michael": 7699,
      "rail": 7700,
      "AM": 7701,
      "doll": 7702,
      "2016": 7703,
      "Act": 7704,
      "riage": 7705,
      "phys": 7706,
      "viol": 7707,
      "ising": 7708,
      "pack": 7709,
      "mass": 7710,
      "California": 7711,
      "honey": 7712,
      "Sure": 7713,
      "moving": 7714,
      "ju": 7715,
      "ceed": 7716,
      "whose": 7717,
      "enter": 7718,
      "similar": 7719,
      "beginning": 7720,
      "VE": 7721,
      "whom": 7722,
      "express": 7723,
      "2008": 7724,
      "shut": 7725,
      "ability": 7726,
      "places": 7727,
      "commune": 7728,
      "enjoy": 7729,
      "fee": 7730,
      "mater": 7731,
      "hospital": 7732,
      "Black": 7733,
      "introdu": 7734,
      "Sal": 7735,
      "audi": 7736,
      "mention": 7737,
      "located": 7738,
      "dinner": 7739,
      "ba": 7740,
      "Sim": 7741,
      "rac": 7742,
      "Republ": 7743,
      "ired": 7744,
      "total": 7745,
      "mountain": 7746,
      "cks": 7747,
      "ient": 7748,
      "bon": 7749,
      "Listen": 7750,
      "UN": 7751,
      "sitting": 7752,
      "interesting": 7753,
      "separ": 7754,
      "Air": 7755,
      "drive": 7756,
      "AD": 7757,
      "ensive": 7758,
      "direct": 7759,
      "Party": 7760,
      "consider": 7761,
      "Hen": 7762,
      "allowed": 7763,
      "Mom": 7764,
      "compan": 7765,
      "load": 7766,
      "vari": 7767,
      "Val": 7768,
      "Mer": 7769,
      "decis": 7770,
      "subject": 7771,
      "cook": 7772,
      "vided": 7773,
      "wear": 7774,
      "community": 7775,
      "individ": 7776,
      "actor": 7777,
      "abor": 7778,
      "Bet": 7779,
      "reached": 7780,
      "\")": 7781,
      "India": 7782,
      "neigh": 7783,
      "published": 7784,
      "Japanese": 7785,
      "ify": 7786,
      "stone": 7787,
      "energy": 7788,
      "2007": 7789,
      "ties": 7790,
      "students": 7791,
      "brain": 7792,
      "gard": 7793,
      "AC": 7794,
      "yours": 7795,
      "countries": 7796,
      "writing": 7797,
      "research": 7798,
      "forgot": 7799,
      "Sch": 7800,
      "questions": 7801,
      "color": 7802,
      "quickly": 7803,
      "difficult": 7804,
      "oose": 7805,
      "kiss": 7806,
      "Very": 7807,
      "plant": 7808,
      "card": 7809,
      "Would": 7810,
      "rup": 7811,
      "apart": 7812,
      "umb": 7813,
      "thy": 7814,
      "GO": 7815,
      "mommy": 7816,
      "2009": 7817,
      "cam": 7818,
      "2006": 7819,
      "tic": 7820,
      "DO": 7821,
      "espe": 7822,
      "glass": 7823,
      "towards": 7824,
      "ender": 7825,
      "equal": 7826,
      "ady": 7827,
      "simple": 7828,
      "famili": 7829,
      "cul": 7830,
      "leader": 7831,
      "fellow": 7832,
      "indust": 7833,
      "ville": 7834,
      "responsi": 7835,
      "bul": 7836,
      "suppose": 7837,
      "cand": 7838,
      "destroy": 7839,
      "pected": 7840,
      "pping": 7841,
      "wild": 7842,
      "window": 7843,
      "mocr": 7844,
      "Mi": 7845,
      "fear": 7846,
      "Bel": 7847,
      "alive": 7848,
      "volution": 7849,
      "Mal": 7850,
      "ils": 7851,
      "TER": 7852,
      "uel": 7853,
      "finish": 7854,
      "followed": 7855,
      "Colle": 7856,
      "fed": 7857,
      "daddy": 7858,
      "Which": 7859,
      "Was": 7860,
      "ert": 7861,
      "teacher": 7862,
      "boat": 7863,
      "spl": 7864,
      "Only": 7865,
      "suffer": 7866,
      "190": 7867,
      "hill": 7868,
      "istr": 7869,
      "Pal": 7870,
      "arms": 7871,
      "cious": 7872,
      "Jesus": 7873,
      "Since": 7874,
      "certainly": 7875,
      "sky": 7876,
      "ded": 7877,
      "east": 7878,
      "plays": 7879,
      "Most": 7880,
      "especially": 7881,
      "experience": 7882,
      "municip": 7883,
      "mate": 7884,
      "ns": 7885,
      "caught": 7886,
      "street": 7887,
      "Ha": 7888,
      "nes": 7889,
      "rate": 7890,
      "liver": 7891,
      "belong": 7892,
      "peace": 7893,
      "fir": 7894,
      "paid": 7895,
      "needed": 7896,
      "tax": 7897,
      "fan": 7898,
      "Cour": 7899,
      "block": 7900,
      "Di": 7901,
      "miles": 7902,
      "Cup": 7903,
      "anymore": 7904,
      "Ange": 7905,
      "chief": 7906,
      "Does": 7907,
      "dig": 7908,
      "Old": 7909,
      "Jer": 7910,
      "hol": 7911,
      "Dep": 7912,
      "lying": 7913,
      "Church": 7914,
      "Its": 7915,
      "hous": 7916,
      "prove": 7917,
      "produced": 7918,
      "psy": 7919,
      "ALL": 7920,
      "icy": 7921,
      "lip": 7922,
      "ordin": 7923,
      "finally": 7924,
      "noon": 7925,
      "bour": 7926,
      "Many": 7927,
      "Captain": 7928,
      "ults": 7929,
      "situation": 7930,
      "modern": 7931,
      "logical": 7932,
      "International": 7933,
      "soft": 7934,
      "discus": 7935,
      "ensus": 7936,
      "constru": 7937,
      "hid": 7938,
      "election": 7939,
      "join": 7940,
      "hate": 7941,
      "vict": 7942,
      "anybody": 7943,
      "active": 7944,
      "bly": 7945,
      "Alex": 7946,
      "Vi": 7947,
      "joined": 7948,
      "hat": 7949,
      "influ": 7950,
      "anch": 7951,
      "tie": 7952,
      "Mor": 7953,
      "terms": 7954,
      "decl": 7955,
      "largest": 7956,
      "Other": 7957,
      "military": 7958,
      "upid": 7959,
      "AY": 7960,
      "Um": 7961,
      "stopped": 7962,
      "exper": 7963,
      "swi": 7964,
      "stor": 7965,
      "strange": 7966,
      "suit": 7967,
      "version": 7968,
      "60": 7969,
      "neg": 7970,
      "although": 7971,
      "ably": 7972,
      "various": 7973,
      "broad": 7974,
      "burg": 7975,
      "gress": 7976,
      "bridge": 7977,
      "aha": 7978,
      "ena": 7979,
      "Res": 7980,
      "iment": 7981,
      "fool": 7982,
      "Roy": 7983,
      "drug": 7984,
      "seeing": 7985,
      "writer": 7986,
      "bra": 7987,
      "earli": 7988,
      "value": 7989,
      "fit": 7990,
      "dance": 7991,
      "professional": 7992,
      "Des": 7993,
      "ston": 7994,
      "animals": 7995,
      "apo": 7996,
      "agon": 7997,
      "Minister": 7998,
      "egg": 7999,
      "shows": 8000,
      "vidence": 8001,
      "hum": 8002,
      "Mark": 8003,
      "stairs": 8004,
      "European": 8005,
      "boo": 8006,
      "politician": 8007,
      "points": 8008,
      ".,": 8009,
      "involved": 8010,
      "BC": 8011,
      "stant": 8012,
      "Gree": 8013,
      "sour": 8014,
      "island": 8015,
      "bell": 8016,
      "iling": 8017,
      "charge": 8018,
      "size": 8019,
      "hung": 8020,
      "ids": 8021,
      "occur": 8022,
      "amount": 8023,
      "Tur": 8024,
      "los": 8025,
      "bud": 8026,
      "favor": 8027,
      "summer": 8028,
      "itional": 8029,
      "Champion": 8030,
      "multi": 8031,
      "leng": 8032,
      "spent": 8033,
      "answered": 8034,
      "Exc": 8035,
      "dio": 8036,
      "bought": 8037,
      "function": 8038,
      "astern": 8039,
      "vic": 8040,
      "ption": 8041,
      "asking": 8042,
      "lia": 8043,
      "attempt": 8044,
      "Tim": 8045,
      "nie": 8046,
      "vice": 8047,
      "sight": 8048,
      "coll": 8049,
      "development": 8050,
      "cing": 8051,
      "broke": 8052,
      "text": 8053,
      "sele": 8054,
      "Thom": 8055,
      "personal": 8056,
      "wer": 8057,
      "Never": 8058,
      "path": 8059,
      "ull": 8060,
      "gri": 8061,
      "2000": 8062,
      "comfort": 8063,
      "Cr": 8064,
      "immedi": 8065,
      "graphy": 8066,
      "considered": 8067,
      "title": 8068,
      "print": 8069,
      "note": 8070,
      "!”": 8071,
      "Ken": 8072,
      "gives": 8073,
      "erson": 8074,
      "Got": 8075,
      "recent": 8076,
      "solutely": 8077,
      "rough": 8078,
      "Vir": 8079,
      "RI": 8080,
      "Sen": 8081,
      ".'": 8082,
      "kno": 8083,
      "fund": 8084,
      "nder": 8085,
      "els": 8086,
      "Earth": 8087,
      "closed": 8088,
      "somewhere": 8089,
      "lam": 8090,
      "Excuse": 8091,
      "Cam": 8092,
      "smo": 8093,
      "iers": 8094,
      "ument": 8095,
      "nature": 8096,
      "director": 8097,
      "continued": 8098,
      "Bur": 8099,
      "lli": 8100,
      "park": 8101,
      "imp": 8102,
      "illy": 8103,
      "added": 8104,
      "grew": 8105,
      "lines": 8106,
      "Council": 8107,
      "ome": 8108,
      "Chin": 8109,
      "ker": 8110,
      "Ter": 8111,
      "ura": 8112,
      "radio": 8113,
      "data": 8114,
      "stitution": 8115,
      "numbers": 8116,
      "heavy": 8117,
      "regular": 8118,
      "thanks": 8119,
      "broken": 8120,
      "gor": 8121,
      "ledge": 8122,
      "Cong": 8123,
      "wash": 8124,
      "founded": 8125,
      "clothes": 8126,
      "Little": 8127,
      "Mil": 8128,
      "cape": 8129,
      "computer": 8130,
      "names": 8131,
      "included": 8132,
      "Gl": 8133,
      "grou": 8134,
      "Father": 8135,
      "store": 8136,
      "stars": 8137,
      "Three": 8138,
      "reed": 8139,
      "Paris": 8140,
      "Pat": 8141,
      "army": 8142,
      "Robert": 8143,
      "mix": 8144,
      "areas": 8145,
      "private": 8146,
      "lower": 8147,
      "rat": 8148,
      "spirit": 8149,
      "Joe": 8150,
      "trees": 8151,
      "completely": 8152,
      "scient": 8153,
      "ald": 8154,
      "length": 8155,
      "ov": 8156,
      "White": 8157,
      "nearly": 8158,
      "stupid": 8159,
      "Ok": 8160,
      "Wash": 8161,
      "education": 8162,
      "Mag": 8163,
      "lymp": 8164,
      "Mex": 8165,
      "forest": 8166,
      "meaning": 8167,
      "....": 8168,
      "directed": 8169,
      "curity": 8170,
      "clock": 8171,
      "weight": 8172,
      "avail": 8173,
      "college": 8174,
      "Up": 8175,
      "bles": 8176,
      "forms": 8177,
      "rect": 8178,
      "Street": 8179,
      "Christian": 8180,
      "rian": 8181,
      "roll": 8182,
      "aker": 8183,
      "doubt": 8184,
      "hun": 8185,
      "share": 8186,
      "damn": 8187,
      "indeed": 8188,
      "normal": 8189,
      "Dam": 8190,
      "189": 8191,
      "yer": 8192,
      "istic": 8193,
      "Mac": 8194,
      "accident": 8195,
      "Green": 8196,
      "itor": 8197,
      "pic": 8198,
      "terday": 8199,
      "Pre": 8200,
      "viron": 8201,
      "Queen": 8202,
      "fol": 8203,
      "liter": 8204,
      "caused": 8205,
      "lished": 8206,
      "speed": 8207,
      "Australia": 8208,
      "ram": 8209,
      "bound": 8210,
      "sand": 8211,
      "offee": 8212,
      "Union": 8213,
      "atives": 8214,
      "Ham": 8215,
      "pat": 8216,
      "warm": 8217,
      "award": 8218,
      "difference": 8219,
      "LI": 8220,
      "simply": 8221,
      "evidence": 8222,
      "temper": 8223,
      "hero": 8224,
      "cro": 8225,
      "ference": 8226,
      "ites": 8227,
      "independ": 8228,
      "iced": 8229,
      "THAT": 8230,
      "sad": 8231,
      "Ra": 8232,
      "China": 8233,
      "thirty": 8234,
      "sounds": 8235,
      "coach": 8236,
      "Bob": 8237,
      "associ": 8238,
      "suddenly": 8239,
      "Vic": 8240,
      "thod": 8241,
      "2005": 8242,
      "approach": 8243,
      "While": 8244,
      "irt": 8245,
      "raised": 8246,
      "attention": 8247,
      "pray": 8248,
      "Du": 8249,
      "ecut": 8250,
      "issue": 8251,
      "reading": 8252,
      "thus": 8253,
      "blow": 8254,
      "fat": 8255,
      "asing": 8256,
      "College": 8257,
      "xim": 8258,
      "ential": 8259,
      "bility": 8260,
      "rights": 8261,
      "nobody": 8262,
      "percent": 8263,
      "watching": 8264,
      "wonderful": 8265,
      "quired": 8266,
      "Olymp": 8267,
      "Ill": 8268,
      "LO": 8269,
      "talked": 8270,
      "science": 8271,
      "fresh": 8272,
      "Port": 8273,
      "ift": 8274,
      "Richard": 8275,
      "sme": 8276,
      "groups": 8277,
      "vert": 8278,
      "gro": 8279,
      "antic": 8280,
      "battle": 8281,
      "arrest": 8282,
      "init": 8283,
      "prep": 8284,
      "iction": 8285,
      "extra": 8286,
      "Charles": 8287,
      "phy": 8288,
      "Mother": 8289,
      "lf": 8290,
      "tea": 8291,
      "promise": 8292,
      "plus": 8293,
      "Mid": 8294,
      "pull": 8295,
      "square": 8296,
      "GE": 8297,
      "ari": 8298,
      "econom": 8299,
      "forman": 8300,
      "iff": 8301,
      "ously": 8302,
      "assist": 8303,
      "Rob": 8304,
      "marry": 8305,
      "threat": 8306,
      "tick": 8307,
      "iday": 8308,
      "stren": 8309,
      "announced": 8310,
      "interested": 8311,
      "helped": 8312,
      "bled": 8313,
      "visit": 8314,
      "fifty": 8315,
      "ease": 8316,
      "shouldn": 8317,
      "Put": 8318,
      "calling": 8319,
      "regard": 8320,
      "31": 8321,
      "ises": 8322,
      "production": 8323,
      "Washington": 8324,
      "Big": 8325,
      "bath": 8326,
      "anti": 8327,
      "Henry": 8328,
      "mat": 8329,
      "SO": 8330,
      "bottom": 8331,
      "Mu": 8332,
      "gion": 8333,
      "afternoon": 8334,
      "hall": 8335,
      "History": 8336,
      "training": 8337,
      "Sar": 8338,
      "Louis": 8339,
      "Str": 8340,
      "omen": 8341,
      "spot": 8342,
      "gle": 8343,
      "ministr": 8344,
      "lic": 8345,
      "uce": 8346,
      "80": 8347,
      "Over": 8348,
      "style": 8349,
      "opport": 8350,
      "likely": 8351,
      "plane": 8352,
      "showed": 8353,
      "snow": 8354,
      "model": 8355,
      "uni": 8356,
      "higher": 8357,
      "()": 8358,
      "mov": 8359,
      "astic": 8360,
      "orders": 8361,
      "pig": 8362,
      "ours": 8363,
      "weap": 8364,
      "feed": 8365,
      "cred": 8366,
      "loss": 8367,
      "2004": 8368,
      "Before": 8369,
      "ida": 8370,
      "choice": 8371,
      "useum": 8372,
      "iel": 8373,
      "protect": 8374,
      "marriage": 8375,
      "shire": 8376,
      "opportun": 8377,
      "below": 8378,
      "yellow": 8379,
      "nation": 8380,
      "onto": 8381,
      "changes": 8382,
      "streng": 8383,
      "detail": 8384,
      "careful": 8385,
      "Christmas": 8386,
      "Sat": 8387,
      "apped": 8388,
      "istics": 8389,
      "anal": 8390,
      "Canada": 8391,
      "ops": 8392,
      "manage": 8393,
      "bright": 8394,
      "inte": 8395,
      "habit": 8396,
      "itely": 8397,
      "site": 8398,
      "contract": 8399,
      "tur": 8400,
      "vironment": 8401,
      "Their": 8402,
      "developed": 8403,
      "ators": 8404,
      "ration": 8405,
      "LD": 8406,
      "happening": 8407,
      "Phi": 8408,
      "Love": 8409,
      "Law": 8410,
      "pounds": 8411,
      "states": 8412,
      "Tex": 8413,
      "abs": 8414,
      "lets": 8415,
      "Bye": 8416,
      "account": 8417,
      "dut": 8418,
      "Au": 8419,
      "Out": 8420,
      "yn": 8421,
      "nut": 8422,
      "page": 8423,
      "More": 8424,
      "necessary": 8425,
      "crow": 8426,
      "epis": 8427,
      "Chinese": 8428,
      "weren": 8429,
      "District": 8430,
      "aves": 8431,
      "offer": 8432,
      "speaking": 8433,
      "rout": 8434,
      "usion": 8435,
      "available": 8436,
      "FF": 8437,
      "icle": 8438,
      "Master": 8439,
      "ride": 8440,
      "ano": 8441,
      "starting": 8442,
      "soul": 8443,
      "About": 8444,
      "Club": 8445,
      "cases": 8446,
      "rub": 8447,
      "ables": 8448,
      "kin": 8449,
      "amaz": 8450,
      "lla": 8451,
      "putting": 8452,
      "carried": 8453,
      "condu": 8454,
      "Hold": 8455,
      "inn": 8456,
      "usual": 8457,
      "nose": 8458,
      "access": 8459,
      "Sum": 8460,
      "aste": 8461,
      "center": 8462,
      "Those": 8463,
      "demand": 8464,
      "established": 8465,
      "milk": 8466,
      "machine": 8467,
      "wing": 8468,
      "Anne": 8469,
      "Italian": 8470,
      "NA": 8471,
      "legal": 8472,
      "ilities": 8473,
      "Hill": 8474,
      "ERE": 8475,
      "Gold": 8476,
      "lovely": 8477,
      "KE": 8478,
      "Ver": 8479,
      "stories": 8480,
      "Penn": 8481,
      "coffee": 8482,
      "faith": 8483,
      "Could": 8484,
      "apers": 8485,
      "ension": 8486,
      "Africa": 8487,
      "none": 8488,
      "rie": 8489,
      "moon": 8490,
      "liked": 8491,
      "birthday": 8492,
      "Sing": 8493,
      "drop": 8494,
      "Span": 8495,
      "spoke": 8496,
      "create": 8497,
      "earlier": 8498,
      "worse": 8499,
      "skin": 8500,
      "Fer": 8501,
      "elected": 8502,
      "census": 8503,
      "lif": 8504,
      "Army": 8505,
      "ote": 8506,
      "Prince": 8507,
      "Russian": 8508,
      "average": 8509,
      "huge": 8510,
      "society": 8511,
      "pi": 8512,
      "neck": 8513,
      "Wil": 8514,
      "yo": 8515,
      "cket": 8516,
      "address": 8517,
      "yesterday": 8518,
      "esh": 8519,
      "busy": 8520,
      "Jose": 8521,
      "successful": 8522,
      "decision": 8523,
      "MAN": 8524,
      "thro": 8525,
      "movement": 8526,
      "craft": 8527,
      "Ze": 8528,
      "arg": 8529,
      "owned": 8530,
      "message": 8531,
      "knowledge": 8532,
      "Saint": 8533,
      "schools": 8534,
      "tail": 8535,
      "berg": 8536,
      "songs": 8537,
      "learned": 8538,
      "performan": 8539,
      "international": 8540,
      "2001": 8541,
      "distance": 8542,
      "specific": 8543,
      "cele": 8544,
      "section": 8545,
      "bing": 8546,
      "vor": 8547,
      "princi": 8548,
      "dry": 8549,
      "cit": 8550,
      "welve": 8551,
      "Ru": 8552,
      "via": 8553,
      "spend": 8554,
      "commit": 8555,
      "docum": 8556,
      "Hur": 8557,
      "official": 8558,
      "itude": 8559,
      "movies": 8560,
      "pical": 8561,
      "method": 8562,
      "tran": 8563,
      "35": 8564,
      "leaves": 8565,
      "fant": 8566,
      "CE": 8567,
      "celebr": 8568,
      "Hall": 8569,
      "garden": 8570,
      "tion": 8571,
      "ials": 8572,
      "Scott": 8573,
      "repe": 8574,
      "edge": 8575,
      "rule": 8576,
      "eating": 8577,
      "legs": 8578,
      "investig": 8579,
      "phe": 8580,
      "Virgin": 8581,
      "singer": 8582,
      "Prof": 8583,
      "honest": 8584,
      "liament": 8585,
      "ider": 8586,
      "formula": 8587,
      "corner": 8588,
      "gree": 8589,
      "Bal": 8590,
      "ona": 8591,
      "chick": 8592,
      "Fred": 8593,
      "Say": 8594,
      "scri": 8595,
      "Mat": 8596,
      "guard": 8597,
      "70": 8598,
      "ko": 8599,
      "han": 8600,
      "municipality": 8601,
      "Sou": 8602,
      "terrible": 8603,
      "Super": 8604,
      "Award": 8605,
      "HO": 8606,
      "Kore": 8607,
      "rey": 8608,
      "relationship": 8609,
      "kn": 8610,
      "appointed": 8611,
      "mhm": 8612,
      "events": 8613,
      "Ano": 8614,
      "Sund": 8615,
      "bling": 8616,
      "flowers": 8617,
      "Wow": 8618,
      "tall": 8619,
      "utter": 8620,
      "Everything": 8621,
      "ech": 8622,
      "birds": 8623,
      "fault": 8624,
      "signed": 8625,
      "goal": 8626,
      "welcome": 8627,
      "spring": 8628,
      "cow": 8629,
      "Keep": 8630,
      "arrow": 8631,
      "claimed": 8632,
      "therefore": 8633,
      "ander": 8634,
      "Day": 8635,
      "glo": 8636,
      "Ele": 8637,
      "Once": 8638,
      "jump": 8639,
      "occas": 8640,
      "ev": 8641,
      "186": 8642,
      "trade": 8643,
      "cked": 8644,
      "animal": 8645,
      "Chic": 8646,
      "extre": 8647,
      "asket": 8648,
      "sch": 8649,
      "impress": 8650,
      "Democr": 8651,
      "fail": 8652,
      "pieces": 8653,
      "illa": 8654,
      "range": 8655,
      "aign": 8656,
      "pair": 8657,
      "contact": 8658,
      "Thomas": 8659,
      "aware": 8660,
      "2021": 8661,
      "Island": 8662,
      "ado": 8663,
      "fortun": 8664,
      "itar": 8665,
      "2003": 8666,
      "satis": 8667,
      "istan": 8668,
      "holding": 8669,
      "tho": 8670,
      "rose": 8671,
      "hole": 8672,
      "respond": 8673,
      "older": 8674,
      "nur": 8675,
      "immediately": 8676,
      "theory": 8677,
      "mostly": 8678,
      "champion": 8679,
      "2002": 8680,
      "scared": 8681,
      "NE": 8682,
      "sens": 8683,
      "iron": 8684,
      "erve": 8685,
      "scene": 8686,
      "gradu": 8687,
      "farm": 8688,
      "lvan": 8689,
      "inj": 8690,
      "Republic": 8691,
      "45": 8692,
      "Texas": 8693,
      "lor": 8694,
      "avo": 8695,
      "frog": 8696,
      "services": 8697,
      "Brown": 8698,
      "western": 8699,
      "Mhm": 8700,
      "truck": 8701,
      "pun": 8702,
      "sey": 8703,
      "related": 8704,
      "Another": 8705,
      "arent": 8706,
      "central": 8707,
      "ria": 8708,
      "ideas": 8709,
      "distribut": 8710,
      "Cath": 8711,
      "discovered": 8712,
      "fighting": 8713,
      "Bab": 8714,
      "lots": 8715,
      "link": 8716,
      "Court": 8717,
      "Im": 8718,
      "cab": 8719,
      "Chicago": 8720,
      "believed": 8721,
      "Doctor": 8722,
      "Wel": 8723,
      "stitute": 8724,
      "nu": 8725,
      "deter": 8726,
      "Ap": 8727,
      "mum": 8728,
      "individual": 8729,
      "emer": 8730,
      "Sun": 8731,
      "benef": 8732,
      "atory": 8733,
      "According": 8734,
      "serve": 8735,
      "weak": 8736,
      "Ba": 8737,
      "fourth": 8738,
      "purpose": 8739,
      "inct": 8740,
      "continue": 8741,
      "bio": 8742,
      "sac": 8743,
      "coast": 8744,
      "Royal": 8745,
      "BO": 8746,
      "Spanish": 8747,
      "Swed": 8748,
      "houses": 8749,
      "vey": 8750,
      "price": 8751,
      "cher": 8752,
      "rot": 8753,
      "lvania": 8754,
      "Del": 8755,
      "Carol": 8756,
      "beyond": 8757,
      "nic": 8758,
      "onel": 8759,
      "officer": 8760,
      "arrived": 8761,
      "kick": 8762,
      "oil": 8763,
      "sym": 8764,
      "crime": 8765,
      "aries": 8766,
      "2022": 8767,
      "Music": 8768,
      "asant": 8769,
      "Hon": 8770,
      "Martin": 8771,
      "beg": 8772,
      "walking": 8773,
      "communic": 8774,
      "Tor": 8775,
      "imagine": 8776,
      "sia": 8777,
      "execut": 8778,
      "IR": 8779,
      "double": 8780,
      ";&": 8781,
      "leep": 8782,
      "een": 8783,
      "environment": 8784,
      "Foot": 8785,
      "cean": 8786,
      "arts": 8787,
      "practice": 8788,
      "phi": 8789,
      "bomb": 8790,
      "500": 8791,
      "Braz": 8792,
      "material": 8793,
      "comed": 8794,
      "conscious": 8795,
      "whis": 8796,
      "positive": 8797,
      "utch": 8798,
      "sett": 8799,
      "ita": 8800,
      "walked": 8801,
      "hors": 8802,
      "forces": 8803,
      "female": 8804,
      "notice": 8805,
      "ners": 8806,
      "lights": 8807,
      "nology": 8808,
      "release": 8809,
      "188": 8810,
      "ification": 8811,
      "Mill": 8812,
      "mary": 8813,
      "Lee": 8814,
      "boss": 8815,
      "Dar": 8816,
      "chall": 8817,
      "Lat": 8818,
      "opin": 8819,
      "described": 8820,
      "Mont": 8821,
      "stream": 8822,
      "leading": 8823,
      "tu": 8824,
      "review": 8825,
      "ji": 8826,
      "brown": 8827,
      "medic": 8828,
      "pow": 8829,
      "enced": 8830,
      "Eli": 8831,
      "Far": 8832,
      "lift": 8833,
      "Four": 8834,
      "tells": 8835,
      "according": 8836,
      "Kingdom": 8837,
      "acqu": 8838,
      "odd": 8839,
      "cars": 8840,
      "settle": 8841,
      "uit": 8842,
      "gather": 8843,
      "wedding": 8844,
      "90": 8845,
      "Sil": 8846,
      "forced": 8847,
      "trick": 8848,
      "ives": 8849,
      "slight": 8850,
      "code": 8851,
      "direction": 8852,
      "Pennsy": 8853,
      "alo": 8854,
      "recorded": 8855,
      "discuss": 8856,
      "occup": 8857,
      "shown": 8858,
      "filled": 8859,
      "replied": 8860,
      "spread": 8861,
      "minister": 8862,
      "achie": 8863,
      "frequ": 8864,
      "rules": 8865,
      "Sa": 8866,
      "Although": 8867,
      "VER": 8868,
      "rob": 8869,
      "Bas": 8870,
      "Smith": 8871,
      "thin": 8872,
      "twice": 8873,
      "particip": 8874,
      "possess": 8875,
      "surface": 8876,
      "uk": 8877,
      "Bay": 8878,
      "pictures": 8879,
      "Ir": 8880,
      "hide": 8881,
      "Ooh": 8882,
      "crimin": 8883,
      "strength": 8884,
      "condition": 8885,
      "Pennsylvania": 8886,
      "Atl": 8887,
      "ota": 8888,
      "vote": 8889,
      "letters": 8890,
      "partner": 8891,
      "enemy": 8892,
      "ius": 8893,
      "Something": 8894,
      "Huh": 8895,
      "ero": 8896,
      "scar": 8897,
      "Italy": 8898,
      "UT": 8899,
      "launch": 8900,
      "Open": 8901,
      "aled": 8902,
      "angry": 8903,
      "Young": 8904,
      "histor": 8905,
      "pressure": 8906,
      "Today": 8907,
      "ival": 8908,
      "calls": 8909,
      "Perhaps": 8910,
      "missing": 8911,
      "PE": 8912,
      "urs": 8913,
      "Franc": 8914,
      "guest": 8915,
      "Bre": 8916,
      "dangerous": 8917,
      "WI": 8918,
      "missed": 8919,
      "twelve": 8920,
      "itchen": 8921,
      "Met": 8922,
      "degree": 8923,
      "Ray": 8924,
      "entered": 8925,
      "Sovi": 8926,
      "screen": 8927,
      "Hal": 8928,
      "cities": 8929,
      "bread": 8930,
      "staff": 8931,
      "security": 8932,
      "Phil": 8933,
      "employ": 8934,
      "Men": 8935,
      "Under": 8936,
      "shad": 8937,
      "acting": 8938,
      "soldiers": 8939,
      "loso": 8940,
      "correct": 8941,
      "preci": 8942,
      "asy": 8943,
      "rial": 8944,
      "ini": 8945,
      "systems": 8946,
      "lucky": 8947,
      "shar": 8948,
      "eds": 8949,
      "Town": 8950,
      "honor": 8951,
      "debut": 8952,
      "pool": 8953,
      "Secret": 8954,
      "Sometimes": 8955,
      "Profess": 8956,
      "Life": 8957,
      "campaign": 8958,
      "Cle": 8959,
      "easily": 8960,
      "student": 8961,
      "newsp": 8962,
      "memory": 8963,
      "Kar": 8964,
      "beha": 8965,
      "unless": 8966,
      "lan": 8967,
      "poet": 8968,
      "Fine": 8969,
      "Sand": 8970,
      "angle": 8971,
      "survi": 8972,
      "ox": 8973,
      "lunch": 8974,
      "ancient": 8975,
      "extreme": 8976,
      "rush": 8977,
      "Rock": 8978,
      "aps": 8979,
      "km": 8980,
      "absolutely": 8981,
      "raise": 8982,
      "electric": 8983,
      "HA": 8984,
      "ode": 8985,
      "ademy": 8986,
      "players": 8987,
      "Associ": 8988,
      "Den": 8989,
      "zen": 8990,
      "Chief": 8991,
      "itation": 8992,
      "IM": 8993,
      "thinks": 8994,
      "flat": 8995,
      "youth": 8996,
      "Time": 8997,
      "forth": 8998,
      "Ko": 8999,
      "property": 9000,
      "dropped": 9001,
      "disease": 9002,
      "Stu": 9003,
      "hasn": 9004,
      "Ty": 9005,
      "quarter": 9006,
      "winter": 9007,
      "Son": 9008,
      "painting": 9009,
      "indic": 9010,
      "Comp": 9011,
      "signific": 9012,
      "captain": 9013,
      "Star": 9014,
      "Gar": 9015,
      "bac": 9016,
      "solution": 9017,
      "Ce": 9018,
      "ja": 9019,
      "Mur": 9020,
      "inno": 9021,
      "1999": 9022,
      "zed": 9023,
      "Art": 9024,
      "choose": 9025,
      "anywhere": 9026,
      "ordered": 9027,
      "GHT": 9028,
      "gal": 9029,
      "bother": 9030,
      "teams": 9031,
      "dar": 9032,
      "dollars": 9033,
      "proud": 9034,
      "heads": 9035,
      "mistake": 9036,
      "Nice": 9037,
      "throughout": 9038,
      "ashion": 9039,
      "capt": 9040,
      "Wood": 9041,
      "Flor": 9042,
      "laid": 9043,
      "Alright": 9044,
      "Play": 9045,
      "ais": 9046,
      "iles": 9047,
      "patient": 9048,
      "Best": 9049,
      "kne": 9050,
      "Shut": 9051,
      "taught": 9052,
      "victim": 9053,
      "families": 9054,
      "growing": 9055,
      "cancer": 9056,
      "minated": 9057,
      "forty": 9058,
      "187": 9059,
      "copy": 9060,
      "aine": 9061,
      "shoes": 9062,
      "lord": 9063,
      "Tal": 9064,
      "temp": 9065,
      "Pan": 9066,
      "cream": 9067,
      "finger": 9068,
      "gate": 9069,
      "ively": 9070,
      "convers": 9071,
      "surround": 9072,
      "includes": 9073,
      "Central": 9074,
      "liber": 9075,
      "36": 9076,
      "wick": 9077,
      "vere": 9078,
      "FA": 9079,
      "agreed": 9080,
      "Both": 9081,
      "heat": 9082,
      "corpor": 9083,
      "magaz": 9084,
      "bigger": 9085,
      "opening": 9086,
      "idi": 9087,
      "Prin": 9088,
      "jack": 9089,
      "cise": 9090,
      "firm": 9091,
      "mentioned": 9092,
      "ulations": 9093,
      "minus": 9094,
      "highest": 9095,
      "weather": 9096,
      "obviously": 9097,
      "III": 9098,
      "Soviet": 9099,
      "administr": 9100,
      "shout": 9101,
      "fi": 9102,
      "aret": 9103,
      "policy": 9104,
      "bid": 9105,
      "issues": 9106,
      "Call": 9107,
      "kitchen": 9108,
      "surprise": 9109,
      "Long": 9110,
      "prevent": 9111,
      "vels": 9112,
      "Pet": 9113,
      "types": 9114,
      "opportunity": 9115,
      "eventually": 9116,
      "counter": 9117,
      "medical": 9118,
      "Adam": 9119,
      "hello": 9120,
      "impossible": 9121,
      "Tri": 9122,
      "nest": 9123,
      "rank": 9124,
      "province": 9125,
      "affe": 9126,
      "Hy": 9127,
      "eli": 9128,
      "currently": 9129,
      "Egy": 9130,
      "Road": 9131,
      "manager": 9132,
      "studied": 9133,
      "Gi": 9134,
      "oom": 9135,
      "idence": 9136,
      "Cathol": 9137,
      "climb": 9138,
      "MO": 9139,
      "Francis": 9140,
      "thou": 9141,
      "evil": 9142,
      "focus": 9143,
      "yard": 9144,
      "aur": 9145,
      "Greek": 9146,
      "grave": 9147,
      "escape": 9148,
      "remained": 9149,
      "scream": 9150,
      "particularly": 9151,
      "crew": 9152,
      "determin": 9153,
      "Sto": 9154,
      "steps": 9155,
      "tape": 9156,
      "driving": 9157,
      "mere": 9158,
      "breath": 9159,
      "worried": 9160,
      "CK": 9161,
      "Women": 9162,
      "Mel": 9163,
      "Girl": 9164,
      "pred": 9165,
      "chi": 9166,
      "brothers": 9167,
      "plants": 9168,
      "AB": 9169,
      "pleasure": 9170,
      "anta": 9171,
      "promot": 9172,
      "picked": 9173,
      "concl": 9174,
      "becomes": 9175,
      "prince": 9176,
      "studio": 9177,
      "ained": 9178,
      "definitely": 9179,
      "results": 9180,
      "smaller": 9181,
      "expected": 9182,
      "amazing": 9183,
      "runs": 9184,
      "Has": 9185,
      "unders": 9186,
      "explo": 9187,
      "slowly": 9188,
      "Rad": 9189,
      "estival": 9190,
      "structure": 9191,
      "Show": 9192,
      "sides": 9193,
      "jest": 9194,
      "metal": 9195,
      "reve": 9196,
      "wearing": 9197,
      "concept": 9198,
      "provide": 9199,
      "operation": 9200,
      "crack": 9201,
      "Fuck": 9202,
      "competition": 9203,
      "37": 9204,
      "actress": 9205,
      "bits": 9206,
      "tot": 9207,
      "blind": 9208,
      "tellig": 9209,
      "gency": 9210,
      "Congress": 9211,
      "horses": 9212,
      "Jane": 9213,
      "Dou": 9214,
      "actions": 9215,
      "designed": 9216,
      "shape": 9217,
      "Lady": 9218,
      "brary": 9219,
      "generally": 9220,
      "demon": 9221,
      "Reg": 9222,
      "Emp": 9223,
      "smile": 9224,
      "travel": 9225,
      "mode": 9226,
      "maid": 9227,
      "performance": 9228,
      "FOR": 9229,
      "interview": 9230,
      "Fed": 9231,
      "fashion": 9232,
      "silver": 9233,
      "saved": 9234,
      "plans": 9235,
      "1998": 9236,
      "aling": 9237,
      "icans": 9238,
      "pill": 9239,
      "1996": 9240,
      "dim": 9241,
      "trip": 9242,
      "grown": 9243,
      "toward": 9244,
      "ada": 9245,
      "tight": 9246,
      "omy": 9247,
      "eld": 9248,
      "iana": 9249,
      "stro": 9250,
      "py": 9251,
      "DE": 9252,
      "verse": 9253,
      "Uncle": 9254,
      "ante": 9255,
      "centre": 9256,
      "heaven": 9257,
      "artist": 9258,
      "Western": 9259,
      "'.": 9260,
      "bury": 9261,
      "--------": 9262,
      "ordinary": 9263,
      "African": 9264,
      "grass": 9265,
      "Virginia": 9266,
      "breakfast": 9267,
      "dish": 9268,
      "brand": 9269,
      "hurry": 9270,
      "pup": 9271,
      "coat": 9272,
      "ases": 9273,
      "hungry": 9274,
      "Dor": 9275,
      "consist": 9276,
      "drew": 9277,
      "risk": 9278,
      "34": 9279,
      "university": 9280,
      "smart": 9281,
      "addition": 9282,
      "kinds": 9283,
      "gious": 9284,
      "brief": 9285,
      "witness": 9286,
      "likes": 9287,
      "reported": 9288,
      "Help": 9289,
      "learning": 9290,
      "ONE": 9291,
      "source": 9292,
      "basket": 9293,
      "strug": 9294,
      "larger": 9295,
      "izing": 9296,
      "courage": 9297,
      "companies": 9298,
      "planet": 9299,
      "remark": 9300,
      "ades": 9301,
      "Sunday": 9302,
      "CA": 9303,
      "empty": 9304,
      "dare": 9305,
      "sports": 9306,
      "Brother": 9307,
      "Cy": 9308,
      "fra": 9309,
      "keeping": 9310,
      "Kim": 9311,
      "willing": 9312,
      "ansas": 9313,
      "Fox": 9314,
      "ancing": 9315,
      "Government": 9316,
      "amed": 9317,
      "singing": 9318,
      "Canadian": 9319,
      "industry": 9320,
      "citiz": 9321,
      "emot": 9322,
      "quality": 9323,
      "stuck": 9324,
      "Boy": 9325,
      "LY": 9326,
      "starts": 9327,
      "sam": 9328,
      "culture": 9329,
      "Los": 9330,
      "conditions": 9331,
      "Governor": 9332,
      "Ire": 9333,
      "laughing": 9334,
      "produce": 9335,
      "thick": 9336,
      "Off": 9337,
      "requ": 9338,
      "ining": 9339,
      "01": 9340,
      "deliver": 9341,
      "applic": 9342,
      "perform": 9343,
      "bless": 9344,
      "Rose": 9345,
      "Sus": 9346,
      "powerful": 9347,
      "Isn": 9348,
      "responsible": 9349,
      "Na": 9350,
      "tric": 9351,
      "Academy": 9352,
      "Land": 9353,
      "wound": 9354,
      "Stan": 9355,
      "athe": 9356,
      "refle": 9357,
      "Mexico": 9358,
      "greater": 9359,
      "Next": 9360,
      "Ram": 9361,
      "dogs": 9362,
      "Dick": 9363,
      "mob": 9364,
      "Bud": 9365,
      "ulous": 9366,
      "greatest": 9367,
      "ray": 9368,
      "symp": 9369,
      "peror": 9370,
      "Joseph": 9371,
      "storm": 9372,
      "Make": 9373,
      "divided": 9374,
      "foreign": 9375,
      "UK": 9376,
      "features": 9377,
      "Cur": 9378,
      "advant": 9379,
      "Turn": 9380,
      "standard": 9381,
      "judge": 9382,
      "tray": 9383,
      "Nobody": 9384,
      "fright": 9385,
      "Major": 9386,
      "lack": 9387,
      "negative": 9388,
      "instr": 9389,
      "igned": 9390,
      "speech": 9391,
      "ski": 9392,
      "Australian": 9393,
      "Back": 9394,
      "pite": 9395,
      "38": 9396,
      "wealth": 9397,
      "beth": 9398,
      "originally": 9399,
      "wis": 9400,
      "tool": 9401,
      "wine": 9402,
      "content": 9403,
      "eh": 9404,
      "provid": 9405,
      "estim": 9406,
      "oppos": 9407,
      "contribut": 9408,
      "antly": 9409,
      "hotel": 9410,
      "NOW": 9411,
      "Arab": 9412,
      "construction": 9413,
      "handle": 9414,
      "retired": 9415,
      "media": 9416,
      "rig": 9417,
      "gay": 9418,
      "performed": 9419,
      "duty": 9420,
      "MY": 9421,
      "Isra": 9422,
      "zero": 9423,
      "Ob": 9424,
      "complex": 9425,
      "Rome": 9426,
      "phen": 9427,
      "uncle": 9428,
      "bitch": 9429,
      "asse": 9430,
      "zy": 9431,
      "1994": 9432,
      "TS": 9433,
      "philoso": 9434,
      "Second": 9435,
      "1995": 9436,
      "roof": 9437,
      "calm": 9438,
      "von": 9439,
      "sake": 9440,
      "Spain": 9441,
      "32": 9442,
      "ashed": 9443,
      "strate": 9444,
      "tempor": 9445,
      "cere": 9446,
      "Mike": 9447,
      "Han": 9448,
      "offered": 9449,
      "product": 9450,
      "teeth": 9451,
      "becoming": 9452,
      "mond": 9453,
      "icles": 9454,
      "increase": 9455,
      "novel": 9456,
      "comfortable": 9457,
      "WHAT": 9458,
      "unit": 9459,
      "Lin": 9460,
      "rious": 9461,
      "behavi": 9462,
      "tes": 9463,
      "waste": 9464,
      "Remember": 9465,
      "Care": 9466,
      "turns": 9467,
      "san": 9468,
      "freed": 9469,
      "weird": 9470,
      "winning": 9471,
      "transfer": 9472,
      "Hot": 9473,
      "bloody": 9474,
      "appearance": 9475,
      "rooms": 9476,
      "organization": 9477,
      "neither": 9478,
      "pel": 9479,
      "defe": 9480,
      "journal": 9481,
      "beauty": 9482,
      "reck": 9483,
      "appears": 9484,
      "asc": 9485,
      "ION": 9486,
      "Russia": 9487,
      "Sur": 9488,
      "ourselves": 9489,
      "commer": 9490,
      "cting": 9491,
      "eteen": 9492,
      "flower": 9493,
      "Professor": 9494,
      "ladies": 9495,
      "mechan": 9496,
      "mort": 9497,
      "Championship": 9498,
      "Fort": 9499,
      "wake": 9500,
      "aging": 9501,
      "asty": 9502,
      "pound": 9503,
      "Bor": 9504,
      "eper": 9505,
      "myster": 9506,
      "reasons": 9507,
      "basically": 9508,
      "Dire": 9509,
      "Lake": 9510,
      "turning": 9511,
      "uten": 9512,
      "realize": 9513,
      "motor": 9514,
      "TE": 9515,
      "hardly": 9516,
      "pin": 9517,
      "Commun": 9518,
      "Nat": 9519,
      "killing": 9520,
      "Move": 9521,
      "oured": 9522,
      "owner": 9523,
      "Later": 9524,
      "civil": 9525,
      "division": 9526,
      "Jean": 9527,
      "Association": 9528,
      "finan": 9529,
      "Catholic": 9530,
      "stre": 9531,
      "1992": 9532,
      "biggest": 9533,
      "wheel": 9534,
      "vation": 9535,
      "shi": 9536,
      "critic": 9537,
      "umber": 9538,
      "flight": 9539,
      "affair": 9540,
      "separate": 9541,
      "cake": 9542,
      "cles": 9543,
      "Fran": 9544,
      "eggs": 9545,
      "sche": 9546,
      "Also": 9547,
      "isl": 9548,
      "MA": 9549,
      "meat": 9550,
      "rise": 9551,
      "fold": 9552,
      "ening": 9553,
      "religious": 9554,
      "Haw": 9555,
      "neighbor": 9556,
      "characters": 9557,
      "totally": 9558,
      "Leave": 9559,
      "1997": 9560,
      "measure": 9561,
      "cure": 9562,
      "wet": 9563,
      "camera": 9564,
      "Ly": 9565,
      "constant": 9566,
      "Still": 9567,
      "northern": 9568,
      "patter": 9569,
      "ooh": 9570,
      "proved": 9571,
      "physical": 9572,
      "Depart": 9573,
      "lu": 9574,
      "replaced": 9575,
      "Gor": 9576,
      "lect": 9577,
      "decide": 9578,
      "lips": 9579,
      "directly": 9580,
      "previous": 9581,
      "pitch": 9582,
      "oned": 9583,
      "Charlie": 9584,
      "zo": 9585,
      "laws": 9586,
      "document": 9587,
      "taste": 9588,
      "mitted": 9589,
      "itz": 9590,
      "skill": 9591,
      "chem": 9592,
      "Ow": 9593,
      "seconds": 9594,
      "fal": 9595,
      "Mem": 9596,
      "introduced": 9597,
      "Cos": 9598,
      "gentlemen": 9599,
      "rare": 9600,
      "ume": 9601,
      "aces": 9602,
      "symbo": 9603,
      "failed": 9604,
      "concerned": 9605,
      "influence": 9606,
      "silly": 9607,
      "contr": 9608,
      "forever": 9609,
      "clearly": 9610,
      "loud": 9611,
      "remind": 9612,
      "Stay": 9613,
      "archite": 9614,
      "crying": 9615,
      "owe": 9616,
      "switch": 9617,
      "noise": 9618,
      "quarters": 9619,
      "request": 9620,
      "prepared": 9621,
      "league": 9622,
      "candid": 9623,
      "Dutch": 9624,
      "castle": 9625,
      "isher": 9626,
      "appreci": 9627,
      "Van": 9628,
      "council": 9629,
      "flying": 9630,
      "Sw": 9631,
      "chos": 9632,
      "UR": 9633,
      "ller": 9634,
      "orrow": 9635,
      "arily": 9636,
      "ishop": 9637,
      "pil": 9638,
      "cel": 9639,
      "delight": 9640,
      "meas": 9641,
      "48": 9642,
      "sexual": 9643,
      "promised": 9644,
      "Yo": 9645,
      "Mum": 9646,
      "vous": 9647,
      "1990": 9648,
      "rang": 9649,
      "39": 9650,
      "Summer": 9651,
      "OUT": 9652,
      "anda": 9653,
      "succeed": 9654,
      "Sea": 9655,
      "favour": 9656,
      "lawyer": 9657,
      "jam": 9658,
      "kins": 9659,
      "Florida": 9660,
      "sevent": 9661,
      "resour": 9662,
      "buildings": 9663,
      "1993": 9664,
      "custo": 9665,
      "independent": 9666,
      "Wind": 9667,
      "instru": 9668,
      "vention": 9669,
      "ears": 9670,
      "sole": 9671,
      "Won": 9672,
      "Center": 9673,
      "formula_": 9674,
      "pian": 9675,
      "southern": 9676,
      "adop": 9677,
      "anx": 9678,
      "Hol": 9679,
      "sigh": 9680,
      "surprised": 9681,
      "len": 9682,
      "spoken": 9683,
      "possibly": 9684,
      "Edward": 9685,
      "gs": 9686,
      "network": 9687,
      "drama": 9688,
      "Each": 9689,
      "Georg": 9690,
      "episode": 9691,
      "Company": 9692,
      "Rail": 9693,
      "fixed": 9694,
      "75": 9695,
      "dying": 9696,
      "prefer": 9697,
      "mail": 9698,
      "progress": 9699,
      "valu": 9700,
      "listening": 9701,
      "mut": 9702,
      "opinion": 9703,
      "plate": 9704,
      "cous": 9705,
      "cloud": 9706,
      "Department": 9707,
      "SC": 9708,
      "saf": 9709,
      "Satur": 9710,
      "nineteen": 9711,
      "tire": 9712,
      "image": 9713,
      "technology": 9714,
      "rated": 9715,
      "Harry": 9716,
      "Light": 9717,
      "Down": 9718,
      "ancy": 9719,
      "Sub": 9720,
      "Britain": 9721,
      "keys": 9722,
      "Watch": 9723,
      "pulled": 9724,
      "voc": 9725,
      "tun": 9726,
      "Think": 9727,
      "complain": 9728,
      "butter": 9729,
      "\"?": 9730,
      "Arch": 9731,
      "ost": 9732,
      "veh": 9733,
      "journey": 9734,
      "RA": 9735,
      "recently": 9736,
      "attract": 9737,
      "1991": 9738,
      "afford": 9739,
      "location": 9740,
      "smell": 9741,
      "maintain": 9742,
      "FI": 9743,
      "Prime": 9744,
      "actual": 9745,
      "Mass": 9746,
      "Group": 9747,
      "Ann": 9748,
      "Whoa": 9749,
      "easier": 9750,
      "resist": 9751,
      "gers": 9752,
      "destroyed": 9753,
      "Chuck": 9754,
      "Soci": 9755,
      "apt": 9756,
      "collection": 9757,
      "manner": 9758,
      "statistics": 9759,
      "meter": 9760,
      "circum": 9761,
      "iding": 9762,
      "managed": 9763,
      "intellig": 9764,
      "185": 9765,
      "screw": 9766,
      "Max": 9767,
      "Everyone": 9768,
      "magic": 9769,
      "button": 9770,
      "languages": 9771,
      "iverse": 9772,
      "rit": 9773,
      "threw": 9774,
      "exer": 9775,
      "sleeping": 9776,
      "asleep": 9777,
      "arently": 9778,
      "beach": 9779,
      "ador": 9780,
      "trial": 9781,
      "ws": 9782,
      "ette": 9783,
      "mainly": 9784,
      "oul": 9785,
      "driver": 9786,
      "transport": 9787,
      "33": 9788,
      "stret": 9789,
      "aving": 9790,
      "harm": 9791,
      "tend": 9792,
      "dreams": 9793,
      "records": 9794,
      "Americans": 9795,
      "micro": 9796,
      "Pen": 9797,
      "pha": 9798,
      "inois": 9799,
      "laughed": 9800,
      "Angeles": 9801,
      "Again": 9802,
      "lab": 9803,
      "sar": 9804,
      "knowing": 9805,
      "Kent": 9806,
      "economic": 9807,
      "Nick": 9808,
      "Ry": 9809,
      "vac": 9810,
      "grant": 9811,
      "guns": 9812,
      "Hmm": 9813,
      "provided": 9814,
      "Didn": 9815,
      "Pak": 9816,
      "tha": 9817,
      "dete": 9818,
      "noticed": 9819,
      "sail": 9820,
      "worst": 9821,
      "Parliament": 9822,
      "palace": 9823,
      "watched": 9824,
      "Damn": 9825,
      "Head": 9826,
      "Actually": 9827,
      "SS": 9828,
      "awful": 9829,
      "faces": 9830,
      "Ireland": 9831,
      "rum": 9832,
      "ardon": 9833,
      "Yu": 9834,
      "jun": 9835,
      "Colonel": 9836,
      "union": 9837,
      "Aunt": 9838,
      "bodies": 9839,
      "Happ": 9840,
      "excuse": 9841,
      "confir": 9842,
      "Lie": 9843,
      "Way": 9844,
      "isto": 9845,
      "stock": 9846,
      "transl": 9847,
      "pocket": 9848,
      "Empire": 9849,
      "Run": 9850,
      "Everybody": 9851,
      "ying": 9852,
      "Five": 9853,
      "Daddy": 9854,
      "Fil": 9855,
      "fare": 9856,
      "pure": 9857,
      "atre": 9858,
      "mig": 9859,
      "expression": 9860,
      "folk": 9861,
      "accom": 9862,
      "utenant": 9863,
      "plat": 9864,
      "assum": 9865,
      "uals": 9866,
      "Mah": 9867,
      "Ot": 9868,
      "pleasant": 9869,
      "hadn": 9870,
      "Squ": 9871,
      "dirty": 9872,
      "pher": 9873,
      "Billy": 9874,
      "Vo": 9875,
      "bull": 9876,
      "custom": 9877,
      "doors": 9878,
      "showing": 9879,
      "buried": 9880,
      "enge": 9881,
      "walls": 9882,
      "TA": 9883,
      "apping": 9884,
      "Should": 9885,
      "fied": 9886,
      "ths": 9887,
      "relie": 9888,
      "fifteen": 9889,
      "Wo": 9890,
      "officers": 9891,
      "Whate": 9892,
      "planning": 9893,
      "reme": 9894,
      "iously": 9895,
      "selling": 9896,
      "Child": 9897,
      "Last": 9898,
      "priest": 9899,
      "ology": 9900,
      "connected": 9901,
      "fingers": 9902,
      "magazine": 9903,
      "Pas": 9904,
      "ulty": 9905,
      "mn": 9906,
      "Whatever": 9907,
      "ucky": 9908,
      "Sho": 9909,
      "losing": 9910,
      "cells": 9911,
      "smoke": 9912,
      "occasion": 9913,
      "conversation": 9914,
      "lit": 9915,
      "everywhere": 9916,
      "tong": 9917,
      "1989": 9918,
      "formation": 9919,
      "damage": 9920,
      "units": 9921,
      "stayed": 9922,
      "lyn": 9923,
      "remains": 9924,
      "assu": 9925,
      "loves": 9926,
      "Secretary": 9927,
      "complic": 9928,
      "Anyway": 9929,
      "rick": 9930,
      "feels": 9931,
      "religion": 9932,
      "tough": 9933,
      "til": 9934,
      "vili": 9935,
      "traditional": 9936,
      "labor": 9937,
      "ache": 9938,
      "Someone": 9939,
      "jesty": 9940,
      "required": 9941,
      "chemical": 9942,
      "papers": 9943,
      "younger": 9944,
      "47": 9945,
      "Ve": 9946,
      "Gal": 9947,
      "sque": 9948,
      "MP": 9949,
      "aked": 9950,
      "cellent": 9951,
      "Division": 9952,
      "isa": 9953,
      "Bad": 9954,
      "vest": 9955,
      "drag": 9956,
      "ani": 9957,
      "Illinois": 9958,
      "wow": 9959,
      "proof": 9960,
      "reality": 9961,
      "acts": 9962,
      "Six": 9963,
      "feelings": 9964,
      "Scotland": 9965,
      "fro": 9966,
      "crowd": 9967,
      "Princess": 9968,
      "Hor": 9969,
      "gam": 9970,
      "studies": 9971,
      "Johnny": 9972,
      "minor": 9973,
      "OH": 9974,
      "statement": 9975,
      "scale": 9976,
      "guitar": 9977,
      "treatment": 9978,
      "bottle": 9979,
      "syn": 9980,
      "Try": 9981,
      "relative": 9982,
      "Home": 9983,
      "Saturday": 9984,
      "cute": 9985,
      "Democratic": 9986,
      "rence": 9987,
      "gift": 9988,
      "spin": 9989,
      "Tony": 9990,
      "motion": 9991,
      "ishing": 9992,
      "Welcome": 9993,
      "Holy": 9994,
      "opposite": 9995,
      "49": 9996,
      "Jud": 9997,
      "drawn": 9998,
      "mbly": 9999,
      "finding": 10000,
      "altern": 10001,
      "theast": 10002,
      "Eliza": 10003,
      "vy": 10004,
      "border": 10005,
      "itors": 10006,
      "Da": 10007,
      "completed": 10008,
      "humans": 10009,
      "nament": 10010,
      "workers": 10011,
      "task": 10012,
      "umn": 10013,
      "onic": 10014,
      "Cause": 10015,
      "THIS": 10016,
      "struck": 10017,
      "flag": 10018,
      "understood": 10019,
      "quit": 10020,
      "bat": 10021,
      "Tre": 10022,
      "Water": 10023,
      "upset": 10024,
      "understanding": 10025,
      "Camp": 10026,
      "ENT": 10027,
      "Early": 10028,
      "tiny": 10029,
      "Games": 10030,
      "freedom": 10031,
      "Bank": 10032,
      "ission": 10033,
      "IV": 10034,
      "improve": 10035,
      "sin": 10036,
      "Jeff": 10037,
      "PS": 10038,
      "bringing": 10039,
      "fields": 10040,
      "fficient": 10041,
      "Latin": 10042,
      "require": 10043,
      "redu": 10044,
      "upper": 10045,
      "mental": 10046,
      "psycho": 10047,
      "delic": 10048,
      "restaur": 10049,
      "ooth": 10050,
      "fruit": 10051,
      "musical": 10052,
      "bast": 10053,
      "bare": 10054,
      "Bon": 10055,
      "Jackson": 10056,
      "enty": 10057,
      "troops": 10058,
      "eth": 10059,
      "Sc": 10060,
      "favorite": 10061,
      "Ron": 10062,
      "Spr": 10063,
      "swear": 10064,
      "thoughts": 10065,
      "hearing": 10066,
      "fought": 10067,
      "Command": 10068,
      "oph": 10069,
      "establish": 10070,
      "effort": 10071,
      "billion": 10072,
      "300": 10073,
      "aters": 10074,
      "pla": 10075,
      "thousands": 10076,
      "aland": 10077,
      "utions": 10078,
      "Ci": 10079,
      "dressed": 10080,
      "SH": 10081,
      "thee": 10082,
      "hib": 10083,
      "1980": 10084,
      "lake": 10085,
      "solve": 10086,
      "activity": 10087,
      "jobs": 10088,
      "ima": 10089,
      "46": 10090,
      "Work": 10091,
      "FC": 10092,
      "wave": 10093,
      "jum": 10094,
      "Free": 10095,
      "helping": 10096,
      "arrange": 10097,
      "Chair": 10098,
      "deb": 10099,
      "declared": 10100,
      "ips": 10101,
      "Cast": 10102,
      "wid": 10103,
      "forgotten": 10104,
      "Year": 10105,
      "serving": 10106,
      "Commit": 10107,
      "Mun": 10108,
      "Edu": 10109,
      "Shit": 10110,
      "drawing": 10111,
      "strict": 10112,
      "advice": 10113,
      "native": 10114,
      "cock": 10115,
      "file": 10116,
      "pon": 10117,
      "Sit": 10118,
      "giant": 10119,
      "passing": 10120,
      "resent": 10121,
      "effects": 10122,
      "auto": 10123,
      "Bang": 10124,
      "meters": 10125,
      "Amy": 10126,
      "Shi": 10127,
      "rupt": 10128,
      "Book": 10129,
      "iny": 10130,
      "useful": 10131,
      "1988": 10132,
      "safety": 10133,
      "thur": 10134,
      "mally": 10135,
      "mel": 10136,
      "etc": 10137,
      "presence": 10138,
      "numer": 10139,
      "jail": 10140,
      "joke": 10141,
      "changing": 10142,
      "matches": 10143,
      "...?": 10144,
      "gall": 10145,
      "basis": 10146,
      "Ten": 10147,
      "shirt": 10148,
      "Steve": 10149,
      "drugs": 10150,
      "entirely": 10151,
      "awa": 10152,
      "UP": 10153,
      "map": 10154,
      "drunk": 10155,
      "score": 10156,
      "Cat": 10157,
      "fired": 10158,
      "temperature": 10159,
      "affect": 10160,
      "whisper": 10161,
      "accepted": 10162,
      "darling": 10163,
      "Society": 10164,
      "trem": 10165,
      "Stand": 10166,
      "Cro": 10167,
      "Northern": 10168,
      "matters": 10169,
      "Jimmy": 10170,
      "Blue": 10171,
      "advantage": 10172,
      "ARE": 10173,
      "sharp": 10174,
      "Friday": 10175,
      "branch": 10176,
      "traf": 10177,
      "receive": 10178,
      "Iran": 10179,
      "1987": 10180,
      "Fre": 10181,
      "chap": 10182,
      "audience": 10183,
      "mixed": 10184,
      "sword": 10185,
      "Fire": 10186,
      "ninety": 10187,
      "response": 10188,
      "cash": 10189,
      "teaching": 10190,
      "Si": 10191,
      "Record": 10192,
      "rier": 10193,
      "stal": 10194,
      "horri": 10195,
      "target": 10196,
      "silence": 10197,
      "holds": 10198,
      "awarded": 10199,
      "ufact": 10200,
      "Institute": 10201,
      "chicken": 10202,
      "traffic": 10203,
      "gentleman": 10204,
      "Bes": 10205,
      "cant": 10206,
      "comment": 10207,
      "financial": 10208,
      "gang": 10209,
      "sons": 10210,
      "cru": 10211,
      "Sher": 10212,
      "newspaper": 10213,
      "tone": 10214,
      "solid": 10215,
      "Pac": 10216,
      "split": 10217,
      "settled": 10218,
      "advent": 10219,
      "closer": 10220,
      "sli": 10221,
      "dev": 10222,
      "UST": 10223,
      "Wol": 10224,
      "slo": 10225,
      "terror": 10226,
      "authority": 10227,
      "falling": 10228,
      "domin": 10229,
      "presents": 10230,
      "Jewish": 10231,
      "Sl": 10232,
      "Tra": 10233,
      "reign": 10234,
      "management": 10235,
      "web": 10236,
      "credit": 10237,
      "drum": 10238,
      "poem": 10239,
      "horn": 10240,
      "uments": 10241,
      "excited": 10242,
      "golden": 10243,
      "Committee": 10244,
      "perfectly": 10245,
      "locked": 10246,
      "YE": 10247,
      "Trans": 10248,
      "sugar": 10249,
      "zing": 10250,
      "majority": 10251,
      "rand": 10252,
      "obtain": 10253,
      "55": 10254,
      "shore": 10255,
      "broadcast": 10256,
      "Dom": 10257,
      "cate": 10258,
      "igan": 10259,
      "Olympics": 10260,
      "ached": 10261,
      "Gro": 10262,
      "justice": 10263,
      "spect": 10264,
      "Ori": 10265,
      "notes": 10266,
      "tears": 10267,
      "divor": 10268,
      "trail": 10269,
      "ains": 10270,
      "stances": 10271,
      "Daniel": 10272,
      "bub": 10273,
      "carefully": 10274,
      "acle": 10275,
      "contains": 10276,
      "Follow": 10277,
      "streets": 10278,
      "apa": 10279,
      "figures": 10280,
      "weapons": 10281,
      "44": 10282,
      "limited": 10283,
      "awn": 10284,
      "ware": 10285,
      "Jun": 10286,
      "Sel": 10287,
      "represented": 10288,
      "concent": 10289,
      "Class": 10290,
      "civili": 10291,
      "Bell": 10292,
      "drinking": 10293,
      "breaking": 10294,
      "Les": 10295,
      "lax": 10296,
      "SI": 10297,
      "rab": 10298,
      "owa": 10299,
      "Wall": 10300,
      "selected": 10301,
      "PO": 10302,
      "supply": 10303,
      "Southern": 10304,
      "Laugh": 10305,
      "lat": 10306,
      "pressed": 10307,
      "desire": 10308,
      "passeng": 10309,
      "significant": 10310,
      "generation": 10311,
      "height": 10312,
      "Islam": 10313,
      "Dun": 10314,
      "Fair": 10315,
      "eleven": 10316,
      "GR": 10317,
      "ysis": 10318,
      "wich": 10319,
      "otherwise": 10320,
      "comedy": 10321,
      ".]": 10322,
      "Pi": 10323,
      "brush": 10324,
      "ANT": 10325,
      "experiment": 10326,
      "barr": 10327,
      "Hurry": 10328,
      "Night": 10329,
      "Alan": 10330,
      "recomm": 10331,
      "ira": 10332,
      "apple": 10333,
      "queen": 10334,
      "Awards": 10335,
      "rings": 10336,
      "pleased": 10337,
      "icide": 10338,
      "Majesty": 10339,
      "ora": 10340,
      "chant": 10341,
      "string": 10342,
      "paying": 10343,
      "professor": 10344,
      "Gra": 10345,
      "tied": 10346,
      "removed": 10347,
      "railway": 10348,
      "hes": 10349,
      "dan": 10350,
      "pregn": 10351,
      "belief": 10352,
      "Victori": 10353,
      "resident": 10354,
      "setting": 10355,
      "consum": 10356,
      "azz": 10357,
      "medicine": 10358,
      "Johnson": 10359,
      "circle": 10360,
      "1984": 10361,
      "Lind": 10362,
      "knife": 10363,
      "ilty": 10364,
      "Es": 10365,
      "Cer": 10366,
      "beside": 10367,
      "aded": 10368,
      "attend": 10369,
      "keeps": 10370,
      "growth": 10371,
      "Aye": 10372,
      "sphere": 10373,
      "Rod": 10374,
      "increased": 10375,
      "Zealand": 10376,
      "scen": 10377,
      "sixty": 10378,
      "bin": 10379,
      "Too": 10380,
      "chest": 10381,
      "listed": 10382,
      "familiar": 10383,
      "reven": 10384,
      "armed": 10385,
      "scr": 10386,
      "Museum": 10387,
      "poly": 10388,
      "coal": 10389,
      "1986": 10390,
      "mony": 10391,
      "signal": 10392,
      "Pakistan": 10393,
      "faster": 10394,
      "pit": 10395,
      "Sk": 10396,
      "dust": 10397,
      "equi": 10398,
      "Tu": 10399,
      "producer": 10400,
      "fifth": 10401,
      "scored": 10402,
      "CT": 10403,
      ".)": 10404,
      "Kat": 10405,
      "rant": 10406,
      "mann": 10407,
      "advan": 10408,
      "agent": 10409,
      "victory": 10410,
      "avoid": 10411,
      "strike": 10412,
      "Tro": 10413,
      "Andrew": 10414,
      "Robin": 10415,
      "planned": 10416,
      "hmm": 10417,
      "Irish": 10418,
      "Tot": 10419,
      "capac": 10420,
      "tap": 10421,
      "invited": 10422,
      "rison": 10423,
      "gment": 10424,
      "42": 10425,
      "multiple": 10426,
      "Death": 10427,
      "arrested": 10428,
      "rug": 10429,
      "prior": 10430,
      "highly": 10431,
      "kidding": 10432,
      "Ass": 10433,
      "rapid": 10434,
      "(;": 10435,
      "primary": 10436,
      "apartment": 10437,
      "expensive": 10438,
      "sees": 10439,
      "confess": 10440,
      "tradition": 10441,
      "Police": 10442,
      "Israel": 10443,
      "aning": 10444,
      "suspect": 10445,
      "Vol": 10446,
      "WAS": 10447,
      "failure": 10448,
      "bunch": 10449,
      "headed": 10450,
      "colour": 10451,
      "BI": 10452,
      "blank": 10453,
      "federal": 10454,
      "roles": 10455,
      "dancing": 10456,
      "arian": 10457,
      "calcul": 10458,
      "mming": 10459,
      "suggested": 10460,
      "Tele": 10461,
      "Commission": 10462,
      "Pop": 10463,
      "1979": 10464,
      "alty": 10465,
      "basic": 10466,
      "cards": 10467,
      "proceed": 10468,
      "asha": 10469,
      "manufact": 10470,
      "1981": 10471,
      "Jones": 10472,
      "background": 10473,
      "',": 10474,
      "bass": 10475,
      "Ox": 10476,
      "Uk": 10477,
      "element": 10478,
      "protest": 10479,
      "portion": 10480,
      "forgive": 10481,
      "Happy": 10482,
      "Baby": 10483,
      "powers": 10484,
      "chain": 10485,
      "tive": 10486,
      "crash": 10487,
      "1972": 10488,
      "Arthur": 10489,
      "programs": 10490,
      "oma": 10491,
      "hanging": 10492,
      "Ali": 10493,
      "pink": 10494,
      "Fam": 10495,
      "shooting": 10496,
      "1983": 10497,
      "integr": 10498,
      "RY": 10499,
      "Rac": 10500,
      "aircraft": 10501,
      "factory": 10502,
      "Lab": 10503,
      "elements": 10504,
      "somehow": 10505,
      "organis": 10506,
      "channel": 10507,
      "mountains": 10508,
      "script": 10509,
      "SA": 10510,
      "aly": 10511,
      "carrying": 10512,
      "excl": 10513,
      "hiding": 10514,
      "connection": 10515,
      "adium": 10516,
      "DON": 10517,
      "batter": 10518,
      "extremely": 10519,
      "Kill": 10520,
      "Social": 10521,
      "Swit": 10522,
      "governor": 10523,
      "1985": 10524,
      "revolution": 10525,
      "fortunately": 10526,
      "supported": 10527,
      "limit": 10528,
      "nervous": 10529,
      "rd": 10530,
      "cheese": 10531,
      "zerland": 10532,
      "knock": 10533,
      "zes": 10534,
      "status": 10535,
      "pir": 10536,
      "chosen": 10537,
      "grade": 10538,
      "Asia": 10539,
      "FE": 10540,
      "scientific": 10541,
      "trou": 10542,
      "library": 10543,
      "plenty": 10544,
      "Gil": 10545,
      "CD": 10546,
      "Ash": 10547,
      "bone": 10548,
      "99": 10549,
      "quant": 10550,
      "instance": 10551,
      "activities": 10552,
      "Sarah": 10553,
      "Switzerland": 10554,
      "...\"": 10555,
      "route": 10556,
      "replace": 10557,
      "nights": 10558,
      "schol": 10559,
      "aband": 10560,
      "Juli": 10561,
      "allows": 10562,
      "Tech": 10563,
      "chester": 10564,
      "eastern": 10565,
      "tainment": 10566,
      "windows": 10567,
      "Sweden": 10568,
      "potential": 10569,
      "expand": 10570,
      "museum": 10571,
      "ports": 10572,
      "shame": 10573,
      "purch": 10574,
      "slightly": 10575,
      "icking": 10576,
      "1982": 10577,
      "Chan": 10578,
      "eighty": 10579,
      "homes": 10580,
      "stein": 10581,
      "bang": 10582,
      "defeated": 10583,
      "products": 10584,
      "AH": 10585,
      "upstairs": 10586,
      "aud": 10587,
      "fairly": 10588,
      "narrow": 10589,
      "wings": 10590,
      "levels": 10591,
      "Simon": 10592,
[...]
