{
  "version": "1.0",
  "truncation": null,
  "padding": null,
  "added_tokens": [
    {
      "id": 0,
      "content": "[UNK]",
      "single_word": false,
      "lstrip": false,
      "rstrip": false,
      "normalized": false,
      "special": true
    },
    {
      "id": 1,
      "content": "[CLS]",
      "single_word": false,
      "lstrip": false,
      "rstrip": false,
      "normalized": false,
      "special": true
    },
    {
      "id": 2,
      "content": "[SEP]",
      "single_word": false,
      "lstrip": false,
      "rstrip": false,
      "normalized": false,
      "special": true
    },
    {
      "id": 3,
      "content": "[PAD]",
      "single_word": false,
      "lstrip": false,
      "rstrip": false,
      "normalized": false,
      "special": true
    },
    {
      "id": 4,
      "content": "[MASK]",
      "single_word": false,
      "lstrip": false,
      "rstrip": false,
      "normalized": false,
      "special": true
    }
  ],
  "normalizer": null,
  "pre_tokenizer": {
    "type": "Whitespace"
  },
  "post_processor": null,
  "decoder": null,
  "model": {
    "type": "BPE",
    "dropout": null,
    "unk_token": "[UNK]",
    "continuing_subword_prefix": null,
    "end_of_word_suffix": null,
    "fuse_unk": false,
    "vocab": {
      "[UNK]": 0,
      "[CLS]": 1,
      "[SEP]": 2,
      "[PAD]": 3,
      "[MASK]": 4,
      "!": 5,
      "\"": 6,
      "#": 7,
      "$": 8,
      "%": 9,
      "&": 10,
      "'": 11,
      "(": 12,
      ")": 13,
      "*": 14,
      "+": 15,
      ",": 16,
      "-": 17,
      ".": 18,
      "/": 19,
      "0": 20,
      "1": 21,
      "2": 22,
      "3": 23,
      "4": 24,
      "5": 25,
      "6": 26,
      "7": 27,
      "8": 28,
      "9": 29,
      ":": 30,
      ";": 31,
      "<": 32,
      "=": 33,
      ">": 34,
      "?": 35,
      "@": 36,
      "A": 37,
      "B": 38,
      "C": 39,
      "D": 40,
      "E": 41,
      "F": 42,
      "G": 43,
      "H": 44,
      "I": 45,
      "J": 46,
      "K": 47,
      "L": 48,
      "M": 49,
      "N": 50,
      "O": 51,
      "P": 52,
      "Q": 53,
      "R": 54,
      "S": 55,
      "T": 56,
      "U": 57,
      "V": 58,
      "W": 59,
      "X": 60,
      "Y": 61,
      "Z": 62,
      "[": 63,
      "\\": 64,
      "]": 65,
      "^": 66,
      "_": 67,
      "`": 68,
      "a": 69,
      "b": 70,
      "c": 71,
      "d": 72,
      "e": 73,
      "f": 74,
      "g": 75,
      "h": 76,
      "i": 77,
      "j": 78,
      "k": 79,
      "l": 80,
      "m": 81,
      "n": 82,
      "o": 83,
      "p": 84,
      "q": 85,
      "r": 86,
      "s": 87,
      "t": 88,
      "u": 89,
      "v": 90,
      "w": 91,
      "x": 92,
      "y": 93,
      "z": 94,
      "{": 95,
      "|": 96,
      "}": 97,
      "~": 98,
      "": 99,
      "": 100,
      "": 101,
      "": 102,
      "": 103,
      "": 104,
      "": 105,
      "": 106,
      "": 107,
      "": 108,
      "": 109,
      "": 110,
      "": 111,
      "": 112,
      "": 113,
      "¡": 114,
      "¢": 115,
      "£": 116,
      "¤": 117,
      "¥": 118,
      "¦": 119,
      "§": 120,
      "¨": 121,
      "©": 122,
      "ª": 123,
      "«": 124,
      "¬": 125,
      "­": 126,
      "®": 127,
      "¯": 128,
      "°": 129,
      "±": 130,
      "²": 131,
      "³": 132,
      "´": 133,
      "µ": 134,
      "¶": 135,
      "·": 136,
      "¸": 137,
      "¹": 138,
      "º": 139,
      "»": 140,
      "¼": 141,
      "½": 142,
      "¾": 143,
      "¿": 144,
      "À": 145,
      "Á": 146,
      "Â": 147,
      "Ã": 148,
      "Ä": 149,
      "Å": 150,
      "Æ": 151,
      "Ç": 152,
      "È": 153,
      "É": 154,
      "Ê": 155,
      "Ë": 156,
      "Ì": 157,
      "Í": 158,
      "Î": 159,
      "Ï": 160,
      "Ð": 161,
      "Ñ": 162,
      "Ò": 163,
      "Ó": 164,
      "Ô": 165,
      "Ö": 166,
      "×": 167,
      "Ø": 168,
      "Ù": 169,
      "Ú": 170,
      "Û": 171,
      "Ü": 172,
      "Ý": 173,
      "Þ": 174,
      "ß": 175,
      "à": 176,
      "á": 177,
      "â": 178,
      "ã": 179,
      "ä": 180,
      "å": 181,
      "æ": 182,
      "ç": 183,
      "è": 184,
      "é": 185,
      "ê": 186,
      "ë": 187,
      "ì": 188,
      "í": 189,
      "î": 190,
      "ï": 191,
      "ð": 192,
      "ñ": 193,
      "ò": 194,
      "ó": 195,
      "ô": 196,
      "õ": 197,
      "ö": 198,
      "÷": 199,
      "ø": 200,
      "ù": 201,
      "ú": 202,
      "û": 203,
      "ü": 204,
      "ý": 205,
      "þ": 206,
      "ÿ": 207,
      "Ā": 208,
      "ā": 209,
      "Ă": 210,
      "ă": 211,
      "ą": 212,
      "Ć": 213,
      "ć": 214,
      "ĉ": 215,
      "ċ": 216,
      "Č": 217,
      "č": 218,
      "ď": 219,
      "Đ": 220,
      "đ": 221,
      "Ē": 222,
      "ē": 223,
      "ĕ": 224,
      "ė": 225,
      "ę": 226,
      "ě": 227,
      "ĝ": 228,
      "ğ": 229,
      "ġ": 230,
      "ģ": 231,
      "Ħ": 232,
      "ħ": 233,
      "ĩ": 234,
      "Ī": 235,
      "ī": 236,
      "İ": 237,
      "ı": 238,
      "Ķ": 239,
      "ķ": 240,
      "Ļ": 241,
      "ļ": 242,
      "Ľ": 243,
      "ľ": 244,
      "Ł": 245,
      "ł": 246,
      "ń": 247,
      "ņ": 248,
      "ň": 249,
      "ŋ": 250,
      "Ō": 251,
      "ō": 252,
      "ŏ": 253,
      "Ő": 254,
      "ő": 255,
      "Œ": 256,
      "œ": 257,
      "ŕ": 258,
      "Ř": 259,
      "ř": 260,
      "Ś": 261,
      "ś": 262,
      "ŝ": 263,
      "Ş": 264,
      "ş": 265,
      "Š": 266,
      "š": 267,
      "Ţ": 268,
      "ţ": 269,
      "ť": 270,
      "ũ": 271,
      "Ū": 272,
      "ū": 273,
      "ŭ": 274,
      "ů": 275,
      "ű": 276,
      "ŵ": 277,
      "Ź": 278,
      "ź": 279,
      "Ż": 280,
      "ż": 281,
      "Ž": 282,
      "ž": 283,
      "Ɔ": 284,
      "Ƒ": 285,
      "ƒ": 286,
      "ơ": 287,
      "ư": 288,
      "ǎ": 289,
      "ǐ": 290,
      "ǒ": 291,
      "ǔ": 292,
      "ǚ": 293,
      "ǧ": 294,
      "ǫ": 295,
      "Ș": 296,
      "ș": 297,
      "Ț": 298,
      "ț": 299,
      "ɐ": 300,
      "ɑ": 301,
      "ɒ": 302,
      "ɓ": 303,
      "ɔ": 304,
      "ɕ": 305,
      "ə": 306,
      "ɛ": 307,
      "ɜ": 308,
      "ɪ": 309,
      "ɫ": 310,
      "ɯ": 311,
      "ɹ": 312,
      "ɾ": 313,
      "ʁ": 314,
      "ʂ": 315,
      "ʃ": 316,
      "ʈ": 317,
      "ʊ": 318,
      "ʋ": 319,
      "ʒ": 320,
      "ʔ": 321,
      "ʰ": 322,
      "ʱ": 323,
      "ʲ": 324,
      "ʷ": 325,
      "ʹ": 326,
      "ʻ": 327,
      "ʼ": 328,
      "ʽ": 329,
      "ʾ": 330,
      "ʿ": 331,
      "ˁ": 332,
      "ˇ": 333,
      "ˈ": 334,
      "ˊ": 335,
      "ˋ": 336,
      "ˌ": 337,
      "ː": 338,
      "˙": 339,
      "˚": 340,
      "˜": 341,
      "ˡ": 342,
      "́": 343,
      "̂": 344,
      "̄": 345,
      "̇": 346,
      "̍": 347,
      "̤": 348,
      "̧": 349,
      "̨": 350,
      "̩": 351,
      "̯": 352,
      "͡": 353,
      "Ά": 354,
      "·": 355,
      "Ή": 356,
      "Α": 357,
      "Β": 358,
      "Γ": 359,
      "Δ": 360,
      "Ε": 361,
      "Ζ": 362,
      "Η": 363,
      "Θ": 364,
      "Ι": 365,
      "Κ": 366,
      "Λ": 367,
      "Μ": 368,
      "Ν": 369,
      "Ο": 370,
      "Π": 371,
      "Ρ": 372,
      "Σ": 373,
      "Τ": 374,
      "Υ": 375,
      "Φ": 376,
      "Χ": 377,
      "Ψ": 378,
      "Ω": 379,
      "ά": 380,
      "έ": 381,
      "ή": 382,
      "ί": 383,
      "α": 384,
      "β": 385,
      "γ": 386,
      "δ": 387,
      "ε": 388,
      "ζ": 389,
      "η": 390,
      "θ": 391,
      "ι": 392,
      "κ": 393,
      "λ": 394,
      "μ": 395,
      "ν": 396,
      "ξ": 397,
      "ο": 398,
      "π": 399,
      "ρ": 400,
      "ς": 401,
      "σ": 402,
      "τ": 403,
      "υ": 404,
      "φ": 405,
      "χ": 406,
      "ψ": 407,
      "ω": 408,
      "ό": 409,
      "ύ": 410,
      "ώ": 411,
      "ϕ": 412,
      "Ϲ": 413,
      "Ђ": 414,
      "Є": 415,
      "І": 416,
      "Ї": 417,
      "Ј": 418,
      "А": 419,
      "Б": 420,
      "В": 421,
      "Г": 422,
      "Д": 423,
      "Е": 424,
      "Ж": 425,
      "З": 426,
      "И": 427,
      "Й": 428,
      "К": 429,
      "Л": 430,
      "М": 431,
      "Н": 432,
      "О": 433,
      "П": 434,
      "Р": 435,
      "С": 436,
      "Т": 437,
      "У": 438,
      "Ф": 439,
      "Х": 440,
      "Ц": 441,
      "Ч": 442,
      "Ш": 443,
      "Щ": 444,
      "Ы": 445,
      "Ь": 446,
      "Э": 447,
      "Ю": 448,
      "Я": 449,
      "а": 450,
      "б": 451,
      "в": 452,
      "г": 453,
      "д": 454,
      "е": 455,
      "ж": 456,
      "з": 457,
      "и": 458,
      "й": 459,
      "к": 460,
      "л": 461,
      "м": 462,
      "н": 463,
      "о": 464,
      "п": 465,
      "р": 466,
      "с": 467,
      "т": 468,
      "у": 469,
      "ф": 470,
      "х": 471,
      "ц": 472,
      "ч": 473,
      "ш": 474,
      "щ": 475,
      "ы": 476,
      "ь": 477,
      "э": 478,
      "ю": 479,
      "я": 480,
      "ё": 481,
      "ђ": 482,
      "є": 483,
      "і": 484,
      "ї": 485,
      "ј": 486,
      "њ": 487,
      "ћ": 488,
      "ќ": 489,
      "ў": 490,
      "ѣ": 491,
      "Ґ": 492,
      "ґ": 493,
      "Қ": 494,
      "ҡ": 495,
      "Ү": 496,
      "ү": 497,
      "ұ": 498,
      "Ә": 499,
      "ә": 500,
      "ӱ": 501,
      "Ա": 502,
      "Գ": 503,
      "Դ": 504,
      "Ե": 505,
      "Խ": 506,
      "Հ": 507,
      "Յ": 508,
      "Ռ": 509,
      "Ս": 510,
      "Վ": 511,
      "Ց": 512,
      "Փ": 513,
      "Ք": 514,
      "Ֆ": 515,
      "ա": 516,
      "բ": 517,
      "ե": 518,
      "թ": 519,
      "ի": 520,
      "լ": 521,
      "կ": 522,
      "հ": 523,
      "ձ": 524,
      "ղ": 525,
      "մ": 526,
      "յ": 527,
      "ն": 528,
      "շ": 529,
      "ո": 530,
      "չ": 531,
      "ռ": 532,
      "ս": 533,
      "վ": 534,
      "տ": 535,
      "ր": 536,
      "ց": 537,
      "ւ": 538,
      "ք": 539,
      "օ": 540,
      "ִ": 541,
      "ֵ": 542,
      "ָ": 543,
      "ּ": 544,
      "ׁ": 545,
      "א": 546,
      "ב": 547,
      "ג": 548,
      "ד": 549,
      "ה": 550,
      "ו": 551,
      "ז": 552,
      "ח": 553,
      "ט": 554,
      "י": 555,
      "כ": 556,
      "ל": 557,
      "ם": 558,
      "מ": 559,
      "ן": 560,
      "נ": 561,
      "ס": 562,
      "ע": 563,
      "פ": 564,
      "ץ": 565,
      "צ": 566,
      "ר": 567,
      "ש": 568,
      "ת": 569,
      "װ": 570,
      "״": 571,
      "،": 572,
      "ء": 573,
      "آ": 574,
      "أ": 575,
      "ؤ": 576,
      "إ": 577,
      "ئ": 578,
      "ا": 579,
      "ب": 580,
      "ة": 581,
      "ت": 582,
      "ث": 583,
      "ج": 584,
      "ح": 585,
      "خ": 586,
      "د": 587,
      "ذ": 588,
      "ر": 589,
      "ز": 590,
      "س": 591,
      "ش": 592,
      "ص": 593,
      "ض": 594,
      "ط": 595,
      "ظ": 596,
      "ع": 597,
      "غ": 598,
      "ـ": 599,
      "ف": 600,
      "ق": 601,
      "ك": 602,
      "ل": 603,
      "م": 604,
      "ن": 605,
      "ه": 606,
      "و": 607,
      "ى": 608,
      "ي": 609,
      "ً": 610,
      "َ": 611,
      "ُ": 612,
      "ِ": 613,
      "ّ": 614,
      "ْ": 615,
      "ٓ": 616,
      "١": 617,
      "٨": 618,
      "ٰ": 619,
      "ٱ": 620,
      "پ": 621,
      "چ": 622,
      "ڈ": 623,
      "ژ": 624,
      "ڠ": 625,
      "ک": 626,
      "ڬ": 627,
      "گ": 628,
      "ہ": 629,
      "ۆ": 630,
      "ی": 631,
      "ە": 632,
      "ۚ": 633,
      "۟": 634,
      "ۢ": 635,
      "ۥ": 636,
      "܅": 637,
      "ނ": 638,
      "އ": 639,
      "މ": 640,
      "ދ": 641,
      "ަ": 642,
      "ާ": 643,
      "ި": 644,
      "ޫ": 645,
      "ް": 646,
      "ं": 647,
      "ः": 648,
      "अ": 649,
      "आ": 650,
      "इ": 651,
      "उ": 652,
      "ऋ": 653,
      "ओ": 654,
      "क": 655,
      "ख": 656,
      "ग": 657,
      "च": 658,
      "छ": 659,
      "ज": 660,
      "ञ": 661,
      "ट": 662,
      "ठ": 663,
      "ड": 664,
      "ण": 665,
      "त": 666,
      "थ": 667,
      "द": 668,
      "ध": 669,
      "न": 670,
      "प": 671,
      "फ": 672,
      "ब": 673,
      "भ": 674,
      "म": 675,
      "य": 676,
      "र": 677,
      "ल": 678,
      "व": 679,
      "श": 680,
      "ष": 681,
      "स": 682,
      "ह": 683,
      "़": 684,
      "ऽ": 685,
      "ा": 686,
      "ि": 687,
      "ी": 688,
      "ु": 689,
      "ू": 690,
      "ृ": 691,
      "े": 692,
      "ै": 693,
      "ो": 694,
      "्": 695,
      "।": 696,
      "०": 697,
      "२": 698,
      "४": 699,
      "ং": 700,
      "আ": 701,
      "ই": 702,
      "ও": 703,
      "ক": 704,
      "খ": 705,
      "গ": 706,
      "ঙ": 707,
      "চ": 708,
      "ছ": 709,
      "জ": 710,
      "ঞ": 711,
      "ট": 712,
      "ণ": 713,
      "ত": 714,
      "থ": 715,
      "দ": 716,
      "ধ": 717,
      "ন": 718,
      "প": 719,
      "ফ": 720,
      "ব": 721,
      "ভ": 722,
      "ম": 723,
      "য": 724,
      "র": 725,
      "ল": 726,
      "শ": 727,
      "ষ": 728,
      "স": 729,
      "হ": 730,
      "়": 731,
      "া": 732,
      "ি": 733,
      "ী": 734,
      "ু": 735,
      "ূ": 736,
      "ৃ": 737,
      "ে": 738,
      "ৈ": 739,
      "ো": 740,
      "্": 741,
      "ਂ": 742,
      "ਆ": 743,
      "ਓ": 744,
      "ਗ": 745,
      "ਚ": 746,
      "ਜ": 747,
      "ਣ": 748,
      "ਥ": 749,
      "ਨ": 750,
      "ਪ": 751,
      "ਬ": 752,
      "ਮ": 753,
      "ਰ": 754,
      "ਲ": 755,
      "ਵ": 756,
      "ਾ": 757,
      "ੀ": 758,
      "ੁ": 759,
      "ੇ": 760,
      "ੈ": 761,
      "ੰ": 762,
      "ੱ": 763,
      "ક": 764,
      "ગ": 765,
      "જ": 766,
      "ત": 767,
      "ર": 768,
      "લ": 769,
      "ા": 770,
      "ી": 771,
      "ુ": 772,
      "ો": 773,
      "ଛ": 774,
      "ଜ": 775,
      "ଡ": 776,
      "ଣ": 777,
      "ତ": 778,
      "ଦ": 779,
      "ନ": 780,
      "ପ": 781,
      "ବ": 782,
      "ର": 783,
      "ଶ": 784,
      "ସ": 785,
      "ା": 786,
      "ୀ": 787,
      "ୋ": 788,
      "୍": 789,
      "ୟ": 790,
      "அ": 791,
      "இ": 792,
      "க": 793,
      "ங": 794,
      "ச": 795,
      "ட": 796,
      "த": 797,
      "ந": 798,
      "ன": 799,
      "ப": 800,
      "ம": 801,
      "ய": 802,
      "ர": 803,
      "ற": 804,
      "ல": 805,
      "ள": 806,
      "ழ": 807,
      "ா": 808,
      "ி": 809,
      "ு": 810,
      "ூ": 811,
      "ை": 812,
      "ொ": 813,
      "்": 814,
      "ం": 815,
      "ఆ": 816,
      "క": 817,
      "జ": 818,
      "త": 819,
      "ద": 820,
      "ధ": 821,
      "న": 822,
      "భ": 823,
      "మ": 824,
      "ర": 825,
      "వ": 826,
      "ా": 827,
      "ి": 828,
      "ు": 829,
      "ూ": 830,
      "ో": 831,
      "్": 832,
      "ಂ": 833,
      "ಕ": 834,
      "ಗ": 835,
      "ಜ": 836,
      "ಟ": 837,
      "ಡ": 838,
      "ಣ": 839,
      "ತ": 840,
      "ನ": 841,
      "ಪ": 842,
      "ಬ": 843,
      "ಭ": 844,
      "ಮ": 845,
      "ಯ": 846,
      "ರ": 847,
      "ಲ": 848,
      "ವ": 849,
      "ಶ": 850,
      "ಸ": 851,
      "ಹ": 852,
      "ಾ": 853,
      "ಿ": 854,
      "ೀ": 855,
      "ು": 856,
      "ೂ": 857,
      "ೇ": 858,
      "ೈ": 859,
      "್": 860,
      "ം": 861,
      "ഉ": 862,
      "ച": 863,
      "ഞ": 864,
      "പ": 865,
      "മ": 866,
      "യ": 867,
      "ര": 868,
      "സ": 869,
      "ാ": 870,
      "ി": 871,
      "്": 872,
      "ං": 873,
      "ක": 874,
      "ජ": 875,
      "ත": 876,
      "න": 877,
      "ප": 878,
      "ම": 879,
      "ර": 880,
      "ල": 881,
      "ව": 882,
      "ශ": 883,
      "ෂ": 884,
      "ස": 885,
      "්": 886,
      "ා": 887,
      "ි": 888,
      "ී": 889,
      "ු": 890,
      "ෙ": 891,
      "ේ": 892,
      "ก": 893,
      "ข": 894,
      "ค": 895,
      "ง": 896,
      "จ": 897,
      "ฉ": 898,
      "ช": 899,
      "ญ": 900,
      "ณ": 901,
      "ด": 902,
      "ต": 903,
      "ถ": 904,
      "ท": 905,
      "ธ": 906,
      "น": 907,
      "บ": 908,
      "ป": 909,
      "ผ": 910,
      "ฝ": 911,
      "พ": 912,
      "ภ": 913,
      "ม": 914,
      "ย": 915,
      "ร": 916,
      "ล": 917,
      "ว": 918,
      "ศ": 919,
      "ส": 920,
      "ห": 921,
      "ฬ": 922,
      "อ": 923,
      "ะ": 924,
      "ั": 925,
      "า": 926,
      "ำ": 927,
      "ิ": 928,
      "ี": 929,
      "ื": 930,
      "ุ": 931,
      "ู": 932,
      "เ": 933,
      "แ": 934,
      "โ": 935,
      "ไ": 936,
      "่": 937,
      "้": 938,
      "์": 939,
      "ກ": 940,
      "ດ": 941,
      "ອ": 942,
      "ີ": 943,
      "ເ": 944,
      "ແ": 945,
      "່": 946,
      "້": 947,
      "་": 948,
      "ག": 949,
      "ང": 950,
      "ཡ": 951,
      "ར": 952,
      "ལ": 953,
      "ས": 954,
      "ོ": 955,
      "ྒ": 956,
      "ྟ": 957,
      "ྱ": 958,
      "က": 959,
      "င": 960,
      "ဆ": 961,
      "တ": 962,
      "ထ": 963,
      "ပ": 964,
      "မ": 965,
      "ရ": 966,
      "အ": 967,
      "ာ": 968,
      "ိ": 969,
      "ု": 970,
      "ေ": 971,
      "ံ": 972,
      "း": 973,
      "်": 974,
      "ှ": 975,
      "ა": 976,
      "ბ": 977,
      "გ": 978,
      "დ": 979,
      "ე": 980,
      "ვ": 981,
      "ი": 982,
      "ლ": 983,
      "მ": 984,
      "ნ": 985,
      "რ": 986,
      "ს": 987,
      "ტ": 988,
      "ქ": 989,
      "ძ": 990,
      "ხ": 991,
      "ሓ": 992,
      "ም": 993,
      "ረ": 994,
      "ር": 995,
      "ሮ": 996,
      "ሱ": 997,
      "ሳ": 998,
      "ስ": 999,
      "ቂ": 1000,
      "ብ": 1001,
      "ቴ": 1002,
      "ኖ": 1003,
      "አ": 1004,
      "ኢ": 1005,
      "ኣ": 1006,
      "ወ": 1007,
      "ዎ": 1008,
      "የ": 1009,
      "ያ": 1010,
      "ይ": 1011,
      "ድ": 1012,
      "ገ": 1013,
      "ፍ": 1014,
      "Ꭴ": 1015,
      "Ꭹ": 1016,
      "Ꮅ": 1017,
      "Ꮕ": 1018,
      "Ꮝ": 1019,
      "Ꮢ": 1020,
      "Ꮣ": 1021,
      "Ᏹ": 1022,
      "ᛖ": 1023,
      "ក": 1024,
      "ខ": 1025,
      "គ": 1026,
      "ត": 1027,
      "ទ": 1028,
      "ព": 1029,
      "ភ": 1030,
      "ម": 1031,
      "រ": 1032,
      "ស": 1033,
      "ឧ": 1034,
      "ា": 1035,
      "ែ": 1036,
      "្": 1037,
      "០": 1038,
      "១": 1039,
      "២": 1040,
      "៣": 1041,
      "៤": 1042,
      "៥": 1043,
      "៦": 1044,
      "៧": 1045,
      "៨": 1046,
      "៩": 1047,
      "ᵇ": 1048,
      "ᵉ": 1049,
      "ḍ": 1050,
      "ḏ": 1051,
      "ḗ": 1052,
      "Ḥ": 1053,
      "ḥ": 1054,
      "Ḩ": 1055,
      "ḩ": 1056,
      "ḫ": 1057,
      "Ḵ": 1058,
      "ḵ": 1059,
      "ḷ": 1060,
      "ḻ": 1061,
      "ḿ": 1062,
      "ṁ": 1063,
      "ṃ": 1064,
      "ṅ": 1065,
      "ṇ": 1066,
      "ṛ": 1067,
      "ṟ": 1068,
      "Ṣ": 1069,
      "ṣ": 1070,
      "Ṭ": 1071,
      "ṭ": 1072,
      "ṯ": 1073,
      "ẓ": 1074,
      "ẕ": 1075,
      "ẖ": 1076,
      "ạ": 1077,
      "ả": 1078,
      "ấ": 1079,
      "ầ": 1080,
      "ẩ": 1081,
      "ậ": 1082,
      "ắ": 1083,
      "ặ": 1084,
      "ẻ": 1085,
      "ẽ": 1086,
      "Ế": 1087,
      "ế": 1088,
      "ề": 1089,
      "ể": 1090,
      "ễ": 1091,
      "ệ": 1092,
      "ỉ": 1093,
      "ị": 1094,
      "ọ": 1095,
      "ỏ": 1096,
      "ố": 1097,
      "ồ": 1098,
      "ổ": 1099,
      "ỗ": 1100,
      "ộ": 1101,
      "ớ": 1102,
      "ờ": 1103,
      "ở": 1104,
      "ợ": 1105,
      "ụ": 1106,
      "ủ": 1107,
      "ứ": 1108,
      "ừ": 1109,
      "ử": 1110,
      "ữ": 1111,
      "ự": 1112,
      "ỳ": 1113,
      "ἀ": 1114,
      "ἄ": 1115,
      "Ἀ": 1116,
      "ἐ": 1117,
      "ἑ": 1118,
      "ἔ": 1119,
      "ἕ": 1120,
      "ἡ": 1121,
      "ἢ": 1122,
      "ἥ": 1123,
      "ἦ": 1124,
      "Ἤ": 1125,
      "ἰ": 1126,
      "ἱ": 1127,
      "ὁ": 1128,
      "ὅ": 1129,
      "ὐ": 1130,
      "ὑ": 1131,
      "ὕ": 1132,
      "ὖ": 1133,
      "ὡ": 1134,
      "ὤ": 1135,
      "Ὦ": 1136,
      "ὰ": 1137,
      "ά": 1138,
      "ὲ": 1139,
      "έ": 1140,
      "ὴ": 1141,
      "ή": 1142,
      "ὶ": 1143,
      "ί": 1144,
      "ὸ": 1145,
      "ό": 1146,
      "ὺ": 1147,
      "ύ": 1148,
      "ὼ": 1149,
      "ᾖ": 1150,
      "ᾧ": 1151,
      "ᾳ": 1152,
      "ᾷ": 1153,
      "ῃ": 1154,
      "ῆ": 1155,
      "ῇ": 1156,
      "ῖ": 1157,
      "ῦ": 1158,
      "ῶ": 1159,
      "ῷ": 1160,
      "​": 1161,
      "‌": 1162,
      "‍": 1163,
      "‎": 1164,
      "‏": 1165,
      "‐": 1166,
      "‑": 1167,
      "‒": 1168,
      "–": 1169,
      "—": 1170,
      "―": 1171,
      "‘": 1172,
      "’": 1173,
      "“": 1174,
      "”": 1175,
      "„": 1176,
      "†": 1177,
      "•": 1178,
      "…": 1179,
      "‬": 1180,
      "‭": 1181,
      "′": 1182,
      "″": 1183,
      "⁄": 1184,
      "⁰": 1185,
      "⁵": 1186,
      "⁺": 1187,
      "⁻": 1188,
      "₀": 1189,
      "₁": 1190,
      "₂": 1191,
      "₃": 1192,
      "₄": 1193,
      "₅": 1194,
      "₆": 1195,
      "₇": 1196,
      "₈": 1197,
      "₋": 1198,
      "₤": 1199,
      "₦": 1200,
      "€": 1201,
      "₵": 1202,
      "₹": 1203,
      "₿": 1204,
      "℈": 1205,
      "℔": 1206,
      "№": 1207,
      "℞": 1208,
      "™": 1209,
      "℥": 1210,
      "⅔": 1211,
      "⅘": 1212,
      "⅛": 1213,
      "⅝": 1214,
      "⅞": 1215,
      "↑": 1216,
      "→": 1217,
      "↓": 1218,
      "∀": 1219,
      "∂": 1220,
      "∃": 1221,
      "∆": 1222,
      "∈": 1223,
      "−": 1224,
      "√": 1225,
      "∞": 1226,
      "∩": 1227,
      "∪": 1228,
      "∫": 1229,
      "∴": 1230,
      "∼": 1231,
      "≈": 1232,
      "≔": 1233,
      "≠": 1234,
      "≡": 1235,
      "≤": 1236,
      "≥": 1237,
      "⊂": 1238,
      "⊆": 1239,
      "⋅": 1240,
      "⌀": 1241,
      "①": 1242,
      "②": 1243,
      "③": 1244,
      "④": 1245,
      "⑤": 1246,
      "⑥": 1247,
      "⑦": 1248,
      "─": 1249,
      "│": 1250,
      "┌": 1251,
      "┐": 1252,
      "└": 1253,
      "┘": 1254,
      "◾": 1255,
      "★": 1256,
      "☆": 1257,
      "☣": 1258,
      "♑": 1259,
      "♙": 1260,
      "♟": 1261,
      "♠": 1262,
      "♣": 1263,
      "♥": 1264,
      "♦": 1265,
      "♪": 1266,
      "♫": 1267,
      "♬": 1268,
      "♭": 1269,
      "♯": 1270,
      "⟨": 1271,
      "⟩": 1272,
      "⬄": 1273,
      "ⲏ": 1274,
      "ⲓ": 1275,
      "ⲛ": 1276,
      "ⲡ": 1277,
      "ⲥ": 1278,
      "⿰": 1279,
      "⿱": 1280,
      "⿺": 1281,
      "、": 1282,
      "。": 1283,
      "《": 1284,
      "》": 1285,
      "「": 1286,
      "」": 1287,
      "『": 1288,
      "』": 1289,
      "あ": 1290,
      "い": 1291,
      "う": 1292,
      "え": 1293,
      "お": 1294,
      "か": 1295,
      "が": 1296,
      "き": 1297,
      "く": 1298,
      "ぐ": 1299,
      "け": 1300,
      "こ": 1301,
      "ご": 1302,
      "さ": 1303,
      "ざ": 1304,
      "し": 1305,
      "じ": 1306,
      "す": 1307,
      "せ": 1308,
      "ぜ": 1309,
      "ぞ": 1310,
      "た": 1311,
      "だ": 1312,
      "ち": 1313,
      "つ": 1314,
      "づ": 1315,
      "て": 1316,
      "で": 1317,
      "と": 1318,
      "な": 1319,
      "に": 1320,
      "ね": 1321,
      "の": 1322,
      "は": 1323,
      "ば": 1324,
      "ひ": 1325,
      "び": 1326,
      "ふ": 1327,
      "へ": 1328,
      "ほ": 1329,
      "ま": 1330,
      "み": 1331,
      "む": 1332,
      "め": 1333,
      "も": 1334,
      "ゃ": 1335,
      "や": 1336,
      "よ": 1337,
      "ら": 1338,
      "り": 1339,
      "る": 1340,
      "れ": 1341,
      "ろ": 1342,
      "わ": 1343,
      "を": 1344,
      "ん": 1345,
      "ア": 1346,
      "ィ": 1347,
      "イ": 1348,
      "ウ": 1349,
      "ェ": 1350,
      "エ": 1351,
      "オ": 1352,
      "カ": 1353,
      "ガ": 1354,
      "キ": 1355,
      "ク": 1356,
      "グ": 1357,
      "ケ": 1358,
      "コ": 1359,
      "ゴ": 1360,
      "サ": 1361,
      "ザ": 1362,
      "シ": 1363,
      "ジ": 1364,
      "ス": 1365,
      "ズ": 1366,
      "セ": 1367,
      "タ": 1368,
      "ダ": 1369,
      "チ": 1370,
      "ッ": 1371,
      "ツ": 1372,
      "テ": 1373,
      "デ": 1374,
      "ト": 1375,
      "ド": 1376,
      "ナ": 1377,
      "ニ": 1378,
      "ヌ": 1379,
      "バ": 1380,
      "パ": 1381,
      "ヒ": 1382,
      "ビ": 1383,
      "フ": 1384,
      "ブ": 1385,
      "プ": 1386,
      "ベ": 1387,
      "ペ": 1388,
      "ホ": 1389,
      "ボ": 1390,
      "ポ": 1391,
      "マ": 1392,
      "ミ": 1393,
      "ム": 1394,
      "メ": 1395,
      "モ": 1396,
      "ャ": 1397,
      "ヤ": 1398,
      "ュ": 1399,
      "ユ": 1400,
      "ョ": 1401,
      "ヨ": 1402,
      "ラ": 1403,
      "リ": 1404,
      "ル": 1405,
      "ロ": 1406,
      "ワ": 1407,
      "ン": 1408,
      "ヶ": 1409,
      "・": 1410,
      "ー": 1411,
      "ㄌ": 1412,
      "ㄑ": 1413,
      "ㄒ": 1414,
      "ㄓ": 1415,
      "ㄕ": 1416,
      "ㄘ": 1417,
      "ㄚ": 1418,
      "ㄢ": 1419,
      "ㄣ": 1420,
      "ㄤ": 1421,
      "ㄧ": 1422,
      "ㄨ": 1423,
      "ㄩ": 1424,
      "㎥": 1425,
      "一": 1426,
      "七": 1427,
      "万": 1428,
      "丈": 1429,
      "三": 1430,
      "上": 1431,
      "下": 1432,
      "与": 1433,
      "世": 1434,
      "业": 1435,
      "东": 1436,
      "两": 1437,
      "中": 1438,
      "丸": 1439,
      "丹": 1440,
      "主": 1441,
      "丽": 1442,
      "久": 1443,
      "义": 1444,
      "之": 1445,
      "九": 1446,
      "乾": 1447,
      "亂": 1448,
      "事": 1449,
      "二": 1450,
      "于": 1451,
      "云": 1452,
      "五": 1453,
      "井": 1454,
      "亜": 1455,
      "亡": 1456,
      "亨": 1457,
      "京": 1458,
      "亭": 1459,
      "人": 1460,
      "介": 1461,
      "仙": 1462,
      "代": 1463,
      "令": 1464,
      "仲": 1465,
      "任": 1466,
      "伉": 1467,
      "伊": 1468,
      "伐": 1469,
      "会": 1470,
      "伯": 1471,
      "伸": 1472,
      "似": 1473,
      "体": 1474,
      "佛": 1475,
      "作": 1476,
      "你": 1477,
      "佳": 1478,
      "使": 1479,
      "來": 1480,
      "供": 1481,
      "侯": 1482,
      "保": 1483,
      "俞": 1484,
      "信": 1485,
      "倉": 1486,
      "値": 1487,
      "倫": 1488,
      "假": 1489,
      "偉": 1490,
      "做": 1491,
      "健": 1492,
      "側": 1493,
      "傳": 1494,
      "傷": 1495,
      "僖": 1496,
      "元": 1497,
      "充": 1498,
      "先": 1499,
      "光": 1500,
      "兒": 1501,
      "党": 1502,
      "全": 1503,
      "八": 1504,
      "公": 1505,
      "兰": 1506,
      "共": 1507,
      "关": 1508,
      "兴": 1509,
      "兵": 1510,
      "养": 1511,
      "内": 1512,
      "円": 1513,
      "冠": 1514,
      "凱": 1515,
      "出": 1516,
      "刀": 1517,
      "刃": 1518,
      "分": 1519,
      "切": 1520,
      "刊": 1521,
      "刚": 1522,
      "初": 1523,
      "利": 1524,
      "刻": 1525,
      "則": 1526,
      "前": 1527,
      "剛": 1528,
      "剣": 1529,
      "劉": 1530,
      "力": 1531,
      "加": 1532,
      "务": 1533,
      "勇": 1534,
      "動": 1535,
      "務": 1536,
      "勛": 1537,
      "勝": 1538,
      "勞": 1539,
      "勳": 1540,
      "化": 1541,
      "北": 1542,
      "匯": 1543,
      "区": 1544,
      "區": 1545,
      "十": 1546,
      "千": 1547,
      "卓": 1548,
      "協": 1549,
      "单": 1550,
      "南": 1551,
      "博": 1552,
      "卢": 1553,
      "卫": 1554,
      "卬": 1555,
      "卵": 1556,
      "厝": 1557,
      "原": 1558,
      "又": 1559,
      "友": 1560,
      "収": 1561,
      "口": 1562,
      "古": 1563,
      "台": 1564,
      "史": 1565,
      "司": 1566,
      "合": 1567,
      "吉": 1568,
      "同": 1569,
      "名": 1570,
      "后": 1571,
      "吕": 1572,
      "启": 1573,
      "吳": 1574,
      "吾": 1575,
      "呂": 1576,
      "周": 1577,
      "味": 1578,
      "命": 1579,
      "和": 1580,
      "哀": 1581,
      "哥": 1582,
      "哲": 1583,
      "唐": 1584,
      "唯": 1585,
      "啓": 1586,
      "啦": 1587,
      "喃": 1588,
      "喇": 1589,
      "喜": 1590,
      "單": 1591,
      "営": 1592,
      "嘉": 1593,
      "嘛": 1594,
      "嘴": 1595,
      "嚴": 1596,
      "囂": 1597,
      "四": 1598,
      "回": 1599,
      "団": 1600,
      "固": 1601,
      "国": 1602,
      "國": 1603,
      "圖": 1604,
      "土": 1605,
      "在": 1606,
      "地": 1607,
      "坂": 1608,
      "均": 1609,
      "城": 1610,
      "執": 1611,
      "培": 1612,
      "堂": 1613,
      "堤": 1614,
      "堪": 1615,
      "報": 1616,
      "境": 1617,
      "墨": 1618,
      "声": 1619,
      "壽": 1620,
      "夏": 1621,
      "夕": 1622,
      "外": 1623,
      "多": 1624,
      "大": 1625,
      "天": 1626,
      "太": 1627,
      "夫": 1628,
      "央": 1629,
      "头": 1630,
      "奈": 1631,
      "契": 1632,
      "奚": 1633,
      "奥": 1634,
      "女": 1635,
      "奴": 1636,
      "好": 1637,
      "如": 1638,
      "始": 1639,
      "姑": 1640,
      "姬": 1641,
      "娣": 1642,
      "娥": 1643,
      "嬰": 1644,
      "子": 1645,
      "孔": 1646,
      "字": 1647,
      "存": 1648,
      "孝": 1649,
      "学": 1650,
      "孫": 1651,
      "宇": 1652,
      "守": 1653,
      "安": 1654,
      "宋": 1655,
      "完": 1656,
      "宗": 1657,
      "定": 1658,
      "宛": 1659,
      "宜": 1660,
      "宝": 1661,
      "実": 1662,
      "宮": 1663,
      "家": 1664,
      "寂": 1665,
      "寇": 1666,
      "寒": 1667,
      "實": 1668,
      "寵": 1669,
      "寶": 1670,
      "寿": 1671,
      "専": 1672,
      "將": 1673,
      "尉": 1674,
      "尋": 1675,
      "小": 1676,
      "少": 1677,
      "尘": 1678,
      "尚": 1679,
      "尹": 1680,
      "尾": 1681,
      "局": 1682,
      "屏": 1683,
      "展": 1684,
      "属": 1685,
      "屠": 1686,
      "山": 1687,
      "岁": 1688,
      "岑": 1689,
      "岛": 1690,
      "岡": 1691,
      "岩": 1692,
      "岸": 1693,
      "峰": 1694,
      "島": 1695,
      "崇": 1696,
      "崔": 1697,
      "巉": 1698,
      "川": 1699,
      "州": 1700,
      "工": 1701,
      "左": 1702,
      "巴": 1703,
      "巻": 1704,
      "市": 1705,
      "希": 1706,
      "帝": 1707,
      "带": 1708,
      "師": 1709,
      "帯": 1710,
      "常": 1711,
      "幫": 1712,
      "干": 1713,
      "平": 1714,
      "年": 1715,
      "幸": 1716,
      "幻": 1717,
      "广": 1718,
      "広": 1719,
      "庆": 1720,
      "府": 1721,
      "度": 1722,
      "庭": 1723,
      "康": 1724,
      "廣": 1725,
      "延": 1726,
      "建": 1727,
      "式": 1728,
      "弓": 1729,
      "弘": 1730,
      "张": 1731,
      "弥": 1732,
      "張": 1733,
      "彤": 1734,
      "彦": 1735,
      "彩": 1736,
      "彫": 1737,
      "彭": 1738,
      "径": 1739,
      "後": 1740,
      "得": 1741,
      "御": 1742,
      "徳": 1743,
      "徵": 1744,
      "德": 1745,
      "心": 1746,
      "志": 1747,
      "忠": 1748,
      "念": 1749,
      "怡": 1750,
      "恂": 1751,
      "恋": 1752,
      "恭": 1753,
      "情": 1754,
      "想": 1755,
      "愛": 1756,
      "憲": 1757,
      "懿": 1758,
      "戎": 1759,
      "成": 1760,
      "我": 1761,
      "战": 1762,
      "戯": 1763,
      "戲": 1764,
      "戸": 1765,
      "扇": 1766,
      "才": 1767,
      "扬": 1768,
      "承": 1769,
      "技": 1770,
      "抹": 1771,
      "拓": 1772,
      "拔": 1773,
      "拳": 1774,
      "挂": 1775,
      "措": 1776,
      "揚": 1777,
      "摺": 1778,
      "撑": 1779,
      "放": 1780,
      "故": 1781,
      "敎": 1782,
      "敏": 1783,
      "教": 1784,
      "敦": 1785,
      "敬": 1786,
      "文": 1787,
      "斗": 1788,
      "新": 1789,
      "方": 1790,
      "旗": 1791,
      "无": 1792,
      "日": 1793,
      "旧": 1794,
      "早": 1795,
      "旺": 1796,
      "昆": 1797,
      "昌": 1798,
      "明": 1799,
      "春": 1800,
      "晁": 1801,
      "時": 1802,
      "晃": 1803,
      "晉": 1804,
      "晋": 1805,
      "晨": 1806,
      "景": 1807,
      "智": 1808,
      "暐": 1809,
      "暢": 1810,
      "暴": 1811,
      "曙": 1812,
      "曳": 1813,
      "更": 1814,
      "書": 1815,
      "曾": 1816,
      "會": 1817,
      "有": 1818,
      "朗": 1819,
      "望": 1820,
      "朝": 1821,
      "木": 1822,
      "末": 1823,
      "本": 1824,
      "术": 1825,
      "朱": 1826,
      "李": 1827,
      "村": 1828,
      "杜": 1829,
      "束": 1830,
      "条": 1831,
      "杨": 1832,
      "東": 1833,
      "松": 1834,
      "板": 1835,
      "析": 1836,
      "林": 1837,
      "染": 1838,
      "柚": 1839,
      "柜": 1840,
      "柱": 1841,
      "柴": 1842,
      "栗": 1843,
      "校": 1844,
      "根": 1845,
      "桂": 1846,
      "桥": 1847,
      "梁": 1848,
      "梅": 1849,
      "森": 1850,
      "植": 1851,
      "楊": 1852,
      "楼": 1853,
      "楽": 1854,
      "榜": 1855,
      "榮": 1856,
      "樂": 1857,
      "樊": 1858,
      "横": 1859,
      "次": 1860,
      "欲": 1861,
      "欽": 1862,
      "歌": 1863,
      "歙": 1864,
      "正": 1865,
      "步": 1866,
      "武": 1867,
      "歷": 1868,
      "死": 1869,
      "毅": 1870,
      "毒": 1871,
      "比": 1872,
      "氏": 1873,
      "民": 1874,
      "気": 1875,
      "水": 1876,
      "永": 1877,
      "汀": 1878,
      "江": 1879,
      "池": 1880,
      "汪": 1881,
      "決": 1882,
      "汽": 1883,
      "汾": 1884,
      "沘": 1885,
      "沙": 1886,
      "沢": 1887,
      "沮": 1888,
      "河": 1889,
      "況": 1890,
      "泉": 1891,
      "法": 1892,
      "泻": 1893,
      "洁": 1894,
      "洋": 1895,
      "洞": 1896,
      "津": 1897,
      "洪": 1898,
      "洲": 1899,
      "活": 1900,
      "流": 1901,
      "济": 1902,
      "浜": 1903,
      "浦": 1904,
      "海": 1905,
      "涇": 1906,
      "混": 1907,
      "清": 1908,
      "済": 1909,
      "渋": 1910,
      "渠": 1911,
      "渡": 1912,
      "港": 1913,
      "渹": 1914,
      "湖": 1915,
      "湾": 1916,
      "溪": 1917,
      "滚": 1918,
      "漁": 1919,
      "漢": 1920,
      "漬": 1921,
      "潔": 1922,
      "潭": 1923,
      "澧": 1924,
      "濡": 1925,
      "瀑": 1926,
      "火": 1927,
      "灯": 1928,
      "炊": 1929,
      "炒": 1930,
      "炜": 1931,
      "炟": 1932,
      "煌": 1933,
      "煙": 1934,
      "照": 1935,
      "煮": 1936,
      "熱": 1937,
      "燃": 1938,
      "燕": 1939,
      "營": 1940,
      "父": 1941,
      "爽": 1942,
      "物": 1943,
      "狙": 1944,
      "独": 1945,
      "狱": 1946,
      "獄": 1947,
      "玄": 1948,
      "玉": 1949,
      "王": 1950,
      "玑": 1951,
      "玛": 1952,
      "珍": 1953,
      "珪": 1954,
      "班": 1955,
      "現": 1956,
      "球": 1957,
      "琅": 1958,
      "理": 1959,
      "琉": 1960,
      "琊": 1961,
      "琤": 1962,
      "琮": 1963,
      "瑰": 1964,
      "瓦": 1965,
      "甄": 1966,
      "甘": 1967,
      "生": 1968,
      "用": 1969,
      "田": 1970,
      "由": 1971,
      "申": 1972,
      "男": 1973,
      "町": 1974,
      "画": 1975,
      "界": 1976,
      "畔": 1977,
      "畵": 1978,
      "疆": 1979,
      "疎": 1980,
      "発": 1981,
      "登": 1982,
      "發": 1983,
      "白": 1984,
      "百": 1985,
      "的": 1986,
      "皇": 1987,
      "益": 1988,
      "监": 1989,
      "盧": 1990,
      "相": 1991,
      "省": 1992,
      "県": 1993,
      "真": 1994,
      "眷": 1995,
      "眾": 1996,
      "知": 1997,
      "矯": 1998,
      "石": 1999,
      "研": 2000,
      "破": 2001,
      "碑": 2002,
      "社": 2003,
      "祀": 2004,
      "祉": 2005,
      "祜": 2006,
      "神": 2007,
      "祥": 2008,
      "祭": 2009,
      "祿": 2010,
      "福": 2011,
      "禹": 2012,
      "禿": 2013,
      "秉": 2014,
      "秒": 2015,
      "程": 2016,
      "稔": 2017,
      "稲": 2018,
      "稷": 2019,
      "積": 2020,
      "究": 2021,
      "穿": 2022,
      "竇": 2023,
      "立": 2024,
      "章": 2025,
      "竦": 2026,
      "笈": 2027,
      "笑": 2028,
      "第": 2029,
      "筆": 2030,
      "筑": 2031,
      "筠": 2032,
      "签": 2033,
      "管": 2034,
      "節": 2035,
      "篤": 2036,
      "米": 2037,
      "粉": 2038,
      "系": 2039,
      "紅": 2040,
      "紆": 2041,
      "納": 2042,
      "純": 2043,
      "紙": 2044,
      "素": 2045,
      "終": 2046,
      "経": 2047,
      "絜": 2048,
      "統": 2049,
      "絵": 2050,
      "經": 2051,
      "維": 2052,
      "綱": 2053,
      "総": 2054,
      "線": 2055,
      "縣": 2056,
      "總": 2057,
      "经": 2058,
      "结": 2059,
      "置": 2060,
      "羅": 2061,
      "羌": 2062,
      "美": 2063,
      "群": 2064,
      "義": 2065,
      "羲": 2066,
      "翠": 2067,
      "翼": 2068,
      "耀": 2069,
      "者": 2070,
      "而": 2071,
      "耿": 2072,
      "职": 2073,
      "聖": 2074,
      "聶": 2075,
      "股": 2076,
      "育": 2077,
      "胜": 2078,
      "能": 2079,
      "脩": 2080,
      "脱": 2081,
      "腕": 2082,
      "臣": 2083,
      "臧": 2084,
      "臨": 2085,
      "自": 2086,
      "致": 2087,
      "臼": 2088,
      "舂": 2089,
      "興": 2090,
      "舞": 2091,
      "舟": 2092,
      "良": 2093,
      "色": 2094,
      "艺": 2095,
      "芦": 2096,
      "花": 2097,
      "芸": 2098,
      "苗": 2099,
      "若": 2100,
      "英": 2101,
      "茶": 2102,
      "草": 2103,
      "荡": 2104,
      "药": 2105,
      "荷": 2106,
      "莊": 2107,
      "莫": 2108,
      "菎": 2109,
      "萌": 2110,
      "萬": 2111,
      "落": 2112,
      "葛": 2113,
      "蒋": 2114,
      "蒟": 2115,
      "蒲": 2116,
      "蒻": 2117,
      "蒼": 2118,
      "蓁": 2119,
      "蓋": 2120,
      "蓝": 2121,
      "蔡": 2122,
      "藍": 2123,
      "藤": 2124,
      "藥": 2125,
      "藻": 2126,
      "蘭": 2127,
      "虫": 2128,
      "虹": 2129,
      "蝶": 2130,
      "融": 2131,
      "蟾": 2132,
      "行": 2133,
      "術": 2134,
      "街": 2135,
      "衫": 2136,
      "袁": 2137,
      "袋": 2138,
      "裕": 2139,
      "裙": 2140,
      "裳": 2141,
      "西": 2142,
      "要": 2143,
      "観": 2144,
      "观": 2145,
      "解": 2146,
      "言": 2147,
      "訓": 2148,
      "記": 2149,
      "詠": 2150,
      "誌": 2151,
      "語": 2152,
      "論": 2153,
      "謝": 2154,
      "議": 2155,
      "護": 2156,
      "讃": 2157,
      "训": 2158,
      "记": 2159,
      "讲": 2160,
      "谷": 2161,
      "豆": 2162,
      "豊": 2163,
      "豐": 2164,
      "象": 2165,
      "豫": 2166,
      "貞": 2167,
      "財": 2168,
      "貫": 2169,
      "責": 2170,
      "貳": 2171,
      "貴": 2172,
      "買": 2173,
      "賜": 2174,
      "賞": 2175,
      "賴": 2176,
      "贊": 2177,
      "贺": 2178,
      "赤": 2179,
      "赫": 2180,
      "走": 2181,
      "起": 2182,
      "越": 2183,
      "趙": 2184,
      "蹊": 2185,
      "蹴": 2186,
      "躬": 2187,
      "車": 2188,
      "軍": 2189,
      "軒": 2190,
      "転": 2191,
      "軼": 2192,
      "輔": 2193,
      "輿": 2194,
      "轄": 2195,
      "轉": 2196,
      "车": 2197,
      "辦": 2198,
      "農": 2199,
      "边": 2200,
      "辺": 2201,
      "込": 2202,
      "达": 2203,
      "返": 2204,
      "进": 2205,
      "迫": 2206,
      "述": 2207,
      "迷": 2208,
      "逆": 2209,
      "选": 2210,
      "透": 2211,
      "通": 2212,
      "速": 2213,
      "週": 2214,
      "進": 2215,
      "遊": 2216,
      "運": 2217,
      "過": 2218,
      "道": 2219,
      "達": 2220,
      "選": 2221,
      "遼": 2222,
      "邑": 2223,
      "邳": 2224,
      "邴": 2225,
      "邻": 2226,
      "郎": 2227,
      "部": 2228,
      "郭": 2229,
      "都": 2230,
      "鄉": 2231,
      "鄧": 2232,
      "鄭": 2233,
      "鄮": 2234,
      "鄰": 2235,
      "酒": 2236,
      "醉": 2237,
      "里": 2238,
      "重": 2239,
      "野": 2240,
      "金": 2241,
      "鉄": 2242,
      "鉅": 2243,
      "鉢": 2244,
      "鉴": 2245,
      "錦": 2246,
      "録": 2247,
      "鍠": 2248,
      "鎮": 2249,
      "鑴": 2250,
      "钟": 2251,
      "钱": 2252,
      "镇": 2253,
      "長": 2254,
      "长": 2255,
      "門": 2256,
      "開": 2257,
      "閏": 2258,
      "関": 2259,
      "閣": 2260,
      "閻": 2261,
      "關": 2262,
      "闞": 2263,
      "门": 2264,
      "问": 2265,
      "阜": 2266,
      "阪": 2267,
      "阮": 2268,
      "阿": 2269,
      "陆": 2270,
      "陈": 2271,
      "院": 2272,
      "陰": 2273,
      "陵": 2274,
      "陸": 2275,
      "陽": 2276,
      "隆": 2277,
      "隗": 2278,
      "障": 2279,
      "雁": 2280,
      "雄": 2281,
      "雅": 2282,
      "集": 2283,
      "雨": 2284,
      "雪": 2285,
      "震": 2286,
      "霞": 2287,
      "霸": 2288,
      "靈": 2289,
      "青": 2290,
      "静": 2291,
      "面": 2292,
      "革": 2293,
      "韓": 2294,
      "韦": 2295,
      "韩": 2296,
      "音": 2297,
      "順": 2298,
      "頓": 2299,
      "顯": 2300,
      "顺": 2301,
      "题": 2302,
      "風": 2303,
      "飘": 2304,
      "飯": 2305,
      "館": 2306,
      "香": 2307,
      "馨": 2308,
      "馬": 2309,
      "馮": 2310,
      "駅": 2311,
      "駰": 2312,
      "騭": 2313,
      "马": 2314,
      "體": 2315,
      "高": 2316,
      "髪": 2317,
      "髮": 2318,
      "鬱": 2319,
      "魁": 2320,
      "魚": 2321,
      "魯": 2322,
      "鮪": 2323,
      "鮮": 2324,
      "鳥": 2325,
      "鳳": 2326,
      "鵝": 2327,
      "鹅": 2328,
      "鹰": 2329,
      "鹿": 2330,
      "黃": 2331,
      "黄": 2332,
      "黛": 2333,
      "鼻": 2334,
      "龙": 2335,
      "Ꙑ": 2336,
      "ꙑ": 2337,
      "ꯀ": 2338,
      "ꯁ": 2339,
      "ꯂ": 2340,
      "ꯃ": 2341,
      "ꯄ": 2342,
      "ꯅ": 2343,
      "ꯈ": 2344,
      "ꯉ": 2345,
      "ꯊ": 2346,
      "ꯍ": 2347,
      "ꯏ": 2348,
      "ꯑ": 2349,
      "ꯔ": 2350,
      "ꯕ": 2351,
      "ꯗ": 2352,
      "ꯛ": 2353,
      "ꯜ": 2354,
      "ꯟ": 2355,
      "ꯡ": 2356,
      "ꯢ": 2357,
      "ꯣ": 2358,
      "ꯤ": 2359,
      "ꯥ": 2360,
      "ꯦ": 2361,
      "ꯧ": 2362,
      "ꯨ": 2363,
      "ꯩ": 2364,
      "가": 2365,
      "강": 2366,
      "검": 2367,
      "겠": 2368,
      "괴": 2369,
      "구": 2370,
      "국": 2371,
      "근": 2372,
      "기": 2373,
      "김": 2374,
      "나": 2375,
      "남": 2376,
      "널": 2377,
      "노": 2378,
      "눈": 2379,
      "니": 2380,
      "다": 2381,
      "당": 2382,
      "대": 2383,
      "도": 2384,
      "동": 2385,
      "두": 2386,
      "떡": 2387,
      "라": 2388,
      "란": 2389,
      "래": 2390,
      "럼": 2391,
      "로": 2392,
      "리": 2393,
      "말": 2394,
      "매": 2395,
      "먹": 2396,
      "먼": 2397,
      "메": 2398,
      "명": 2399,
      "무": 2400,
      "미": 2401,
      "민": 2402,
      "백": 2403,
      "보": 2404,
      "봉": 2405,
      "부": 2406,
      "북": 2407,
      "불": 2408,
      "사": 2409,
      "산": 2410,
      "삼": 2411,
      "샤": 2412,
      "서": 2413,
      "선": 2414,
      "소": 2415,
      "손": 2416,
      "수": 2417,
      "순": 2418,
      "술": 2419,
      "스": 2420,
      "습": 2421,
      "승": 2422,
      "신": 2423,
      "실": 2424,
      "썬": 2425,
      "아": 2426,
      "악": 2427,
      "안": 2428,
      "애": 2429,
      "양": 2430,
      "어": 2431,
      "었": 2432,
      "에": 2433,
      "엔": 2434,
      "영": 2435,
      "옥": 2436,
      "왕": 2437,
      "우": 2438,
      "유": 2439,
      "윤": 2440,
      "이": 2441,
      "익": 2442,
      "인": 2443,
      "일": 2444,
      "잘": 2445,
      "저": 2446,
      "전": 2447,
      "정": 2448,
      "제": 2449,
      "조": 2450,
      "주": 2451,
      "중": 2452,
      "진": 2453,
      "찰": 2454,
      "창": 2455,
      "채": 2456,
      "총": 2457,
      "최": 2458,
      "치": 2459,
      "코": 2460,
      "크": 2461,
      "터": 2462,
      "테": 2463,
      "트": 2464,
      "티": 2465,
      "평": 2466,
      "포": 2467,
      "하": 2468,
      "한": 2469,
      "행": 2470,
      "헌": 2471,
      "혁": 2472,
      "협": 2473,
      "호": 2474,
      "홉": 2475,
      "홍": 2476,
      "화": 2477,
      "회": 2478,
      "휴": 2479,
      "희": 2480,
      "﨑": 2481,
      "ﬂ": 2482,
      "︢": 2483,
      "ﺍ": 2484,
      "ﺒ": 2485,
      "ﻟ": 2486,
      "ﻨ": 2487,
      "ﻲ": 2488,
      "﻿": 2489,
      "！": 2490,
      "（": 2491,
      "）": 2492,
      "＊": 2493,
      "，": 2494,
      "－": 2495,
      "．": 2496,
      "２": 2497,
      "５": 2498,
      "：": 2499,
      "？": 2500,
      "～": 2501,
      "�": 2502,
      "𐎹": 2503,
      "𐨂": 2504,
      "𐨐": 2505,
      "𐨤": 2506,
      "𐨪": 2507,
      "𒀸": 2508,
      "𒁺": 2509,
      "𒋗": 2510,
      "th": 2511,
      "in": 2512,
      "er": 2513,
      "an": 2514,
      "the": 2515,
      "ou": 2516,
      "on": 2517,
      "at": 2518,
      "re": 2519,
      "is": 2520,
      "en": 2521,
      "to": 2522,
      "ed": 2523,
      "or": 2524,
      "al": 2525,
      "ing": 2526,
      "as": 2527,
      "it": 2528,
      "es": 2529,
      "and": 2530,
      "ar": 2531,
      "of": 2532,
      "you": 2533,
      "he": 2534,
      "me": 2535,
      "le": 2536,
      "st": 2537,
      "ll": 2538,
      "ic": 2539,
      "ow": 2540,
      "se": 2541,
      "ve": 2542,
      "be": 2543,
      "wh": 2544,
      "ay": 2545,
      "ro": 2546,
      "ha": 2547,
      "that": 2548,
      "ere": 2549,
      "ion": 2550,
      "ac": 2551,
      "ly": 2552,
      "id": 2553,
      "ot": 2554,
      "gh": 2555,
      "ent": 2556,
      "was": 2557,
      "for": 2558,
      "ld": 2559,
      "ch": 2560,
      "ver": 2561,
      "ut": 2562,
      "wi": 2563,
      "ad": 2564,
      "so": 2565,
      "li": 2566,
      "ri": 2567,
      "co": 2568,
      "et": 2569,
      "we": 2570,
      "..": 2571,
      "ir": 2572,
      "nd": 2573,
      "ke": 2574,
      "am": 2575,
      "are": 2576,
      "ght": 2577,
      "The": 2578,
      "all": 2579,
      "oo": 2580,
      "ter": 2581,
      "do": 2582,
      "im": 2583,
      "ab": 2584,
      "us": 2585,
      "with": 2586,
      "ne": 2587,
      "ur": 2588,
      "out": 2589,
      "one": 2590,
      "ce": 2591,
      "now": 2592,
      "ag": 2593,
      "Th": 2594,
      "mo": 2595,
      "un": 2596,
      "pe": 2597,
      "ther": 2598,
      "have": 2599,
      "de": 2600,
      "this": 2601,
      "go": 2602,
      "il": 2603,
      "Wh": 2604,
      "not": 2605,
      "sh": 2606,
      "up": 2607,
      "ant": 2608,
      "ould": 2609,
      "lo": 2610,
      "ust": 2611,
      "ation": 2612,
      "tr": 2613,
      "You": 2614,
      "ain": 2615,
      "te": 2616,
      "He": 2617,
      "po": 2618,
      "It": 2619,
      "if": 2620,
      "my": 2621,
      "con": 2622,
      "ct": 2623,
      "know": 2624,
      "his": 2625,
      "rom": 2626,
      "man": 2627,
      "ul": 2628,
      "pl": 2629,
      "can": 2630,
      "what": 2631,
      "our": 2632,
      "by": 2633,
      "...": 2634,
      "est": 2635,
      "thing": 2636,
      "fe": 2637,
      "ap": 2638,
      "art": 2639,
      "they": 2640,
      "res": 2641,
      "no": 2642,
      "com": 2643,
      "ers": 2644,
      "from": 2645,
      "ill": 2646,
      "op": 2647,
      "your": 2648,
      "sa": 2649,
      "um": 2650,
      "but": 2651,
      "her": 2652,
      "We": 2653,
      "ess": 2654,
      "ate": 2655,
      "there": 2656,
      "wor": 2657,
      "19": 2658,
      "some": 2659,
      "ti": 2660,
      "ca": 2661,
      "ally": 2662,
      "pro": 2663,
      "had": 2664,
      "20": 2665,
      "ard": 2666,
      "qu": 2667,
      "ah": 2668,
      "ex": 2669,
      "su": 2670,
      "ig": 2671,
      "get": 2672,
      "like": 2673,
      "ack": 2674,
      "And": 2675,
      "way": 2676,
      "him": 2677,
      "don": 2678,
      "bo": 2679,
      "ind": 2680,
      "very": 2681,
      "ge": 2682,
      "ist": 2683,
      "end": 2684,
      "ment": 2685,
      "king": 2686,
      "ry": 2687,
      "ood": 2688,
      "ake": 2689,
      "ight": 2690,
      "ong": 2691,
      "ive": 2692,
      "ie": 2693,
      "about": 2694,
      "ye": 2695,
      "were": 2696,
      "she": 2697,
      "ity": 2698,
      "ound": 2699,
      "just": 2700,
      "ber": 2701,
      "ich": 2702,
      "ast": 2703,
      "use": 2704,
      "who": 2705,
      "own": 2706,
      "ck": 2707,
      "ink": 2708,
      "right": 2709,
      "here": 2710,
      "any": 2711,
      "What": 2712,
      "see": 2713,
      "el": 2714,
      "So": 2715,
      "did": 2716,
      "ook": 2717,
      "fo": 2718,
      "ho": 2719,
      "gr": 2720,
      "In": 2721,
      "ine": 2722,
      "No": 2723,
      "na": 2724,
      "ish": 2725,
      "wo": 2726,
      "them": 2727,
      "want": 2728,
      "per": 2729,
      "ort": 2730,
      "would": 2731,
      "ra": 2732,
      "ven": 2733,
      "ide": 2734,
      "got": 2735,
      "other": 2736,
      "ice": 2737,
      "has": 2738,
      "ep": 2739,
      "will": 2740,
      "ous": 2741,
      "ci": 2742,
      "act": 2743,
      "om": 2744,
      "di": 2745,
      "which": 2746,
      "ak": 2747,
      "ough": 2748,
      "think": 2749,
      "bl": 2750,
      "oun": 2751,
      "day": 2752,
      "time": 2753,
      "ure": 2754,
      "ol": 2755,
      "when": 2756,
      "say": 2757,
      "cl": 2758,
      "age": 2759,
      "itt": 2760,
      "been": 2761,
      "af": 2762,
      "But": 2763,
      "ace": 2764,
      "Oh": 2765,
      "ans": 2766,
      "ty": 2767,
      "Ye": 2768,
      "ass": 2769,
      "more": 2770,
      "off": 2771,
      "over": 2772,
      "said": 2773,
      "ang": 2774,
      "ies": 2775,
      "ary": 2776,
      "That": 2777,
      "sp": 2778,
      "br": 2779,
      "then": 2780,
      "ople": 2781,
      "Yeah": 2782,
      "come": 2783,
      "ia": 2784,
      "ree": 2785,
      "ick": 2786,
      "und": 2787,
      "going": 2788,
      "their": 2789,
      "red": 2790,
      "ach": 2791,
      "ple": 2792,
      "ite": 2793,
      "ok": 2794,
      "ated": 2795,
      "back": 2796,
      "St": 2797,
      "part": 2798,
      "where": 2799,
      "fir": 2800,
      "pp": 2801,
      "tor": 2802,
      "cause": 2803,
      "mer": 2804,
      "Ch": 2805,
      "people": 2806,
      "could": 2807,
      "how": 2808,
      "ars": 2809,
      "let": 2810,
      "ble": 2811,
      "ud": 2812,
      "av": 2813,
      "two": 2814,
      "ue": 2815,
      "em": 2816,
      "ank": 2817,
      "sel": 2818,
      "pr": 2819,
      "good": 2820,
      "work": 2821,
      "ord": 2822,
      "ase": 2823,
      "ved": 2824,
      "first": 2825,
      "This": 2826,
      "--": 2827,
      "look": 2828,
      "ian": 2829,
      "ade": 2830,
      "She": 2831,
      "They": 2832,
      "down": 2833,
      "into": 2834,
      "Well": 2835,
      "well": 2836,
      "dis": 2837,
      "au": 2838,
      "ance": 2839,
      "able": 2840,
      "ence": 2841,
      "call": 2842,
      "ater": 2843,
      "ser": 2844,
      "ave": 2845,
      "ip": 2846,
      "00": 2847,
      "fore": 2848,
      "its": 2849,
      "int": 2850,
      "also": 2851,
      "oh": 2852,
      "201": 2853,
      "cre": 2854,
      "orn": 2855,
      "new": 2856,
      "dy": 2857,
      "mber": 2858,
      "gu": 2859,
      "play": 2860,
      "ittle": 2861,
      "put": 2862,
      "pos": 2863,
      "fer": 2864,
      "only": 2865,
      "ions": 2866,
      "sto": 2867,
      "land": 2868,
      "port": 2869,
      "ought": 2870,
      "od": 2871,
      "pre": 2872,
      "min": 2873,
      "every": 2874,
      "again": 2875,
      "bet": 2876,
      "mu": 2877,
      "si": 2878,
      "pres": 2879,
      "little": 2880,
      "gre": 2881,
      "tal": 2882,
      "bu": 2883,
      "ren": 2884,
      "urn": 2885,
      "aw": 2886,
      "ever": 2887,
      "Un": 2888,
      "ving": 2889,
      "because": 2890,
      "Yes": 2891,
      "self": 2892,
      "ru": 2893,
      "read": 2894,
      "than": 2895,
      "need": 2896,
      "after": 2897,
      "make": 2898,
      "ob": 2899,
      "tell": 2900,
      "spe": 2901,
      "mon": 2902,
      "ves": 2903,
      "ild": 2904,
      "ark": 2905,
      "take": 2906,
      "ma": 2907,
      "ose": 2908,
      "form": 2909,
      "fa": 2910,
      "really": 2911,
      "pt": 2912,
      "There": 2913,
      "ph": 2914,
      "most": 2915,
      "came": 2916,
      "ical": 2917,
      "should": 2918,
      "ign": 2919,
      "try": 2920,
      "ens": 2921,
      "under": 2922,
      "thr": 2923,
      "tain": 2924,
      "long": 2925,
      "happ": 2926,
      "hi": 2927,
      "old": 2928,
      "does": 2929,
      "ile": 2930,
      "these": 2931,
      "too": 2932,
      "iz": 2933,
      "How": 2934,
      "coun": 2935,
      "gon": 2936,
      "uh": 2937,
      "Co": 2938,
      "mean": 2939,
      "much": 2940,
      "ction": 2941,
      "iss": 2942,
      "used": 2943,
      "something": 2944,
      "du": 2945,
      "ates": 2946,
      "fl": 2947,
      "ng": 2948,
      "ting": 2949,
      "wr": 2950,
      "men": 2951,
      "inter": 2952,
      "ts": 2953,
      "car": 2954,
      "made": 2955,
      ".\"": 2956,
      "gonna": 2957,
      "ath": 2958,
      "may": 2959,
      "Do": 2960,
      "If": 2961,
      "many": 2962,
      "won": 2963,
      "Be": 2964,
      "200": 2965,
      "ire": 2966,
      "cent": 2967,
      "hel": 2968,
      "even": 2969,
      "An": 2970,
      "ps": 2971,
      "cr": 2972,
      "went": 2973,
      "before": 2974,
      "ta": 2975,
      "fu": 2976,
      "didn": 2977,
      "turn": 2978,
      "fin": 2979,
      "ited": 2980,
      "ask": 2981,
      "ition": 2982,
      "med": 2983,
      "never": 2984,
      "ft": 2985,
      "side": 2986,
      "Ro": 2987,
      "amp": 2988,
      "ouse": 2989,
      "yes": 2990,
      "ool": 2991,
      "body": 2992,
      "Re": 2993,
      "ys": 2994,
      "Ne": 2995,
      "Al": 2996,
      "ms": 2997,
      "les": 2998,
      "des": 2999,
      "hand": 3000,
      "years": 3001,
      "ict": 3002,
      "ually": 3003,
      "ss": 3004,
      "okay": 3005,
      "att": 3006,
      "cont": 3007,
      "der": 3008,
      "vers": 3009,
      "Mr": 3010,
      "De": 3011,
      "atch": 3012,
      "sup": 3013,
      "dif": 3014,
      "ious": 3015,
      "through": 3016,
      "life": 3017,
      "ise": 3018,
      "Is": 3019,
      "comp": 3020,
      "head": 3021,
      "ried": 3022,
      "ces": 3023,
      "stand": 3024,
      "ily": 3025,
      "ations": 3026,
      "lie": 3027,
      "three": 3028,
      "ful": 3029,
      "cle": 3030,
      "18": 3031,
      "All": 3032,
      "son": 3033,
      "those": 3034,
      "start": 3035,
      "found": 3036,
      "ran": 3037,
      "cour": 3038,
      "sc": 3039,
      "cer": 3040,
      "vis": 3041,
      "thought": 3042,
      "col": 3043,
      "still": 3044,
      "cess": 3045,
      "Ar": 3046,
      "gen": 3047,
      "ward": 3048,
      "ince": 3049,
      "things": 3050,
      "ton": 3051,
      "Br": 3052,
      "llow": 3053,
      "clo": 3054,
      "away": 3055,
      "yeah": 3056,
      "give": 3057,
      "tim": 3058,
      "love": 3059,
      "ele": 3060,
      "Mar": 3061,
      "doing": 3062,
      "cond": 3063,
      "find": 3064,
      "ways": 3065,
      "last": 3066,
      "als": 3067,
      "pol": 3068,
      "called": 3069,
      "ff": 3070,
      "As": 3071,
      "name": 3072,
      "mar": 3073,
      "night": 3074,
      "Don": 3075,
      "ear": 3076,
      "ident": 3077,
      "pri": 3078,
      "Why": 3079,
      "bit": 3080,
      "home": 3081,
      "Now": 3082,
      "great": 3083,
      "must": 3084,
      "being": 3085,
      "bro": 3086,
      "show": 3087,
      "oney": 3088,
      "lot": 3089,
      "sy": 3090,
      "ten": 3091,
      "place": 3092,
      "ican": 3093,
      "ship": 3094,
      "ced": 3095,
      "sm": 3096,
      "Ok": 3097,
      "fri": 3098,
      "light": 3099,
      "\".": 3100,
      "Le": 3101,
      "help": 3102,
      "sure": 3103,
      "ult": 3104,
      "che": 3105,
      "Se": 3106,
      "Amer": 3107,
      "less": 3108,
      "On": 3109,
      "why": 3110,
      "str": 3111,
      "pu": 3112,
      "ings": 3113,
      "care": 3114,
      "set": 3115,
      "ened": 3116,
      "comm": 3117,
      "point": 3118,
      "fam": 3119,
      "gan": 3120,
      "such": 3121,
      "unt": 3122,
      "ress": 3123,
      "friend": 3124,
      "dr": 3125,
      "gi": 3126,
      "kill": 3127,
      "ational": 3128,
      "irl": 3129,
      "sur": 3130,
      "When": 3131,
      "kind": 3132,
      "bab": 3133,
      "same": 3134,
      "ait": 3135,
      "nor": 3136,
      "pers": 3137,
      "Let": 3138,
      "uck": 3139,
      "cur": 3140,
      "ev": 3141,
      "air": 3142,
      "ating": 3143,
      "ial": 3144,
      "member": 3145,
      "differ": 3146,
      "big": 3147,
      "house": 3148,
      "born": 3149,
      "ased": 3150,
      "chool": 3151,
      "vie": 3152,
      "ning": 3153,
      "sing": 3154,
      "''": 3155,
      "world": 3156,
      "For": 3157,
      "My": 3158,
      "ash": 3159,
      "cted": 3160,
      "\",": 3161,
      "ower": 3162,
      "fr": 3163,
      "ason": 3164,
      "num": 3165,
      "times": 3166,
      "IN": 3167,
      "je": 3168,
      "feel": 3169,
      "Come": 3170,
      "``": 3171,
      "gg": 3172,
      "Okay": 3173,
      "known": 3174,
      "la": 3175,
      ").": 3176,
      "year": 3177,
      "uring": 3178,
      "),": 3179,
      "ctor": 3180,
      "Ju": 3181,
      "199": 3182,
      "outh": 3183,
      "mp": 3184,
      "talk": 3185,
      "xt": 3186,
      "around": 3187,
      "reg": 3188,
      "might": 3189,
      "child": 3190,
      "ga": 3191,
      "atter": 3192,
      "ek": 3193,
      "jo": 3194,
      "ese": 3195,
      "cy": 3196,
      "four": 3197,
      "high": 3198,
      "io": 3199,
      "led": 3200,
      "ents": 3201,
      "Thank": 3202,
      "ready": 3203,
      "ith": 3204,
      "Hey": 3205,
      "May": 3206,
      "ner": 3207,
      "run": 3208,
      "word": 3209,
      "bre": 3210,
      "main": 3211,
      "ween": 3212,
      "New": 3213,
      "another": 3214,
      "Sh": 3215,
      "cord": 3216,
      "val": 3217,
      "real": 3218,
      "log": 3219,
      "At": 3220,
      "cons": 3221,
      "incl": 3222,
      "ins": 3223,
      "Can": 3224,
      "always": 3225,
      "Mo": 3226,
      "war": 3227,
      "ics": 3228,
      "orry": 3229,
      "cha": 3230,
      "To": 3231,
      "erm": 3232,
      "wn": 3233,
      "ball": 3234,
      "anything": 3235,
      "room": 3236,
      "better": 3237,
      "ors": 3238,
      "vi": 3239,
      "while": 3240,
      "ered": 3241,
      "keep": 3242,
      "TH": 3243,
      "Con": 3244,
      "between": 3245,
      "God": 3246,
      "eng": 3247,
      "left": 3248,
      "girl": 3249,
      "belie": 3250,
      "ular": 3251,
      "United": 3252,
      "tri": 3253,
      "ub": 3254,
      "second": 3255,
      "cial": 3256,
      "person": 3257,
      "ute": 3258,
      "done": 3259,
      "ale": 3260,
      "lar": 3261,
      "His": 3262,
      "bus": 3263,
      "rest": 3264,
      "book": 3265,
      "Then": 3266,
      "money": 3267,
      "ness": 3268,
      "par": 3269,
      "mb": 3270,
      "though": 3271,
      "ished": 3272,
      "tern": 3273,
      "different": 3274,
      "told": 3275,
      "cap": 3276,
      "uary": 3277,
      "ister": 3278,
      "mus": 3279,
      "sub": 3280,
      "city": 3281,
      "Who": 3282,
      "Just": 3283,
      "ail": 3284,
      "tory": 3285,
      "os": 3286,
      "ris": 3287,
      "inv": 3288,
      "water": 3289,
      "Com": 3290,
      "add": 3291,
      "ared": 3292,
      "ative": 3293,
      "tre": 3294,
      "row": 3295,
      "ste": 3296,
      "loo": 3297,
      "school": 3298,
      "ER": 3299,
      "list": 3300,
      "father": 3301,
      "nam": 3302,
      "top": 3303,
      "American": 3304,
      "ual": 3305,
      "ird": 3306,
      "ny": 3307,
      "Joh": 3308,
      "char": 3309,
      "full": 3310,
      "chan": 3311,
      "died": 3312,
      "far": 3313,
      "course": 3314,
      "produ": 3315,
      "10": 3316,
      "AN": 3317,
      "Fr": 3318,
      "198": 3319,
      "Where": 3320,
      "took": 3321,
      "Eng": 3322,
      "pass": 3323,
      "follow": 3324,
      "Are": 3325,
      "ities": 3326,
      "until": 3327,
      "oc": 3328,
      "gl": 3329,
      "pop": 3330,
      "bed": 3331,
      "ef": 3332,
      "sha": 3333,
      "Nor": 3334,
      "Not": 3335,
      "John": 3336,
      "next": 3337,
      "Bo": 3338,
      "both": 3339,
      "coming": 3340,
      "rel": 3341,
      "ted": 3342,
      "town": 3343,
      "later": 3344,
      "Coun": 3345,
      "each": 3346,
      "Go": 3347,
      "Some": 3348,
      "fect": 3349,
      "number": 3350,
      "States": 3351,
      "nothing": 3352,
      "az": 3353,
      "fun": 3354,
      "Ind": 3355,
      "miss": 3356,
      "mother": 3357,
      "eral": 3358,
      "hard": 3359,
      "actually": 3360,
      "akes": 3361,
      "sl": 3362,
      "state": 3363,
      "best": 3364,
      "appe": 3365,
      "ross": 3366,
      "dec": 3367,
      "mor": 3368,
      "aren": 3369,
      "doesn": 3370,
      "hu": 3371,
      "hal": 3372,
      "mind": 3373,
      "quest": 3374,
      "loc": 3375,
      "week": 3376,
      "ivers": 3377,
      "plan": 3378,
      "saw": 3379,
      "197": 3380,
      "Good": 3381,
      "face": 3382,
      "gether": 3383,
      "stu": 3384,
      ",\"": 3385,
      "cept": 3386,
      "ments": 3387,
      "Er": 3388,
      "small": 3389,
      "five": 3390,
      "cri": 3391,
      "ures": 3392,
      "ped": 3393,
      "sol": 3394,
      "Right": 3395,
      "publ": 3396,
      "present": 3397,
      "leg": 3398,
      "ject": 3399,
      "wait": 3400,
      "lt": 3401,
      "ug": 3402,
      "ters": 3403,
      "against": 3404,
      "Mm": 3405,
      "team": 3406,
      "else": 3407,
      "One": 3408,
      "together": 3409,
      "Jan": 3410,
      "serv": 3411,
      "line": 3412,
      "family": 3413,
      "gin": 3414,
      "enough": 3415,
      "ush": 3416,
      "ger": 3417,
      "aught": 3418,
      "seen": 3419,
      "ling": 3420,
      "ons": 3421,
      "proble": 3422,
      "15": 3423,
      "ley": 3424,
      "dire": 3425,
      "Look": 3426,
      "cut": 3427,
      "live": 3428,
      "iness": 3429,
      "became": 3430,
      "band": 3431,
      "once": 3432,
      "boy": 3433,
      "sk": 3434,
      "wanted": 3435,
      "Li": 3436,
      "Car": 3437,
      "Uh": 3438,
      "sorry": 3439,
      "ze": 3440,
      "hear": 3441,
      "Af": 3442,
      "during": 3443,
      "sign": 3444,
      "hold": 3445,
      "few": 3446,
      "den": 3447,
      "stru": 3448,
      "move": 3449,
      "bad": 3450,
      "open": 3451,
      "without": 3452,
      "ago": 3453,
      "round": 3454,
      "six": 3455,
      "near": 3456,
      "everything": 3457,
      "stem": 3458,
      ".”": 3459,
      "ned": 3460,
      "wal": 3461,
      "17": 3462,
      "Ger": 3463,
      "llo": 3464,
      "includ": 3465,
      "ific": 3466,
      "sho": 3467,
      "igh": 3468,
      "since": 3469,
      "196": 3470,
      "Ma": 3471,
      "sim": 3472,
      "ls": 3473,
      "arch": 3474,
      "Or": 3475,
      "stay": 3476,
      "ung": 3477,
      "upon": 3478,
      "ury": 3479,
      "says": 3480,
      "leave": 3481,
      "ature": 3482,
      "lead": 3483,
      "meet": 3484,
      "understand": 3485,
      "law": 3486,
      "looking": 3487,
      "dri": 3488,
      "pect": 3489,
      "ix": 3490,
      "young": 3491,
      "Did": 3492,
      "build": 3493,
      "import": 3494,
      "ones": 3495,
      "pret": 3496,
      "press": 3497,
      "ier": 3498,
      "sit": 3499,
      "mark": 3500,
      "kid": 3501,
      "power": 3502,
      "cover": 3503,
      "orning": 3504,
      "ants": 3505,
      "ator": 3506,
      "days": 3507,
      "ital": 3508,
      "quite": 3509,
      "eas": 3510,
      "win": 3511,
      "remember": 3512,
      "ica": 3513,
      "believe": 3514,
      "today": 3515,
      "fact": 3516,
      "huh": 3517,
      "music": 3518,
      "ina": 3519,
      "isn": 3520,
      "mm": 3521,
      "wer": 3522,
      "trans": 3523,
      "rele": 3524,
      "please": 3525,
      "iv": 3526,
      "ied": 3527,
      "ont": 3528,
      "nice": 3529,
      "getting": 3530,
      "000": 3531,
      "mil": 3532,
      "half": 3533,
      "Pro": 3534,
      "fil": 3535,
      "happened": 3536,
      "OU": 3537,
      "ield": 3538,
      "possi": 3539,
      "sort": 3540,
      "polit": 3541,
      "ames": 3542,
      "hour": 3543,
      "ING": 3544,
      "case": 3545,
      "heart": 3546,
      "aut": 3547,
      "cus": 3548,
      "Gr": 3549,
      "Your": 3550,
      "Ex": 3551,
      "ork": 3552,
      "children": 3553,
      "bar": 3554,
      "oup": 3555,
      "wan": 3556,
      "ai": 3557,
      "vision": 3558,
      "order": 3559,
      "interest": 3560,
      "12": 3561,
      "song": 3562,
      "pain": 3563,
      "Pr": 3564,
      "ists": 3565,
      "After": 3566,
      "pon": 3567,
      "aster": 3568,
      "woman": 3569,
      "Get": 3570,
      "having": 3571,
      "peri": 3572,
      "job": 3573,
      "Ge": 3574,
      "dist": 3575,
      "gover": 3576,
      "ral": 3577,
      "Bl": 3578,
      "morning": 3579,
      "velo": 3580,
      "door": 3581,
      "iversity": 3582,
      "app": 3583,
      "system": 3584,
      "whole": 3585,
      "16": 3586,
      "watch": 3587,
      "eat": 3588,
      "heard": 3589,
      "pay": 3590,
      "view": 3591,
      "Cl": 3592,
      "King": 3593,
      "death": 3594,
      "vo": 3595,
      "record": 3596,
      "Te": 3597,
      "matter": 3598,
      "Gre": 3599,
      "sle": 3600,
      "lad": 3601,
      "ON": 3602,
      "eyes": 3603,
      "II": 3604,
      "ised": 3605,
      "vent": 3606,
      "turned": 3607,
      "hy": 3608,
      "Man": 3609,
      "Tr": 3610,
      "Ho": 3611,
      "himself": 3612,
      "brother": 3613,
      "change": 3614,
      "asked": 3615,
      "ines": 3616,
      "Me": 3617,
      "comes": 3618,
      "started": 3619,
      "yet": 3620,
      "lish": 3621,
      "stop": 3622,
      "Here": 3623,
      "important": 3624,
      "thank": 3625,
      "country": 3626,
      "Fe": 3627,
      "Col": 3628,
      "month": 3629,
      "ages": 3630,
      "30": 3631,
      "already": 3632,
      "gy": 3633,
      "ither": 3634,
      "nment": 3635,
      "exam": 3636,
      "ism": 3637,
      "Brit": 3638,
      "itch": 3639,
      "shall": 3640,
      "ional": 3641,
      "game": 3642,
      "fac": 3643,
      "foot": 3644,
      "cor": 3645,
      "ann": 3646,
      "Will": 3647,
      "ense": 3648,
      "met": 3649,
      "mill": 3650,
      "offic": 3651,
      "played": 3652,
      "wrong": 3653,
      "dead": 3654,
      "along": 3655,
      "sir": 3656,
      "ude": 3657,
      "stud": 3658,
      "gave": 3659,
      "ring": 3660,
      "knew": 3661,
      "saying": 3662,
      "talking": 3663,
      "ety": 3664,
      "comple": 3665,
      "AR": 3666,
      "swe": 3667,
      "means": 3668,
      "195": 3669,
      "hur": 3670,
      "urch": 3671,
      "que": 3672,
      "posed": 3673,
      "soon": 3674,
      "ene": 3675,
      "eter": 3676,
      "key": 3677,
      "ility": 3678,
      "probab": 3679,
      "tem": 3680,
      "ided": 3681,
      "fort": 3682,
      "allow": 3683,
      "chang": 3684,
      "idea": 3685,
      "wind": 3686,
      "class": 3687,
      "certain": 3688,
      "lear": 3689,
      "qui": 3690,
      "trying": 3691,
      "gt": 3692,
      "dra": 3693,
      "ically": 3694,
      "stre": 3695,
      "area": 3696,
      "prom": 3697,
      "late": 3698,
      "AT": 3699,
      "fall": 3700,
      "ats": 3701,
      "sent": 3702,
      "low": 3703,
      "dam": 3704,
      "bring": 3705,
      "making": 3706,
      "aughter": 3707,
      "gram": 3708,
      "guy": 3709,
      "suc": 3710,
      "contin": 3711,
      "194": 3712,
      "14": 3713,
      "ati": 3714,
      "Jo": 3715,
      "Her": 3716,
      "January": 3717,
      "pped": 3718,
      "lay": 3719,
      "uro": 3720,
      "cho": 3721,
      "ries": 3722,
      "Ah": 3723,
      "ution": 3724,
      "sound": 3725,
      "road": 3726,
      "ali": 3727,
      "oper": 3728,
      "ulation": 3729,
      "wife": 3730,
      "train": 3731,
      "ural": 3732,
      "ster": 3733,
      "Because": 3734,
      "Cha": 3735,
      "organ": 3736,
      "ather": 3737,
      "hor": 3738,
      "often": 3739,
      "inking": 3740,
      "War": 3741,
      "ended": 3742,
      "vel": 3743,
      "ized": 3744,
      "reason": 3745,
      "ama": 3746,
      "prof": 3747,
      "County": 3748,
      "Fo": 3749,
      "gone": 3750,
      "business": 3751,
      "fight": 3752,
      "ets": 3753,
      "plac": 3754,
      "fine": 3755,
      "Wor": 3756,
      "uc": 3757,
      "ices": 3758,
      "began": 3759,
      "soci": 3760,
      "wards": 3761,
      "ney": 3762,
      "ground": 3763,
      "clear": 3764,
      "someone": 3765,
      "grap": 3766,
      "commun": 3767,
      "dad": 3768,
      "test": 3769,
      "colle": 3770,
      "iter": 3771,
      "Ab": 3772,
      "happen": 3773,
      "wasn": 3774,
      "Po": 3775,
      "human": 3776,
      "wanna": 3777,
      "story": 3778,
      "problem": 3779,
      "With": 3780,
      "22": 3781,
      "lost": 3782,
      "dre": 3783,
      "prov": 3784,
      "develo": 3785,
      "Sc": 3786,
      "bum": 3787,
      "aken": 3788,
      "working": 3789,
      "pretty": 3790,
      "Pe": 3791,
      "ili": 3792,
      "var": 3793,
      "fre": 3794,
      "whe": 3795,
      "aged": 3796,
      "ame": 3797,
      "partic": 3798,
      "dro": 3799,
      "pie": 3800,
      "ilt": 3801,
      "lock": 3802,
      "University": 3803,
      "fic": 3804,
      "probably": 3805,
      "stit": 3806,
      "ham": 3807,
      "break": 3808,
      "Ple": 3809,
      "plain": 3810,
      "field": 3811,
      "Pres": 3812,
      "?\"": 3813,
      "dep": 3814,
      "goes": 3815,
      "maybe": 3816,
      "ides": 3817,
      "pen": 3818,
      "season": 3819,
      "movie": 3820,
      "given": 3821,
      "aper": 3822,
      ",”": 3823,
      "Every": 3824,
      "large": 3825,
      "women": 3826,
      "moment": 3827,
      "hm": 3828,
      "true": 3829,
      "ford": 3830,
      "ison": 3831,
      "English": 3832,
      "Par": 3833,
      "13": 3834,
      "orig": 3835,
      "hope": 3836,
      "baby": 3837,
      "har": 3838,
      "ately": 3839,
      "short": 3840,
      "free": 3841,
      "vol": 3842,
      "national": 3843,
      "pose": 3844,
      "Har": 3845,
      "ik": 3846,
      "early": 3847,
      "walk": 3848,
      "fire": 3849,
      "Gu": 3850,
      "ards": 3851,
      "sleep": 3852,
      "yourself": 3853,
      "contro": 3854,
      "OR": 3855,
      "rece": 3856,
      "possible": 3857,
      "cas": 3858,
      "South": 3859,
      "York": 3860,
      "anim": 3861,
      "wonder": 3862,
      "haven": 3863,
      "vil": 3864,
      "beaut": 3865,
      "rent": 3866,
      "Je": 3867,
      "jor": 3868,
      "wouldn": 3869,
      "series": 3870,
      "angu": 3871,
      "guys": 3872,
      "public": 3873,
      "cra": 3874,
      "These": 3875,
      "become": 3876,
      "hon": 3877,
      "close": 3878,
      "released": 3879,
      "Lo": 3880,
      "THE": 3881,
      "alth": 3882,
      "British": 3883,
      "Of": 3884,
      "Dr": 3885,
      "Please": 3886,
      "ined": 3887,
      "exp": 3888,
      "lly": 3889,
      "gent": 3890,
      "origin": 3891,
      "using": 3892,
      "hind": 3893,
      "ery": 3894,
      "emp": 3895,
      "blood": 3896,
      "World": 3897,
      "company": 3898,
      "equ": 3899,
      "group": 3900,
      "wood": 3901,
      "friends": 3902,
      "government": 3903,
      "happy": 3904,
      "wish": 3905,
      "looked": 3906,
      "Ste": 3907,
      "range": 3908,
      "die": 3909,
      "ES": 3910,
      "van": 3911,
      "Hello": 3912,
      "mid": 3913,
      "question": 3914,
      "France": 3915,
      "Miss": 3916,
      "deal": 3917,
      "unch": 3918,
      "North": 3919,
      "Aust": 3920,
      "almost": 3921,
      "tru": 3922,
      "Euro": 3923,
      "ino": 3924,
      "Aug": 3925,
      "ouch": 3926,
      "lim": 3927,
      "March": 3928,
      "US": 3929,
      "Sep": 3930,
      "fair": 3931,
      "killed": 3932,
      "ality": 3933,
      "vious": 3934,
      "augh": 3935,
      "Char": 3936,
      "married": 3937,
      "ague": 3938,
      "fig": 3939,
      "taken": 3940,
      "25": 3941,
      "ouble": 3942,
      "bur": 3943,
      "sever": 3944,
      "Bar": 3945,
      "phone": 3946,
      "pur": 3947,
      "ond": 3948,
      "consid": 3949,
      "named": 3950,
      "least": 3951,
      "black": 3952,
      "eight": 3953,
      "Geor": 3954,
      "logy": 3955,
      "August": 3956,
      "ete": 3957,
      "ump": 3958,
      "June": 3959,
      "July": 3960,
      "words": 3961,
      "reach": 3962,
      "Ser": 3963,
      "myself": 3964,
      "white": 3965,
      "pa": 3966,
      "tom": 3967,
      "21": 3968,
      "mag": 3969,
      "LL": 3970,
      "tember": 3971,
      "cast": 3972,
      "design": 3973,
      "acti": 3974,
      "hands": 3975,
      "cu": 3976,
      "bor": 3977,
      "mom": 3978,
      "undred": 3979,
      "food": 3980,
      "taking": 3981,
      "million": 3982,
      "cell": 3983,
      "front": 3984,
      "tele": 3985,
      "hot": 3986,
      "fully": 3987,
      "istr": 3988,
      "gun": 3989,
      "mal": 3990,
      "guess": 3991,
      "stuff": 3992,
      "utes": 3993,
      "program": 3994,
      "appro": 3995,
      "grow": 3996,
      "party": 3997,
      "ron": 3998,
      "bas": 3999,
      "dog": 4000,
      "report": 4001,
      "September": 4002,
      "apan": 4003,
      "langu": 4004,
      "Min": 4005,
      "Oc": 4006,
      "makes": 4007,
      "ott": 4008,
      "atic": 4009,
      "gn": 4010,
      "pick": 4011,
      "alone": 4012,
      "ctr": 4013,
      "position": 4014,
      "success": 4015,
      "Sp": 4016,
      "EN": 4017,
      "several": 4018,
      "thor": 4019,
      "aring": 4020,
      "brought": 4021,
      "support": 4022,
      "11": 4023,
      "cret": 4024,
      "built": 4025,
      "respon": 4026,
      "ory": 4027,
      "iam": 4028,
      "held": 4029,
      "IS": 4030,
      "Have": 4031,
      "Apri": 4032,
      "Per": 4033,
      "hundred": 4034,
      "iful": 4035,
      "April": 4036,
      "rid": 4037,
      "ane": 4038,
      "Jack": 4039,
      "Mic": 4040,
      "iting": 4041,
      "selves": 4042,
      "Japan": 4043,
      "wel": 4044,
      "album": 4045,
      "OK": 4046,
      "search": 4047,
      "population": 4048,
      "behind": 4049,
      "lling": 4050,
      "fast": 4051,
      "tra": 4052,
      "charac": 4053,
      "living": 4054,
      "aim": 4055,
      "depart": 4056,
      "net": 4057,
      "squ": 4058,
      "aking": 4059,
      "daughter": 4060,
      "gener": 4061,
      "rench": 4062,
      "either": 4063,
      "seven": 4064,
      "strong": 4065,
      "CH": 4066,
      "example": 4067,
      "Mrs": 4068,
      "ending": 4069,
      "moved": 4070,
      "ony": 4071,
      "por": 4072,
      "ken": 4073,
      "film": 4074,
      "sed": 4075,
      "remain": 4076,
      "Europe": 4077,
      "ler": 4078,
      "station": 4079,
      "ues": 4080,
      "ured": 4081,
      "anger": 4082,
      "including": 4083,
      "stead": 4084,
      "inform": 4085,
      "oud": 4086,
      "sci": 4087,
      "listen": 4088,
      "rather": 4089,
      "former": 4090,
      "cal": 4091,
      "step": 4092,
      "ext": 4093,
      "speak": 4094,
      "National": 4095,
      "ize": 4096,
      "iver": 4097,
      "Dece": 4098,
      "24": 4099,
      "Mon": 4100,
      "thern": 4101,
      "based": 4102,
      "Ad": 4103,
      "President": 4104,
      "By": 4105,
      "looks": 4106,
      "December": 4107,
      "sum": 4108,
      "ots": 4109,
      "ief": 4110,
      "Ed": 4111,
      "sold": 4112,
      "quick": 4113,
      "Lon": 4114,
      "rad": 4115,
      "gar": 4116,
      "lled": 4117,
      "bi": 4118,
      "third": 4119,
      "ctions": 4120,
      "rock": 4121,
      "action": 4122,
      "Rep": 4123,
      "vill": 4124,
      "works": 4125,
      "haps": 4126,
      "pict": 4127,
      "193": 4128,
      "thinking": 4129,
      "zy": 4130,
      "German": 4131,
      "unk": 4132,
      "itten": 4133,
      "Any": 4134,
      "police": 4135,
      "2010": 4136,
      "buy": 4137,
      "star": 4138,
      "rist": 4139,
      "minutes": 4140,
      "London": 4141,
      "box": 4142,
      "Nove": 4143,
      "ches": 4144,
      "cking": 4145,
      "others": 4146,
      "Am": 4147,
      "bruary": 4148,
      "vide": 4149,
      "minute": 4150,
      "February": 4151,
      "ply": 4152,
      "tober": 4153,
      "cou": 4154,
      "dream": 4155,
      "past": 4156,
      "November": 4157,
      "Maybe": 4158,
      "sometimes": 4159,
      "October": 4160,
      "playing": 4161,
      "single": 4162,
      "couldn": 4163,
      "issu": 4164,
      "begin": 4165,
      "attack": 4166,
      "Hi": 4167,
      "gest": 4168,
      "vir": 4169,
      "!\"": 4170,
      "ding": 4171,
      "incre": 4172,
      "mess": 4173,
      "ering": 4174,
      "profess": 4175,
      "building": 4176,
      "wants": 4177,
      "within": 4178,
      "ged": 4179,
      "cies": 4180,
      "drink": 4181,
      "wenty": 4182,
      "north": 4183,
      "Dan": 4184,
      "Ac": 4185,
      "Dav": 4186,
      "Qu": 4187,
      "actly": 4188,
      "dle": 4189,
      "ows": 4190,
      "del": 4191,
      "kes": 4192,
      "sat": 4193,
      "From": 4194,
      "See": 4195,
      "following": 4196,
      "cir": 4197,
      "mbers": 4198,
      "usually": 4199,
      "idge": 4200,
      "50": 4201,
      "vot": 4202,
      "Ke": 4203,
      "fle": 4204,
      "mun": 4205,
      "fur": 4206,
      "Chris": 4207,
      "enn": 4208,
      "months": 4209,
      "West": 4210,
      "Like": 4211,
      "bert": 4212,
      "AS": 4213,
      "worked": 4214,
      "ived": 4215,
      "hair": 4216,
      "board": 4217,
      "City": 4218,
      "scre": 4219,
      "beautiful": 4220,
      "prote": 4221,
      "leav": 4222,
      "ming": 4223,
      "special": 4224,
      "camp": 4225,
      "tit": 4226,
      "ubl": 4227,
      "gets": 4228,
      "Pl": 4229,
      "uss": 4230,
      "mur": 4231,
      "Part": 4232,
      "sister": 4233,
      "itting": 4234,
      "French": 4235,
      "YOU": 4236,
      "office": 4237,
      "Ear": 4238,
      "Em": 4239,
      "Gen": 4240,
      "Pa": 4241,
      "En": 4242,
      "history": 4243,
      "century": 4244,
      "inside": 4245,
      "across": 4246,
      "lived": 4247,
      "outside": 4248,
      "tors": 4249,
      "sw": 4250,
      "major": 4251,
      "RE": 4252,
      "south": 4253,
      "sea": 4254,
      "tw": 4255,
      "spo": 4256,
      "ana": 4257,
      "ends": 4258,
      "morrow": 4259,
      "cost": 4260,
      "dom": 4261,
      "cil": 4262,
      "terri": 4263,
      "ences": 4264,
      "LE": 4265,
      "hit": 4266,
      "Fl": 4267,
      "Cap": 4268,
      "lig": 4269,
      "cop": 4270,
      "effect": 4271,
      "Cent": 4272,
      "laugh": 4273,
      "mis": 4274,
      "flo": 4275,
      "da": 4276,
      "0s": 4277,
      "IT": 4278,
      "Tom": 4279,
      "abo": 4280,
      "sou": 4281,
      "Mc": 4282,
      "Thanks": 4283,
      "west": 4284,
      "sil": 4285,
      "hours": 4286,
      "ax": 4287,
      "hell": 4288,
      "match": 4289,
      "touch": 4290,
      "England": 4291,
      "post": 4292,
      "joy": 4293,
      "Pol": 4294,
      "mine": 4295,
      "check": 4296,
      "poor": 4297,
      "paren": 4298,
      "cli": 4299,
      "flu": 4300,
      "written": 4301,
      "sal": 4302,
      "dark": 4303,
      "23": 4304,
      "god": 4305,
      "sex": 4306,
      "among": 4307,
      "complete": 4308,
      "rain": 4309,
      "concer": 4310,
      "tract": 4311,
      "raid": 4312,
      "cum": 4313,
      "fav": 4314,
      "cup": 4315,
      "answer": 4316,
      "return": 4317,
      "bri": 4318,
      "mit": 4319,
      "ousand": 4320,
      "fish": 4321,
      "mes": 4322,
      "served": 4323,
      "mand": 4324,
      "adv": 4325,
      "shot": 4326,
      "Lu": 4327,
      "roy": 4328,
      "Bu": 4329,
      "attle": 4330,
      "However": 4331,
      "dear": 4332,
      "covered": 4333,
      "tried": 4334,
      "current": 4335,
      "local": 4336,
      "teen": 4337,
      "hus": 4338,
      "Pri": 4339,
      "anyone": 4340,
      "Ca": 4341,
      "ban": 4342,
      "wed": 4343,
      "ior": 4344,
      "members": 4345,
      "gold": 4346,
      "fif": 4347,
      "Ital": 4348,
      "2019": 4349,
      "draw": 4350,
      "Sha": 4351,
      "Take": 4352,
      "formed": 4353,
      "bird": 4354,
      "club": 4355,
      "inst": 4356,
      "felt": 4357,
      "arm": 4358,
      "Sir": 4359,
      "lands": 4360,
      "Erm": 4361,
      "sun": 4362,
      "conf": 4363,
      "ances": 4364,
      "irth": 4365,
      "language": 4366,
      "Wal": 4367,
      "mpion": 4368,
      "stra": 4369,
      "iled": 4370,
      "Sy": 4371,
      "trad": 4372,
      "particular": 4373,
      "proper": 4374,
      "lives": 4375,
      "thousand": 4376,
      "news": 4377,
      "Wait": 4378,
      "ountain": 4379,
      "doctor": 4380,
      "zer": 4381,
      "dies": 4382,
      "mission": 4383,
      "bes": 4384,
      "changed": 4385,
      "ime": 4386,
      "till": 4387,
      "common": 4388,
      "fuck": 4389,
      "gotta": 4390,
      "service": 4391,
      "estern": 4392,
      "department": 4393,
      "develop": 4394,
      "chance": 4395,
      "shit": 4396,
      "ata": 4397,
      "Cor": 4398,
      "wall": 4399,
      "rote": 4400,
      "ples": 4401,
      "husband": 4402,
      "voice": 4403,
      "2018": 4404,
      "Ph": 4405,
      "grand": 4406,
      "event": 4407,
      "lying": 4408,
      "worth": 4409,
      "claim": 4410,
      "count": 4411,
      "bal": 4412,
      "cry": 4413,
      "whether": 4414,
      "ium": 4415,
      "period": 4416,
      "general": 4417,
      "tomorrow": 4418,
      "fell": 4419,
      "pract": 4420,
      "tro": 4421,
      "itions": 4422,
      "teach": 4423,
      "clean": 4424,
      "easy": 4425,
      "worry": 4426,
      "plic": 4427,
      "wrote": 4428,
      "bs": 4429,
      "everyone": 4430,
      "Dad": 4431,
      "Ber": 4432,
      "cing": 4433,
      "ulti": 4434,
      "spir": 4435,
      "tech": 4436,
      "descri": 4437,
      "idence": 4438,
      "write": 4439,
      "boys": 4440,
      "pho": 4441,
      "twenty": 4442,
      "ician": 4443,
      "experi": 4444,
      "conne": 4445,
      "paper": 4446,
      "appear": 4447,
      "irst": 4448,
      "knows": 4449,
      "La": 4450,
      "Christ": 4451,
      "author": 4452,
      "alright": 4453,
      "invol": 4454,
      "George": 4455,
      "television": 4456,
      "non": 4457,
      "sense": 4458,
      "process": 4459,
      "div": 4460,
      "cold": 4461,
      "table": 4462,
      "represent": 4463,
      "Su": 4464,
      "electr": 4465,
      "26": 4466,
      "cross": 4467,
      "pal": 4468,
      "Fran": 4469,
      "ore": 4470,
      "ula": 4471,
      "dest": 4472,
      "State": 4473,
      "dress": 4474,
      "loy": 4475,
      "grad": 4476,
      "information": 4477,
      "compet": 4478,
      "career": 4479,
      "type": 4480,
      "cannot": 4481,
      "region": 4482,
      "football": 4483,
      "San": 4484,
      "Afr": 4485,
      "refer": 4486,
      "quar": 4487,
      "irty": 4488,
      "tries": 4489,
      "ener": 4490,
      "seems": 4491,
      "feet": 4492,
      "?”": 4493,
      "created": 4494,
      "nat": 4495,
      "ribut": 4496,
      "running": 4497,
      "ount": 4498,
      "distr": 4499,
      "character": 4500,
      "ament": 4501,
      "def": 4502,
      "piece": 4503,
      "Sup": 4504,
      "nia": 4505,
      "100": 4506,
      "din": 4507,
      "level": 4508,
      "acc": 4509,
      "diffic": 4510,
      "2013": 4511,
      "priv": 4512,
      "graph": 4513,
      "27": 4514,
      "couple": 4515,
      "track": 4516,
      "Tell": 4517,
      "ya": 4518,
      "ency": 4519,
      "control": 4520,
      "lies": 4521,
      "TO": 4522,
      "fill": 4523,
      "Roman": 4524,
      "28": 4525,
      "hael": 4526,
      "exactly": 4527,
      "2014": 4528,
      "kids": 4529,
      "ently": 4530,
      "exc": 4531,
      "ians": 4532,
      "reco": 4533,
      "force": 4534,
      "super": 4535,
      "gain": 4536,
      "arri": 4537,
      "birth": 4538,
      "mune": 4539,
      "America": 4540,
      "longer": 4541,
      "ni": 4542,
      "video": 4543,
      "county": 4544,
      "cording": 4545,
      "Great": 4546,
      "church": 4547,
      "sweet": 4548,
      "James": 4549,
      "Que": 4550,
      "uses": 4551,
      "include": 4552,
      "president": 4553,
      "received": 4554,
      "ges": 4555,
      "ks": 4556,
      "mi": 4557,
      "spital": 4558,
      "ida": 4559,
      "thre": 4560,
      "hurt": 4561,
      "defin": 4562,
      "ified": 4563,
      "ention": 4564,
      "Sorry": 4565,
      "however": 4566,
      "mad": 4567,
      "lied": 4568,
      "prison": 4569,
      "chair": 4570,
      "bers": 4571,
      "trave": 4572,
      "gas": 4573,
      "stri": 4574,
      "Peter": 4575,
      "player": 4576,
      "supposed": 4577,
      "afraid": 4578,
      "Canad": 4579,
      "det": 4580,
      "educ": 4581,
      "House": 4582,
      "mist": 4583,
      "Lord": 4584,
      "cos": 4585,
      "William": 4586,
      "uation": 4587,
      "luck": 4588,
      "mouth": 4589,
      "court": 4590,
      "due": 4591,
      "Two": 4592,
      "popular": 4593,
      "rug": 4594,
      "Gover": 4595,
      "Stop": 4596,
      "David": 4597,
      "acy": 4598,
      "tori": 4599,
      "tee": 4600,
      "seemed": 4601,
      "High": 4602,
      "tree": 4603,
      "ounds": 4604,
      "List": 4605,
      "shop": 4606,
      "accept": 4607,
      "mach": 4608,
      "sett": 4609,
      "sof": 4610,
      "itary": 4611,
      "appeared": 4612,
      "rul": 4613,
      "bye": 4614,
      "burn": 4615,
      "blue": 4616,
      "Austral": 4617,
      "whatever": 4618,
      "bill": 4619,
      "lls": 4620,
      "cially": 4621,
      "entire": 4622,
      "engine": 4623,
      "kept": 4624,
      "LA": 4625,
      "fut": 4626,
      "trouble": 4627,
      "29": 4628,
      "nine": 4629,
      "letter": 4630,
      "eye": 4631,
      "themselves": 4632,
      "2016": 4633,
      "tonight": 4634,
      "Ha": 4635,
      "Really": 4636,
      "tour": 4637,
      "tian": 4638,
      "audi": 4639,
      "Sam": 4640,
      "learn": 4641,
      "Fin": 4642,
      "waiting": 4643,
      "tar": 4644,
      "sn": 4645,
      "Indian": 4646,
      "hang": 4647,
      "serious": 4648,
      "horse": 4649,
      "pot": 4650,
      "above": 4651,
      "sus": 4652,
      "une": 4653,
      "thes": 4654,
      "2011": 4655,
      "needs": 4656,
      "shoot": 4657,
      "truth": 4658,
      "ilar": 4659,
      "somebody": 4660,
      "People": 4661,
      "murder": 4662,
      "send": 4663,
      "appoint": 4664,
      "Mary": 4665,
      "space": 4666,
      "ships": 4667,
      "avy": 4668,
      "2017": 4669,
      "Pre": 4670,
      "role": 4671,
      "Sm": 4672,
      "lin": 4673,
      "village": 4674,
      "agree": 4675,
      "explain": 4676,
      "Bro": 4677,
      "comput": 4678,
      "crit": 4679,
      "Cali": 4680,
      "asure": 4681,
      "School": 4682,
      "ked": 4683,
      "picture": 4684,
      "Party": 4685,
      "za": 4686,
      "TV": 4687,
      "dou": 4688,
      "instead": 4689,
      "health": 4690,
      "perhaps": 4691,
      "capital": 4692,
      "Germany": 4693,
      "Hen": 4694,
      "itself": 4695,
      "2012": 4696,
      "wide": 4697,
      "commune": 4698,
      "First": 4699,
      "famous": 4700,
      "RO": 4701,
      "pes": 4702,
      "Act": 4703,
      "itive": 4704,
      "Even": 4705,
      "cat": 4706,
      "finished": 4707,
      "Michael": 4708,
      "mot": 4709,
      "bank": 4710,
      "everybody": 4711,
      "Russ": 4712,
      "bag": 4713,
      "books": 4714,
      "ka": 4715,
      "cture": 4716,
      "relig": 4717,
      "respect": 4718,
      "ME": 4719,
      "ays": 4720,
      "nal": 4721,
      "tired": 4722,
      "parents": 4723,
      "Califor": 4724,
      "lady": 4725,
      "viously": 4726,
      "Mark": 4727,
      "IC": 4728,
      "sco": 4729,
      "exist": 4730,
      "Mus": 4731,
      "jud": 4732,
      "push": 4733,
      "social": 4734,
      "except": 4735,
      "rail": 4736,
      "depend": 4737,
      "safe": 4738,
      "perfect": 4739,
      "ially": 4740,
      "moder": 4741,
      "host": 4742,
      "treat": 4743,
      "recogn": 4744,
      "invest": 4745,
      "Rich": 4746,
      "green": 4747,
      "surpr": 4748,
      "final": 4749,
      "Park": 4750,
      "deep": 4751,
      "decided": 4752,
      "ben": 4753,
      "dden": 4754,
      "ror": 4755,
      "Spe": 4756,
      "aff": 4757,
      "takes": 4758,
      "prin": 4759,
      "California": 4760,
      "ses": 4761,
      "pet": 4762,
      "ggest": 4763,
      "arr": 4764,
      "Republ": 4765,
      "East": 4766,
      "ager": 4767,
      "Che": 4768,
      "ba": 4769,
      "sen": 4770,
      "fix": 4771,
      "Intern": 4772,
      "straight": 4773,
      "forget": 4774,
      "suggest": 4775,
      "carry": 4776,
      "girls": 4777,
      "solute": 4778,
      "fucking": 4779,
      "bow": 4780,
      "trust": 4781,
      "opened": 4782,
      "Med": 4783,
      "seat": 4784,
      "Black": 4785,
      "Stre": 4786,
      "honey": 4787,
      "ensus": 4788,
      "nel": 4789,
      "future": 4790,
      "imag": 4791,
      "Ill": 4792,
      "rich": 4793,
      "era": 4794,
      "continu": 4795,
      "original": 4796,
      "seem": 4797,
      "corn": 4798,
      "sudden": 4799,
      "econ": 4800,
      "icip": 4801,
      "secret": 4802,
      "ffic": 4803,
      "Frank": 4804,
      "Mi": 4805,
      "40": 4806,
      "wit": 4807,
      "comb": 4808,
      "placed": 4809,
      "ught": 4810,
      "inc": 4811,
      "Lou": 4812,
      "term": 4813,
      "problems": 4814,
      "tempt": 4815,
      "further": 4816,
      "Give": 4817,
      "nin": 4818,
      "giving": 4819,
      "species": 4820,
      "study": 4821,
      "anti": 4822,
      "funny": 4823,
      "bel": 4824,
      "spec": 4825,
      "sequ": 4826,
      "ization": 4827,
      "tic": 4828,
      "bot": 4829,
      "evening": 4830,
      "ric": 4831,
      "ination": 4832,
      "Sal": 4833,
      "pati": 4834,
      "airs": 4835,
      "political": 4836,
      "mir": 4837,
      "announ": 4838,
      "photo": 4839,
      "ctive": 4840,
      "estab": 4841,
      "yle": 4842,
      "figure": 4843,
      "ington": 4844,
      "memor": 4845,
      "weeks": 4846,
      "passed": 4847,
      "Paul": 4848,
      "contain": 4849,
      "anyway": 4850,
      "||": 4851,
      "League": 4852,
      "2015": 4853,
      "jour": 4854,
      "mas": 4855,
      "Nothing": 4856,
      "cts": 4857,
      "located": 4858,
      "answ": 4859,
      "ife": 4860,
      "Hu": 4861,
      "feeling": 4862,
      "GH": 4863,
      "throw": 4864,
      "bt": 4865,
      "ising": 4866,
      "stat": 4867,
      "aint": 4868,
      "bly": 4869,
      "lose": 4870,
      "2006": 4871,
      "pack": 4872,
      "AND": 4873,
      "Red": 4874,
      "stick": 4875,
      "During": 4876,
      "Sar": 4877,
      "catch": 4878,
      "telling": 4879,
      "Ale": 4880,
      "command": 4881,
      "Jes": 4882,
      "inde": 4883,
      "project": 4884,
      "slow": 4885,
      "expect": 4886,
      "published": 4887,
      "Ben": 4888,
      "ST": 4889,
      "beat": 4890,
      "aver": 4891,
      "necess": 4892,
      "ilo": 4893,
      "va": 4894,
      "countries": 4895,
      "river": 4896,
      "cool": 4897,
      "fing": 4898,
      "illy": 4899,
      "AM": 4900,
      "Vir": 4901,
      "mic": 4902,
      "activ": 4903,
      "ED": 4904,
      "General": 4905,
      "Sure": 4906,
      "mater": 4907,
      "tax": 4908,
      "relation": 4909,
      "River": 4910,
      "2020": 4911,
      "meeting": 4912,
      "male": 4913,
      "iding": 4914,
      "returned": 4915,
      "ensive": 4916,
      "pan": 4917,
      "ded": 4918,
      "ville": 4919,
      "save": 4920,
      "energy": 4921,
      "date": 4922,
      "ange": 4923,
      "phys": 4924,
      "ref": 4925,
      "wear": 4926,
      "earth": 4927,
      "ceed": 4928,
      "(\"": 4929,
      "whose": 4930,
      "sch": 4931,
      "gentle": 4932,
      "cried": 4933,
      "cult": 4934,
      "meant": 4935,
      "standing": 4936,
      "result": 4937,
      "ible": 4938,
      "bey": 4939,
      "cks": 4940,
      "danger": 4941,
      "parts": 4942,
      "crazy": 4943,
      "direct": 4944,
      "mass": 4945,
      "boat": 4946,
      "race": 4947,
      "Colle": 4948,
      "election": 4949,
      "rep": 4950,
      "India": 4951,
      "happens": 4952,
      "zz": 4953,
      "riage": 4954,
      "medi": 4955,
      "NO": 4956,
      "games": 4957,
      "ahead": 4958,
      "sick": 4959,
      "itted": 4960,
      "ju": 4961,
      "bour": 4962,
      "Cal": 4963,
      "forward": 4964,
      "plant": 4965,
      "whom": 4966,
      "ils": 4967,
      "hood": 4968,
      "moving": 4969,
      "mocr": 4970,
      "intro": 4971,
      "owers": 4972,
      "hol": 4973,
      "fed": 4974,
      "hop": 4975,
      "AP": 4976,
      "Captain": 4977,
      "Hel": 4978,
      "drive": 4979,
      "places": 4980,
      "middle": 4981,
      "actor": 4982,
      "similar": 4983,
      "bear": 4984,
      "fi": 4985,
      "hospital": 4986,
      "ffer": 4987,
      "wise": 4988,
      "liver": 4989,
      "floor": 4990,
      "total": 4991,
      "Cour": 4992,
      "famili": 4993,
      "Our": 4994,
      "Was": 4995,
      "bul": 4996,
      "stage": 4997,
      "tin": 4998,
      "ping": 4999,
      "base": 5000,
      "object": 5001,
      "rap": 5002,
      "modern": 5003,
      "district": 5004,
      "natural": 5005,
      "ico": 5006,
      "AL": 5007,
      "stood": 5008,
      "beginning": 5009,
      "mountain": 5010,
      "Which": 5011,
      "separ": 5012,
      "politician": 5013,
      "hey": 5014,
      "mention": 5015,
      "Dep": 5016,
      "viol": 5017,
      "2007": 5018,
      "enter": 5019,
      "ability": 5020,
      "load": 5021,
      "followed": 5022,
      "consider": 5023,
      "aven": 5024,
      "subject": 5025,
      "market": 5026,
      "interesting": 5027,
      "allowed": 5028,
      "leaving": 5029,
      "peace": 5030,
      "paid": 5031,
      "apo": 5032,
      "compan": 5033,
      "ient": 5034,
      "Jim": 5035,
      "Would": 5036,
      "sell": 5037,
      "decis": 5038,
      "introdu": 5039,
      "TER": 5040,
      "2008": 5041,
      "leader": 5042,
      "bon": 5043,
      "Sen": 5044,
      "ordin": 5045,
      "daddy": 5046,
      "cook": 5047,
      "Mad": 5048,
      "rate": 5049,
      "Street": 5050,
      "students": 5051,
      "bridge": 5052,
      "street": 5053,
      "Bur": 5054,
      "yo": 5055,
      "sitting": 5056,
      "doll": 5057,
      "glass": 5058,
      "multi": 5059,
      "suppose": 5060,
      "enjoy": 5061,
      "ID": 5062,
      "ify": 5063,
      "fee": 5064,
      "Mart": 5065,
      "neigh": 5066,
      "shut": 5067,
      "influ": 5068,
      "erson": 5069,
      "Mer": 5070,
      "community": 5071,
      "fro": 5072,
      "mommy": 5073,
      "Thom": 5074,
      "itional": 5075,
      "El": 5076,
      "cam": 5077,
      "vict": 5078,
      "animals": 5079,
      "Japanese": 5080,
      "stone": 5081,
      "amount": 5082,
      "quickly": 5083,
      "BC": 5084,
      "ato": 5085,
      "ties": 5086,
      "icy": 5087,
      "belong": 5088,
      "writing": 5089,
      "certainly": 5090,
      "towards": 5091,
      "color": 5092,
      "ns": 5093,
      "Sch": 5094,
      "Its": 5095,
      "pping": 5096,
      "pected": 5097,
      "UN": 5098,
      "Um": 5099,
      "Listen": 5100,
      "east": 5101,
      "difficult": 5102,
      "Tur": 5103,
      "egg": 5104,
      "version": 5105,
      "glad": 5106,
      "feat": 5107,
      "largest": 5108,
      "Pal": 5109,
      "Since": 5110,
      "indust": 5111,
      "\")": 5112,
      "ky": 5113,
      "ults": 5114,
      "Grand": 5115,
      "professional": 5116,
      "Mac": 5117,
      "agon": 5118,
      "finish": 5119,
      "Most": 5120,
      "various": 5121,
      ".,": 5122,
      "chief": 5123,
      "2009": 5124,
      "quiet": 5125,
      "yours": 5126,
      "fly": 5127,
      "census": 5128,
      "....": 5129,
      "loved": 5130,
      "Vi": 5131,
      "Mal": 5132,
      "cand": 5133,
      "Virgin": 5134,
      "ivid": 5135,
      "Mor": 5136,
      "sess": 5137,
      "decl": 5138,
      "Cong": 5139,
      "Distr": 5140,
      "Bel": 5141,
      "Very": 5142,
      "espe": 5143,
      "ady": 5144,
      "military": 5145,
      "Mom": 5146,
      "questions": 5147,
      "earli": 5148,
      "reached": 5149,
      "BE": 5150,
      "research": 5151,
      "Res": 5152,
      "Val": 5153,
      "fellow": 5154,
      "acher": 5155,
      "Union": 5156,
      "Henry": 5157,
      "oose": 5158,
      "190": 5159,
      "Des": 5160,
      "express": 5161,
      "kiss": 5162,
      "constru": 5163,
      "OF": 5164,
      "master": 5165,
      "sour": 5166,
      "points": 5167,
      "boo": 5168,
      "card": 5169,
      "thy": 5170,
      "Church": 5171,
      "vari": 5172,
      "Ken": 5173,
      "SE": 5174,
      "yer": 5175,
      "produced": 5176,
      "Air": 5177,
      "herself": 5178,
      "Bet": 5179,
      "vin": 5180,
      "cient": 5181,
      "gress": 5182,
      "Many": 5183,
      "logical": 5184,
      "Sum": 5185,
      "fear": 5186,
      "miles": 5187,
      "island": 5188,
      "simple": 5189,
      "wild": 5190,
      "nder": 5191,
      "Does": 5192,
      "apart": 5193,
      "block": 5194,
      "needed": 5195,
      "finally": 5196,
      "District": 5197,
      "suffer": 5198,
      "!”": 5199,
      "broad": 5200,
      "especially": 5201,
      "involved": 5202,
      "alive": 5203,
      "Minister": 5204,
      "window": 5205,
      "experience": 5206,
      "ging": 5207,
      "hous": 5208,
      "terms": 5209,
      "rup": 5210,
      "science": 5211,
      "ki": 5212,
      "prove": 5213,
      "suit": 5214,
      "Ange": 5215,
      "lam": 5216,
      "Roy": 5217,
      "Other": 5218,
      "occur": 5219,
      "fund": 5220,
      "WH": 5221,
      "bility": 5222,
      "drug": 5223,
      "umb": 5224,
      "wa": 5225,
      "abor": 5226,
      "anymore": 5227,
      "bell": 5228,
      "Only": 5229,
      "noon": 5230,
      "dio": 5231,
      "imp": 5232,
      "2000": 5233,
      "arms": 5234,
      "stor": 5235,
      "ably": 5236,
      "viron": 5237,
      "anybody": 5238,
      "forms": 5239,
      "Mu": 5240,
      "nature": 5241,
      "rac": 5242,
      "favor": 5243,
      "solutely": 5244,
      "Jesus": 5245,
      "hate": 5246,
      "text": 5247,
      "swi": 5248,
      "join": 5249,
      "gard": 5250,
      "equal": 5251,
      "founded": 5252,
      "forgot": 5253,
      "Cup": 5254,
      "ption": 5255,
      "hat": 5256,
      "Wil": 5257,
      "tie": 5258,
      "discus": 5259,
      "charge": 5260,
      "responsi": 5261,
      "recent": 5262,
      "included": 5263,
      "private": 5264,
      "vic": 5265,
      "writer": 5266,
      "situation": 5267,
      "cru": 5268,
      "ert": 5269,
      "spl": 5270,
      "seeing": 5271,
      "ference": 5272,
      "dinner": 5273,
      "Alex": 5274,
      "fit": 5275,
      "active": 5276,
      "AD": 5277,
      "Sim": 5278,
      "stant": 5279,
      "individ": 5280,
      "size": 5281,
      "bra": 5282,
      "western": 5283,
      "shows": 5284,
      "hum": 5285,
      "numbers": 5286,
      "joined": 5287,
      "title": 5288,
      "destroy": 5289,
      "ena": 5290,
      "note": 5291,
      "Di": 5292,
      "gri": 5293,
      "ald": 5294,
      "2022": 5295,
      "development": 5296,
      "Queen": 5297,
      "shire": 5298,
      "director": 5299,
      "upid": 5300,
      "vice": 5301,
      "somewhere": 5302,
      "added": 5303,
      "Gl": 5304,
      "Charles": 5305,
      "College": 5306,
      "bought": 5307,
      "radio": 5308,
      "Cam": 5309,
      "cul": 5310,
      "uni": 5311,
      "CO": 5312,
      "nes": 5313,
      "bud": 5314,
      "ease": 5315,
      "iment": 5316,
      "broke": 5317,
      "leng": 5318,
      "Champion": 5319,
      "aker": 5320,
      "Dar": 5321,
      "fan": 5322,
      "iling": 5323,
      "els": 5324,
      "Exc": 5325,
      "neg": 5326,
      "closed": 5327,
      "Christian": 5328,
      "Chin": 5329,
      "names": 5330,
      "Jer": 5331,
      "caught": 5332,
      "60": 5333,
      "stopped": 5334,
      "gives": 5335,
      "strange": 5336,
      "Cr": 5337,
      "liter": 5338,
      "summer": 5339,
      "cape": 5340,
      "avail": 5341,
      "ender": 5342,
      "firm": 5343,
      "European": 5344,
      "spent": 5345,
      "ston": 5346,
      "ids": 5347,
      "fol": 5348,
      "municip": 5349,
      "sport": 5350,
      "dig": 5351,
      "raised": 5352,
      "attempt": 5353,
      "wash": 5354,
      "Rob": 5355,
      "Gree": 5356,
      "although": 5357,
      "rian": 5358,
      "value": 5359,
      "hung": 5360,
      "aha": 5361,
      "rough": 5362,
      "section": 5363,
      "lip": 5364,
      "plays": 5365,
      "thanks": 5366,
      "Dis": 5367,
      "smo": 5368,
      "vironment": 5369,
      "lower": 5370,
      "Atl": 5371,
      "personal": 5372,
      "address": 5373,
      "dance": 5374,
      "Flor": 5375,
      "aj": 5376,
      "completely": 5377,
      "Bre": 5378,
      "hill": 5379,
      "park": 5380,
      "considered": 5381,
      "Reg": 5382,
      "stairs": 5383,
      "immedi": 5384,
      "Three": 5385,
      "exper": 5386,
      "answered": 5387,
      "ae": 5388,
      "Excuse": 5389,
      "clothes": 5390,
      "VE": 5391,
      "fool": 5392,
      "ument": 5393,
      "ously": 5394,
      "Mil": 5395,
      "Port": 5396,
      "mhm": 5397,
      "yr": 5398,
      "weight": 5399,
      "ration": 5400,
      "doubt": 5401,
      "speed": 5402,
      "Fer": 5403,
      "lines": 5404,
      "ecut": 5405,
      "army": 5406,
      "print": 5407,
      "Vic": 5408,
      "Wash": 5409,
      "meaning": 5410,
      "International": 5411,
      "Bob": 5412,
      "lf": 5413,
      "asking": 5414,
      "announced": 5415,
      "While": 5416,
      "percent": 5417,
      "curity": 5418,
      "burg": 5419,
      "college": 5420,
      "gor": 5421,
      "Du": 5422,
      "psy": 5423,
      "GO": 5424,
      "soft": 5425,
      "dan": 5426,
      "coll": 5427,
      "loss": 5428,
      "2005": 5429,
      "temper": 5430,
      "forest": 5431,
      "itor": 5432,
      "path": 5433,
      "hun": 5434,
      "normal": 5435,
      "Richard": 5436,
      "mix": 5437,
      "Got": 5438,
      "broken": 5439,
      "HE": 5440,
      "difference": 5441,
      "rout": 5442,
      "brain": 5443,
      "rect": 5444,
      "Father": 5445,
      "ov": 5446,
      "ministr": 5447,
      "attention": 5448,
      "clock": 5449,
      "Council": 5450,
      "Joe": 5451,
      "Sing": 5452,
      "Ter": 5453,
      "roll": 5454,
      "damn": 5455,
      "mat": 5456,
      "site": 5457,
      "thus": 5458,
      "length": 5459,
      "forman": 5460,
      "nearly": 5461,
      "Scott": 5462,
      "vert": 5463,
      "atives": 5464,
      "Pat": 5465,
      "caused": 5466,
      "Robert": 5467,
      "Mid": 5468,
      "scient": 5469,
      "arded": 5470,
      "yn": 5471,
      "Mag": 5472,
      "WE": 5473,
      "extra": 5474,
      "init": 5475,
      "likely": 5476,
      "indeed": 5477,
      "regular": 5478,
      "grew": 5479,
      "xim": 5480,
      "preci": 5481,
      "issue": 5482,
      "battle": 5483,
      "DO": 5484,
      "Hill": 5485,
      "ension": 5486,
      "AC": 5487,
      "store": 5488,
      "Virginia": 5489,
      "Jose": 5490,
      "Italian": 5491,
      "Ze": 5492,
      "lished": 5493,
      "iday": 5494,
      "Bye": 5495,
      "lic": 5496,
      "ledge": 5497,
      "associ": 5498,
      "blow": 5499,
      "evidence": 5500,
      "sight": 5501,
      "epis": 5502,
      "bles": 5503,
      "kno": 5504,
      "anal": 5505,
      "White": 5506,
      "shouldn": 5507,
      "education": 5508,
      "manage": 5509,
      "share": 5510,
      "Never": 5511,
      "plus": 5512,
      "ators": 5513,
      "reed": 5514,
      "approach": 5515,
      "vies": 5516,
      "apers": 5517,
      "heavy": 5518,
      "comfort": 5519,
      "computer": 5520,
      "grou": 5521,
      "tail": 5522,
      "higher": 5523,
      "ome": 5524,
      "speaking": 5525,
      "iers": 5526,
      "pic": 5527,
      "Put": 5528,
      "Green": 5529,
      "cro": 5530,
      "terday": 5531,
      "independ": 5532,
      "coach": 5533,
      "China": 5534,
      "nie": 5535,
      "stupid": 5536,
      "continued": 5537,
      "bound": 5538,
      "arrest": 5539,
      "training": 5540,
      "istic": 5541,
      "Foot": 5542,
      "spirit": 5543,
      "han": 5544,
      "iel": 5545,
      "asket": 5546,
      "Dam": 5547,
      "Bill": 5548,
      "watching": 5549,
      "square": 5550,
      "pull": 5551,
      "cases": 5552,
      "Washington": 5553,
      "Mex": 5554,
      "asing": 5555,
      "bottom": 5556,
      "Tim": 5557,
      "tea": 5558,
      "Law": 5559,
      "Oly": 5560,
      "31": 5561,
      "los": 5562,
      "aign": 5563,
      "elected": 5564,
      "inois": 5565,
      "More": 5566,
      "ode": 5567,
      "stars": 5568,
      "astic": 5569,
      "Earth": 5570,
      "reading": 5571,
      "esh": 5572,
      "phy": 5573,
      "About": 5574,
      "ams": 5575,
      "warm": 5576,
      "History": 5577,
      "songs": 5578,
      "econom": 5579,
      "2004": 5580,
      "scri": 5581,
      "cis": 5582,
      "wing": 5583,
      "lebr": 5584,
      "official": 5585,
      "style": 5586,
      "ker": 5587,
      "trade": 5588,
      "opport": 5589,
      "prep": 5590,
      "directed": 5591,
      "ote": 5592,
      "GE": 5593,
      "Over": 5594,
      "talked": 5595,
      "Australia": 5596,
      "ours": 5597,
      "assist": 5598,
      "demand": 5599,
      "Chinese": 5600,
      "Ele": 5601,
      "Old": 5602,
      "areas": 5603,
      "legal": 5604,
      "Au": 5605,
      "offee": 5606,
      "onto": 5607,
      "simply": 5608,
      "accident": 5609,
      "cab": 5610,
      "access": 5611,
      "celebr": 5612,
      "189": 5613,
      "changes": 5614,
      "Out": 5615,
      "detail": 5616,
      "gate": 5617,
      "meth": 5618,
      "Ham": 5619,
      "fat": 5620,
      "irt": 5621,
      "available": 5622,
      "graphy": 5623,
      "marriage": 5624,
      "wonderful": 5625,
      "sele": 5626,
      "hero": 5627,
      "fresh": 5628,
      "sad": 5629,
      "protect": 5630,
      "opportun": 5631,
      "ites": 5632,
      "liament": 5633,
      "Africa": 5634,
      "account": 5635,
      "offer": 5636,
      "officer": 5637,
      "Illinois": 5638,
      "Bra": 5639,
      "sand": 5640,
      "states": 5641,
      "Hon": 5642,
      "rob": 5643,
      "sounds": 5644,
      "Scot": 5645,
      "below": 5646,
      "nut": 5647,
      "itely": 5648,
      "ib": 5649,
      "thirty": 5650,
      "aste": 5651,
      "international": 5652,
      "Democr": 5653,
      "production": 5654,
      "quired": 5655,
      "Thomas": 5656,
      "marry": 5657,
      "Str": 5658,
      "Love": 5659,
      "groups": 5660,
      "data": 5661,
      "Bal": 5662,
      "dry": 5663,
      "Sand": 5664,
      "tur": 5665,
      "iced": 5666,
      "services": 5667,
      "Their": 5668,
      "Those": 5669,
      "interested": 5670,
      "contract": 5671,
      "carried": 5672,
      "Republic": 5673,
      "sky": 5674,
      "page": 5675,
      "ano": 5676,
      "visit": 5677,
      "80": 5678,
      "habit": 5679,
      "apped": 5680,
      "afternoon": 5681,
      "bath": 5682,
      "putting": 5683,
      "helped": 5684,
      "Gold": 5685,
      "sme": 5686,
      "model": 5687,
      "orders": 5688,
      "calling": 5689,
      "developed": 5690,
      "princi": 5691,
      "lla": 5692,
      "performan": 5693,
      "Sat": 5694,
      "ift": 5695,
      "spot": 5696,
      "Little": 5697,
      "mum": 5698,
      "antic": 5699,
      "2001": 5700,
      "earlier": 5701,
      "Girl": 5702,
      "movement": 5703,
      "dut": 5704,
      "ari": 5705,
      "starting": 5706,
      "ALL": 5707,
      "Super": 5708,
      "Award": 5709,
      "Sun": 5710,
      "ura": 5711,
      "feed": 5712,
      "lli": 5713,
      "scene": 5714,
      "weren": 5715,
      "milk": 5716,
      "docum": 5717,
      "appointed": 5718,
      "movies": 5719,
      "suddenly": 5720,
      "showed": 5721,
      "choice": 5722,
      "rat": 5723,
      "function": 5724,
      "animal": 5725,
      "ride": 5726,
      "events": 5727,
      "Ru": 5728,
      "kin": 5729,
      "ops": 5730,
      "peror": 5731,
      "lets": 5732,
      "happening": 5733,
      "inte": 5734,
      "Doctor": 5735,
      "faith": 5736,
      "craft": 5737,
      "Florida": 5738,
      "code": 5739,
      "cit": 5740,
      "usion": 5741,
      "promise": 5742,
      "Span": 5743,
      "electric": 5744,
      "arg": 5745,
      "distance": 5746,
      "huge": 5747,
      "cities": 5748,
      "snow": 5749,
      "Hur": 5750,
      "tt": 5751,
      "tall": 5752,
      "consci": 5753,
      "successful": 5754,
      "tho": 5755,
      "ilities": 5756,
      ";&": 5757,
      "vince": 5758,
      "rights": 5759,
      "ona": 5760,
      "careful": 5761,
      "birthday": 5762,
      "MAN": 5763,
      "eh": 5764,
      "nation": 5765,
      "Trans": 5766,
      "necessary": 5767,
      "Before": 5768,
      "investig": 5769,
      "useum": 5770,
      "pray": 5771,
      "Could": 5772,
      "Chic": 5773,
      "()": 5774,
      "environment": 5775,
      "ential": 5776,
      "Paris": 5777,
      "Canada": 5778,
      "plane": 5779,
      "fourth": 5780,
      "honest": 5781,
      "omen": 5782,
      "sym": 5783,
      "trees": 5784,
      "yellow": 5785,
      "established": 5786,
      "Tex": 5787,
      "crow": 5788,
      "Cath": 5789,
      "create": 5790,
      "186": 5791,
      "weap": 5792,
      "gree": 5793,
      "edge": 5794,
      "sey": 5795,
      "bling": 5796,
      "price": 5797,
      "campaign": 5798,
      "Secret": 5799,
      "bing": 5800,
      "coast": 5801,
      "Royal": 5802,
      "gro": 5803,
      "abs": 5804,
      "busy": 5805,
      "utter": 5806,
      "spring": 5807,
      "birds": 5808,
      "Court": 5809,
      "Bay": 5810,
      "Sou": 5811,
      "disease": 5812,
      "Rail": 5813,
      "condu": 5814,
      "ques": 5815,
      "specific": 5816,
      "pat": 5817,
      "amaz": 5818,
      "learned": 5819,
      "benef": 5820,
      "berg": 5821,
      "Island": 5822,
      "stren": 5823,
      "Olymp": 5824,
      "sac": 5825,
      "knowledge": 5826,
      "fail": 5827,
      "Prof": 5828,
      "drop": 5829,
      "Chicago": 5830,
      "ji": 5831,
      "cket": 5832,
      "aves": 5833,
      "bled": 5834,
      "welve": 5835,
      "gradu": 5836,
      "redu": 5837,
      "iction": 5838,
      "Mother": 5839,
      "Kar": 5840,
      "coffee": 5841,
      "ials": 5842,
      "pig": 5843,
      "medic": 5844,
      "message": 5845,
      "Dou": 5846,
      "ises": 5847,
      "yesterday": 5848,
      "Tor": 5849,
      "worse": 5850,
      "center": 5851,
      "Big": 5852,
      "rule": 5853,
      "ech": 5854,
      "aming": 5855,
      "cancer": 5856,
      "ox": 5857,
      "forces": 5858,
      "Hall": 5859,
      "theory": 5860,
      "teacher": 5861,
      "spend": 5862,
      "ners": 5863,
      "farm": 5864,
      "signed": 5865,
      "Mat": 5866,
      "Sa": 5867,
      "link": 5868,
      "Congress": 5869,
      "Ano": 5870,
      "Del": 5871,
      "anch": 5872,
      "Italy": 5873,
      "threat": 5874,
      "decision": 5875,
      "nobody": 5876,
      "nur": 5877,
      "commit": 5878,
      "pieces": 5879,
      "pi": 5880,
      "histor": 5881,
      "captain": 5882,
      "sens": 5883,
      "fortun": 5884,
      "mostly": 5885,
      "occas": 5886,
      "500": 5887,
      "skin": 5888,
      "Ko": 5889,
      "double": 5890,
      "thou": 5891,
      "society": 5892,
      "Everything": 5893,
      "ull": 5894,
      "ws": 5895,
      "Andre": 5896,
      "Far": 5897,
      "RI": 5898,
      "ables": 5899,
      "opt": 5900,
      "scared": 5901,
      "eating": 5902,
      "related": 5903,
      "none": 5904,
      "2003": 5905,
      "Kingdom": 5906,
      "extre": 5907,
      "capt": 5908,
      "Central": 5909,
      "Wow": 5910,
      "bright": 5911,
      "itude": 5912,
      "comed": 5913,
      "volution": 5914,
      "terrible": 5915,
      "average": 5916,
      "neck": 5917,
      "Hold": 5918,
      "oil": 5919,
      "ini": 5920,
      "Star": 5921,
      "forced": 5922,
      "usual": 5923,
      "lovely": 5924,
      "Russian": 5925,
      "cean": 5926,
      "stitution": 5927,
      "Keep": 5928,
      "corner": 5929,
      "streng": 5930,
      "opin": 5931,
      "bomb": 5932,
      "iff": 5933,
      "stories": 5934,
      "Associ": 5935,
      "bio": 5936,
      "emer": 5937,
      "via": 5938,
      "hall": 5939,
      "vote": 5940,
      "IR": 5941,
      "ider": 5942,
      "Army": 5943,
      "singer": 5944,
      "itar": 5945,
      "families": 5946,
      "Another": 5947,
      "immediately": 5948,
      "Fuck": 5949,
      "amed": 5950,
      "believed": 5951,
      "atory": 5952,
      "ives": 5953,
      "asse": 5954,
      "2002": 5955,
      "communic": 5956,
      "cow": 5957,
      "hors": 5958,
      "Bab": 5959,
      "truck": 5960,
      "Ray": 5961,
      "jump": 5962,
      "contact": 5963,
      "Wel": 5964,
      "According": 5965,
      "Met": 5966,
      "Under": 5967,
      "tick": 5968,
      "impress": 5969,
      "execut": 5970,
      "Arab": 5971,
      "holding": 5972,
      "mate": 5973,
      "inct": 5974,
      "aware": 5975,
      "gency": 5976,
      "een": 5977,
      "occup": 5978,
      "slight": 5979,
      "feature": 5980,
      "Day": 5981,
      "Up": 5982,
      "owned": 5983,
      "partner": 5984,
      "schools": 5985,
      "method": 5986,
      "Kore": 5987,
      "uk": 5988,
      "welcome": 5989,
      "Cle": 5990,
      "cred": 5991,
      "scr": 5992,
      "chick": 5993,
      "continue": 5994,
      "Say": 5995,
      "lif": 5996,
      "soul": 5997,
      "ria": 5998,
      "purpose": 5999,
      "liked": 6000,
      "lots": 6001,
      "material": 6002,
      "Im": 6003,
      "fant": 6004,
      "wick": 6005,
      "repe": 6006,
      "icle": 6007,
      "letters": 6008,
      "alo": 6009,
      "shown": 6010,
      "central": 6011,
      "arrived": 6012,
      "ented": 6013,
      "Den": 6014,
      "bread": 6015,
      "avo": 6016,
      "Rad": 6017,
      "settle": 6018,
      "relationship": 6019,
      "nology": 6020,
      "Smith": 6021,
      "Cathol": 6022,
      "pir": 6023,
      "zed": 6024,
      "utch": 6025,
      "goal": 6026,
      "formula": 6027,
      "leaves": 6028,
      "fifty": 6029,
      "stitute": 6030,
      "Chief": 6031,
      "Brown": 6032,
      "Mike": 6033,
      "Pan": 6034,
      "Time": 6035,
      "phe": 6036,
      "Road": 6037,
      "distribut": 6038,
      "NA": 6039,
      "views": 6040,
      "fighting": 6041,
      "Carol": 6042,
      "Government": 6043,
      "pool": 6044,
      "istan": 6045,
      "launch": 6046,
      "opening": 6047,
      "recorded": 6048,
      "ival": 6049,
      "ero": 6050,
      "lights": 6051,
      "spoke": 6052,
      "victim": 6053,
      "gs": 6054,
      "enced": 6055,
      "ara": 6056,
      "achie": 6057,
      "release": 6058,
      "70": 6059,
      "nest": 6060,
      "therefore": 6061,
      "rub": 6062,
      "fru": 6063,
      "survi": 6064,
      "currently": 6065,
      "discovered": 6066,
      "champion": 6067,
      "imagine": 6068,
      "Life": 6069,
      "Master": 6070,
      "kick": 6071,
      "Louis": 6072,
      "cked": 6073,
      "35": 6074,
      "Ap": 6075,
      "FA": 6076,
      "tells": 6077,
      "45": 6078,
      "media": 6079,
      "Texas": 6080,
      "Fred": 6081,
      "Ce": 6082,
      "Ooh": 6083,
      "lord": 6084,
      "staff": 6085,
      "Mont": 6086,
      "municipality": 6087,
      "moon": 6088,
      "practice": 6089,
      "pair": 6090,
      "serve": 6091,
      "Alright": 6092,
      "Huh": 6093,
      "thro": 6094,
      "according": 6095,
      "claimed": 6096,
      "Once": 6097,
      "Adam": 6098,
      "90": 6099,
      "deter": 6100,
      "players": 6101,
      "Lee": 6102,
      "lia": 6103,
      "absolutely": 6104,
      "Class": 6105,
      "walked": 6106,
      "fault": 6107,
      "AY": 6108,
      "pun": 6109,
      "weather": 6110,
      "nose": 6111,
      "tu": 6112,
      "tot": 6113,
      "boss": 6114,
      "systems": 6115,
      "houses": 6116,
      "qual": 6117,
      "ius": 6118,
      "Mel": 6119,
      "Young": 6120,
      "leading": 6121,
      "Eli": 6122,
      "rose": 6123,
      "pounds": 6124,
      "erve": 6125,
      "cher": 6126,
      "acting": 6127,
      "walking": 6128,
      "ander": 6129,
      "positive": 6130,
      "aled": 6131,
      "arrow": 6132,
      "ideas": 6133,
      "rules": 6134,
      "Joseph": 6135,
      "----": 6136,
      "competition": 6137,
      "Spanish": 6138,
      "inj": 6139,
      ".'": 6140,
      "heat": 6141,
      "ched": 6142,
      "ademy": 6143,
      "highest": 6144,
      "Play": 6145,
      "aries": 6146,
      "security": 6147,
      "entered": 6148,
      "ively": 6149,
      "condition": 6150,
      "minal": 6151,
      "signific": 6152,
      "ram": 6153,
      "nu": 6154,
      "discuss": 6155,
      "dish": 6156,
      "temp": 6157,
      "plants": 6158,
      "Lat": 6159,
      "hole": 6160,
      "pical": 6161,
      "winter": 6162,
      "forth": 6163,
      "angry": 6164,
      "emot": 6165,
      "cars": 6166,
      "rial": 6167,
      "Stu": 6168,
      "copy": 6169,
      "Ir": 6170,
      "includes": 6171,
      "twice": 6172,
      "machine": 6173,
      "extreme": 6174,
      "beyond": 6175,
      "itation": 6176,
      "aps": 6177,
      "illa": 6178,
      "ansas": 6179,
      "correct": 6180,
      "dropped": 6181,
      "throughout": 6182,
      "188": 6183,
      "Dick": 6184,
      "university": 6185,
      "LO": 6186,
      "bury": 6187,
      "arent": 6188,
      "spread": 6189,
      "employ": 6190,
      "Governor": 6191,
      "Men": 6192,
      "NE": 6193,
      "inno": 6194,
      "older": 6195,
      "aland": 6196,
      "leep": 6197,
      "indic": 6198,
      "newsp": 6199,
      "eds": 6200,
      "minated": 6201,
      "minister": 6202,
      "surround": 6203,
      "Today": 6204,
      "Although": 6205,
      "sec": 6206,
      "policy": 6207,
      "Boy": 6208,
      "female": 6209,
      "hasn": 6210,
      "vere": 6211,
      "degree": 6212,
      "PE": 6213,
      "twelve": 6214,
      "Lin": 6215,
      "calls": 6216,
      "hide": 6217,
      "issues": 6218,
      "01": 6219,
      "Profess": 6220,
      "ancient": 6221,
      "uel": 6222,
      "arts": 6223,
      "missed": 6224,
      "medical": 6225,
      "surface": 6226,
      "evol": 6227,
      "Shut": 6228,
      "thin": 6229,
      "Ba": 6230,
      "Happ": 6231,
      "Mur": 6232,
      "Sund": 6233,
      "beg": 6234,
      "centre": 6235,
      "Prince": 6236,
      "Show": 6237,
      "kn": 6238,
      "Alan": 6239,
      "missing": 6240,
      "growing": 6241,
      "Nice": 6242,
      "Western": 6243,
      "Yu": 6244,
      "wearing": 6245,
      "bott": 6246,
      "iloso": 6247,
      "ds": 6248,
      "crime": 6249,
      "Four": 6250,
      "dar": 6251,
      "unless": 6252,
      "promot": 6253,
      "mistake": 6254,
      "Da": 6255,
      "Gar": 6256,
      "Ver": 6257,
      "Sil": 6258,
      "ota": 6259,
      "notice": 6260,
      "satis": 6261,
      "described": 6262,
      "garden": 6263,
      "SO": 6264,
      "bac": 6265,
      "nic": 6266,
      "Chuck": 6267,
      "Uncle": 6268,
      "ashion": 6269,
      "enemy": 6270,
      "jack": 6271,
      "weak": 6272,
      "possess": 6273,
      "Perhaps": 6274,
      "BO": 6275,
      "Fre": 6276,
      "gather": 6277,
      "1999": 6278,
      "estival": 6279,
      "legs": 6280,
      "religious": 6281,
      "anywhere": 6282,
      "Comp": 6283,
      "dangerous": 6284,
      "horses": 6285,
      "counter": 6286,
      "African": 6287,
      "zen": 6288,
      "brown": 6289,
      "individual": 6290,
      "mary": 6291,
      "rot": 6292,
      "Call": 6293,
      "mode": 6294,
      "vels": 6295,
      "Off": 6296,
      "forty": 6297,
      "administr": 6298,
      "sail": 6299,
      "Commun": 6300,
      "Hol": 6301,
      "liber": 6302,
      "screen": 6303,
      "yl": 6304,
      "Jane": 6305,
      "designed": 6306,
      "quarter": 6307,
      "scar": 6308,
      "angle": 6309,
      "teams": 6310,
      "guard": 6311,
      "ification": 6312,
      "aling": 6313,
      "uten": 6314,
      "grown": 6315,
      "Best": 6316,
      "ired": 6317,
      "chall": 6318,
      "raise": 6319,
      "obviously": 6320,
      "fra": 6321,
      "bloody": 6322,
      "Tre": 6323,
      "laid": 6324,
      "painting": 6325,
      "critic": 6326,
      "focus": 6327,
      "escape": 6328,
      "Christmas": 6329,
      "lucky": 6330,
      "CE": 6331,
      "filled": 6332,
      "Saint": 6333,
      "asty": 6334,
      "Has": 6335,
      "km": 6336,
      "abour": 6337,
      "bother": 6338,
      "wedding": 6339,
      "basket": 6340,
      "tle": 6341,
      "ado": 6342,
      "shar": 6343,
      "finan": 6344,
      "deliver": 6345,
      "taught": 6346,
      "finger": 6347,
      "mentioned": 6348,
      "vation": 6349,
      "abad": 6350,
      "frequ": 6351,
      "Hal": 6352,
      "Both": 6353,
      "Secretary": 6354,
      "agreed": 6355,
      "student": 6356,
      "expected": 6357,
      "castle": 6358,
      "poet": 6359,
      "risk": 6360,
      "corpor": 6361,
      "Association": 6362,
      "Mass": 6363,
      "lift": 6364,
      "Prin": 6365,
      "eggs": 6366,
      "sides": 6367,
      "guest": 6368,
      "particip": 6369,
      "Kent": 6370,
      "omy": 6371,
      "remark": 6372,
      "disse": 6373,
      "drew": 6374,
      "Emp": 6375,
      "tained": 6376,
      "direction": 6377,
      "anta": 6378,
      "gged": 6379,
      "waste": 6380,
      "definitely": 6381,
      "TS": 6382,
      "hello": 6383,
      "metal": 6384,
      "loves": 6385,
      "flowers": 6386,
      "brothers": 6387,
      "plans": 6388,
      "solution": 6389,
      "originally": 6390,
      "product": 6391,
      "actress": 6392,
      "Egy": 6393,
      "whis": 6394,
      "consist": 6395,
      "addition": 6396,
      "dollars": 6397,
      "Inter": 6398,
      "operation": 6399,
      "remained": 6400,
      "III": 6401,
      "eli": 6402,
      "kne": 6403,
      "asant": 6404,
      "anda": 6405,
      "commer": 6406,
      "ordered": 6407,
      "crew": 6408,
      "eventually": 6409,
      "Mill": 6410,
      "cise": 6411,
      "lu": 6412,
      "wine": 6413,
      "tool": 6414,
      "Something": 6415,
      "memory": 6416,
      "performance": 6417,
      "pill": 6418,
      "worried": 6419,
      "Han": 6420,
      "Jud": 6421,
      "Los": 6422,
      "ret": 6423,
      "reve": 6424,
      "driving": 6425,
      "provide": 6426,
      "yard": 6427,
      "astern": 6428,
      "ulations": 6429,
      "source": 6430,
      "opportunity": 6431,
      "Catholic": 6432,
      "Pet": 6433,
      "aur": 6434,
      "Sometimes": 6435,
      "azine": 6436,
      "itchen": 6437,
      "particularly": 6438,
      "Rock": 6439,
      "kinds": 6440,
      "Fine": 6441,
      "LD": 6442,
      "Long": 6443,
      "Sto": 6444,
      "concl": 6445,
      "estim": 6446,
      "aging": 6447,
      "stock": 6448,
      "minus": 6449,
      "pressure": 6450,
      "pictures": 6451,
      "Francis": 6452,
      "ada": 6453,
      "Open": 6454,
      "choose": 6455,
      "bitch": 6456,
      "Club": 6457,
      "thinks": 6458,
      "soldiers": 6459,
      "tempor": 6460,
      "bigger": 6461,
      "network": 6462,
      "brief": 6463,
      "divided": 6464,
      "Help": 6465,
      "iron": 6466,
      "demon": 6467,
      "studio": 6468,
      "Province": 6469,
      "HO": 6470,
      "fashion": 6471,
      "patient": 6472,
      "Brother": 6473,
      "strength": 6474,
      "cere": 6475,
      "proud": 6476,
      "structure": 6477,
      "generally": 6478,
      "Hy": 6479,
      "unders": 6480,
      "steps": 6481,
      "Pac": 6482,
      "industry": 6483,
      "Back": 6484,
      "UK": 6485,
      "heads": 6486,
      "keeping": 6487,
      "inn": 6488,
      "izing": 6489,
      "conditions": 6490,
      "smaller": 6491,
      "iles": 6492,
      "phen": 6493,
      "biggest": 6494,
      "Mem": 6495,
      "bits": 6496,
      "easily": 6497,
      "increase": 6498,
      "wealth": 6499,
      "onel": 6500,
      "reported": 6501,
      "Yo": 6502,
      "youth": 6503,
      "picked": 6504,
      "eld": 6505,
      "rush": 6506,
      "brand": 6507,
      "totally": 6508,
      "Phi": 6509,
      "wound": 6510,
      "constant": 6511,
      ",--": 6512,
      "ko": 6513,
      "asc": 6514,
      "eteen": 6515,
      "symbo": 6516,
      "32": 6517,
      "ordinary": 6518,
      "Next": 6519,
      "Son": 6520,
      "reign": 6521,
      "trick": 6522,
      "Scotland": 6523,
      "AK": 6524,
      "trip": 6525,
      "produce": 6526,
      "aine": 6527,
      "plat": 6528,
      "rank": 6529,
      "idi": 6530,
      "verse": 6531,
      "2021": 6532,
      "Major": 6533,
      "shout": 6534,
      "flat": 6535,
      "Iran": 6536,
      "pound": 6537,
      "results": 6538,
      "strate": 6539,
      "lack": 6540,
      "honor": 6541,
      "Wood": 6542,
      "quire": 6543,
      "Art": 6544,
      "dogs": 6545,
      "characters": 6546,
      "determin": 6547,
      "Sus": 6548,
      "tellig": 6549,
      "studied": 6550,
      "Academy": 6551,
      "Ox": 6552,
      "mere": 6553,
      "powerful": 6554,
      "Run": 6555,
      "pite": 6556,
      "amazing": 6557,
      "Bud": 6558,
      "Dire": 6559,
      "bid": 6560,
      "Tri": 6561,
      "uncle": 6562,
      "artist": 6563,
      "records": 6564,
      "Ty": 6565,
      "saved": 6566,
      "contribut": 6567,
      "witness": 6568,
      "Mhm": 6569,
      "itz": 6570,
      "debut": 6571,
      "grave": 6572,
      "ani": 6573,
      "replaced": 6574,
      "mel": 6575,
      "symp": 6576,
      "explo": 6577,
      "roof": 6578,
      "impossible": 6579,
      "defe": 6580,
      "foreign": 6581,
      "construction": 6582,
      "episode": 6583,
      "ray": 6584,
      "ases": 6585,
      "types": 6586,
      "influence": 6587,
      "36": 6588,
      "dete": 6589,
      "iden": 6590,
      "urs": 6591,
      "advant": 6592,
      "stro": 6593,
      "chi": 6594,
      "rif": 6595,
      "travel": 6596,
      "Music": 6597,
      "mut": 6598,
      "san": 6599,
      "failed": 6600,
      "tape": 6601,
      "basically": 6602,
      "manager": 6603,
      "1996": 6604,
      "LY": 6605,
      "actions": 6606,
      "stitut": 6607,
      "Georg": 6608,
      "FI": 6609,
      "Parliament": 6610,
      "dim": 6611,
      "myster": 6612,
      "climb": 6613,
      "Fort": 6614,
      "becoming": 6615,
      "pleasure": 6616,
      "features": 6617,
      "shi": 6618,
      "novel": 6619,
      "rondisse": 6620,
      "resour": 6621,
      "Canadian": 6622,
      "Make": 6623,
      "rupt": 6624,
      "folk": 6625,
      "northern": 6626,
      "1992": 6627,
      "companies": 6628,
      "Lake": 6629,
      "Turn": 6630,
      "icans": 6631,
      "blind": 6632,
      "Jeff": 6633,
      "concerned": 6634,
      "culture": 6635,
      "kitchen": 6636,
      "oul": 6637,
      "candid": 6638,
      "Mum": 6639,
      "Women": 6640,
      "flight": 6641,
      "courage": 6642,
      "pup": 6643,
      "ades": 6644,
      "Spain": 6645,
      "Also": 6646,
      "province": 6647,
      "Championship": 6648,
      "Happy": 6649,
      "becomes": 6650,
      "Still": 6651,
      "greater": 6652,
      "1997": 6653,
      "larger": 6654,
      "favour": 6655,
      "Ram": 6656,
      "union": 6657,
      "willing": 6658,
      "sevent": 6659,
      "units": 6660,
      "Squ": 6661,
      "quality": 6662,
      "killing": 6663,
      "winning": 6664,
      "transfer": 6665,
      "Tal": 6666,
      "von": 6667,
      "Anne": 6668,
      "standard": 6669,
      "replied": 6670,
      "Summer": 6671,
      "Ob": 6672,
      "UR": 6673,
      "lunch": 6674,
      "convers": 6675,
      "mail": 6676,
      "Depart": 6677,
      "shape": 6678,
      "complex": 6679,
      "Haw": 6680,
      "MP": 6681,
      "vey": 6682,
      "Soci": 6683,
      "starts": 6684,
      "teeth": 6685,
      "citiz": 6686,
      "hid": 6687,
      "ulous": 6688,
      "187": 6689,
      "sche": 6690,
      "judge": 6691,
      "significant": 6692,
      "Each": 6693,
      "thick": 6694,
      "singing": 6695,
      "Zealand": 6696,
      "Mexico": 6697,
      "mechan": 6698,
      "speech": 6699,
      "Later": 6700,
      "property": 6701,
      "Tony": 6702,
      "performed": 6703,
      "rooms": 6704,
      "succeed": 6705,
      "negative": 6706,
      "Hot": 6707,
      "smart": 6708,
      "regard": 6709,
      "Maj": 6710,
      "lawyer": 6711,
      "empty": 6712,
      "Fed": 6713,
      "ita": 6714,
      "offered": 6715,
      "breakfast": 6716,
      "listening": 6717,
      "storm": 6718,
      "lor": 6719,
      "coat": 6720,
      "umber": 6721,
      "greatest": 6722,
      "1998": 6723,
      "fal": 6724,
      "concept": 6725,
      "Sovi": 6726,
      "ishop": 6727,
      "cles": 6728,
      "philoso": 6729,
      "nineteen": 6730,
      "journal": 6731,
      "crash": 6732,
      "runs": 6733,
      "strugg": 6734,
      "rise": 6735,
      "pel": 6736,
      "breath": 6737,
      "hotel": 6738,
      "Greek": 6739,
      "Dor": 6740,
      "jun": 6741,
      "request": 6742,
      "appears": 6743,
      "loud": 6744,
      "Isn": 6745,
      "evil": 6746,
      "Sw": 6747,
      "likes": 6748,
      "tight": 6749,
      "ardon": 6750,
      "seconds": 6751,
      "progress": 6752,
      "istics": 6753,
      "directly": 6754,
      "oured": 6755,
      "stuck": 6756,
      "Phil": 6757,
      "surprise": 6758,
      "mainly": 6759,
      "applic": 6760,
      "oppos": 6761,
      "zero": 6762,
      "Bor": 6763,
      "lect": 6764,
      "ller": 6765,
      "religion": 6766,
      "Lady": 6767,
      "unit": 6768,
      "previous": 6769,
      "crack": 6770,
      "Prime": 6771,
      "Professor": 6772,
      "beha": 6773,
      "tray": 6774,
      "dare": 6775,
      "1994": 6776,
      "southern": 6777,
      "traditional": 6778,
      "Democratic": 6779,
      "bless": 6780,
      "1990": 6781,
      "realize": 6782,
      "hurry": 6783,
      "organization": 6784,
      "duty": 6785,
      "gue": 6786,
      "shoes": 6787,
      "refle": 6788,
      "heaven": 6789,
      "utenant": 6790,
      "Hmm": 6791,
      "contr": 6792,
      "handle": 6793,
      "decide": 6794,
      "clearly": 6795,
      "dreams": 6796,
      "wow": 6797,
      "perform": 6798,
      "CK": 6799,
      "Mah": 6800,
      "slowly": 6801,
      "ining": 6802,
      "Stan": 6803,
      "archite": 6804,
      "reasons": 6805,
      "Gi": 6806,
      "Nat": 6807,
      "igan": 6808,
      "fright": 6809,
      "tun": 6810,
      "icles": 6811,
      "Pak": 6812,
      "1995": 6813,
      "Martin": 6814,
      "34": 6815,
      "turning": 6816,
      "buildings": 6817,
      "Department": 6818,
      "taste": 6819,
      "vac": 6820,
      "instru": 6821,
      "opinion": 6822,
      "sam": 6823,
      "cous": 6824,
      "nament": 6825,
      "faces": 6826,
      "Jackson": 6827,
      "circum": 6828,
      "micro": 6829,
      "prevent": 6830,
      "Johnny": 6831,
      "Dutch": 6832,
      "Sho": 6833,
      "zing": 6834,
      "syn": 6835,
      "comfortable": 6836,
      "sake": 6837,
      "Satur": 6838,
      "native": 6839,
      "wake": 6840,
      "limate": 6841,
      "Ire": 6842,
      "itors": 6843,
      "bodies": 6844,
      "Sci": 6845,
      "butter": 6846,
      "Britain": 6847,
      "Gor": 6848,
      "fold": 6849,
      "THAT": 6850,
      "learning": 6851,
      "switch": 6852,
      "hungry": 6853,
      "Cast": 6854,
      "appearance": 6855,
      "recently": 6856,
      "formula_": 6857,
      "mob": 6858,
      "ourselves": 6859,
      "ucky": 6860,
      "Jean": 6861,
      "calm": 6862,
      "conscious": 6863,
      "Ass": 6864,
      "shad": 6865,
      "ante": 6866,
      "council": 6867,
      "possibly": 6868,
      "Emperor": 6869,
      "Sunday": 6870,
      "cting": 6871,
      "location": 6872,
      "Down": 6873,
      "retired": 6874,
      "Stay": 6875,
      "iverse": 6876,
      "athe": 6877,
      "patter": 6878,
      "arrondisse": 6879,
      "gentlemen": 6880,
      "prepared": 6881,
      "rated": 6882,
      "fare": 6883,
      "papers": 6884,
      "remind": 6885,
      "gal": 6886,
      "né": 6887,
      "wet": 6888,
      "meter": 6889,
      "ulty": 6890,
      "civil": 6891,
      "Second": 6892,
      "Shit": 6893,
      "railway": 6894,
      "responsible": 6895,
      "Sl": 6896,
      "reck": 6897,
      "abama": 6898,
      "priest": 6899,
      "Care": 6900,
      "Nick": 6901,
      "meat": 6902,
      "smile": 6903,
      "arily": 6904,
      "ladies": 6905,
      "flow": 6906,
      "introduced": 6907,
      "camera": 6908,
      "appreci": 6909,
      "vili": 6910,
      "37": 6911,
      "Won": 6912,
      "rie": 6913,
      "Alabama": 6914,
      "Max": 6915,
      "ained": 6916,
      "technology": 6917,
      "rit": 6918,
      "Sur": 6919,
      "Sub": 6920,
      "managed": 6921,
      "hearing": 6922,
      "turns": 6923,
      "mitted": 6924,
      "weird": 6925,
      "motor": 6926,
      "separate": 6927,
      "ost": 6928,
      "statement": 6929,
      "easier": 6930,
      "affe": 6931,
      "isto": 6932,
      "1991": 6933,
      "CA": 6934,
      "pred": 6935,
      "lips": 6936,
      "trial": 6937,
      "officers": 6938,
      "crying": 6939,
      "Soviet": 6940,
      "Remember": 6941,
      "flying": 6942,
      "ja": 6943,
      "Group": 6944,
      "Fil": 6945,
      "Wo": 6946,
      "kins": 6947,
      "yan": 6948,
      "owe": 6949,
      "surprised": 6950,
      "pil": 6951,
      "prefer": 6952,
      "jam": 6953,
      "owner": 6954,
      "cream": 6955,
      "igned": 6956,
      "laws": 6957,
      "instr": 6958,
      "asy": 6959,
      "flower": 6960,
      "sleeping": 6961,
      "Ow": 6962,
      "eper": 6963,
      "gay": 6964,
      "skill": 6965,
      "tood": 6966,
      "league": 6967,
      "worst": 6968,
      "Cos": 6969,
      "arently": 6970,
      "'.": 6971,
      "saf": 6972,
      "wheel": 6973,
      "treatment": 6974,
      ".]": 6975,
      "Cro": 6976,
      "Gal": 6977,
      "TI": 6978,
      "ths": 6979,
      "oned": 6980,
      "ette": 6981,
      "Angeles": 6982,
      "content": 6983,
      "drawn": 6984,
      "Actually": 6985,
      "Work": 6986,
      "physical": 6987,
      "Robin": 6988,
      "reme": 6989,
      "proved": 6990,
      "grass": 6991,
      "Stand": 6992,
      "Rome": 6993,
      "Sea": 6994,
      "rang": 6995,
      "isl": 6996,
      "Whoa": 6997,
      "Edward": 6998,
      "Damn": 6999,
      "aving": 7000,
      "Football": 7001,
      "fruit": 7002,
      "38": 7003,
      "Van": 7004,
      "tire": 7005,
      "sports": 7006,
      "neither": 7007,
      "Move": 7008,
      "rious": 7009,
      "LI": 7010,
      "Land": 7011,
      "Penn": 7012,
      "Watch": 7013,
      "Early": 7014,
      "Russia": 7015,
      "pha": 7016,
      "actual": 7017,
      "hardly": 7018,
      "economic": 7019,
      "connected": 7020,
      "Australian": 7021,
      "multiple": 7022,
      "Ur": 7023,
      "ufact": 7024,
      "aces": 7025,
      "brary": 7026,
      "transl": 7027,
      "transport": 7028,
      "rare": 7029,
      "formation": 7030,
      "dying": 7031,
      "chos": 7032,
      "forever": 7033,
      "ying": 7034,
      "pla": 7035,
      "proof": 7036,
      "Ori": 7037,
      "mort": 7038,
      "comment": 7039,
      "Ang": 7040,
      "bast": 7041,
      "pian": 7042,
      "ador": 7043,
      "deb": 7044,
      "planet": 7045,
      "favorite": 7046,
      "Empire": 7047,
      "Swed": 7048,
      "temperature": 7049,
      "etc": 7050,
      "Leave": 7051,
      "cash": 7052,
      "jobs": 7053,
      "ume": 7054,
      "buried": 7055,
      "stream": 7056,
      "silly": 7057,
      "harm": 7058,
      "relative": 7059,
      "stayed": 7060,
      "185": 7061,
      "1993": 7062,
      "independent": 7063,
      "Cat": 7064,
      "Way": 7065,
      "Water": 7066,
      "lit": 7067,
      "tend": 7068,
      "measure": 7069,
      "scale": 7070,
      "excuse": 7071,
      "Company": 7072,
      "ears": 7073,
      "len": 7074,
      "beach": 7075,
      "poly": 7076,
      "Everybody": 7077,
      "meas": 7078,
      "afford": 7079,
      "affair": 7080,
      "Saturday": 7081,
      "Jac": 7082,
      "Line": 7083,
      "pin": 7084,
      "unny": 7085,
      "Braz": 7086,
      "Cur": 7087,
      "tough": 7088,
      "cel": 7089,
      "smell": 7090,
      "SC": 7091,
      "figures": 7092,
      "toward": 7093,
      "grant": 7094,
      "mond": 7095,
      "exer": 7096,
      "consum": 7097,
      "walls": 7098,
      "threw": 7099,
      "Wind": 7100,
      "vest": 7101,
      "intellig": 7102,
      "sole": 7103,
      "serving": 7104,
      "solve": 7105,
      "Cause": 7106,
      "Five": 7107,
      "Last": 7108,
      "workers": 7109,
      "sexual": 7110,
      "dirty": 7111,
      "ening": 7112,
      "button": 7113,
      "Isra": 7114,
      "finding": 7115,
      "1980": 7116,
      "DE": 7117,
      "HA": 7118,
      "rey": 7119,
      "oom": 7120,
      "complic": 7121,
      "spoken": 7122,
      "gle": 7123,
      "mig": 7124,
      "ancy": 7125,
      "...?": 7126,
      "drama": 7127,
      "promised": 7128,
      "48": 7129,
      "ology": 7130,
      "freed": 7131,
      "Camp": 7132,
      "Jones": 7133,
      "glo": 7134,
      "atre": 7135,
      "quarters": 7136,
      "Mich": 7137,
      "sor": 7138,
      "prince": 7139,
      "\"?": 7140,
      "traf": 7141,
      "provided": 7142,
      "medicine": 7143,
      "sar": 7144,
      "anx": 7145,
      "losing": 7146,
      "hadn": 7147,
      "Nobody": 7148,
      "Commission": 7149,
      "Everyone": 7150,
      "traffic": 7151,
      "required": 7152,
      "asleep": 7153,
      "veh": 7154,
      "silver": 7155,
      "troops": 7156,
      "33": 7157,
      "Bang": 7158,
      "ware": 7159,
      "palace": 7160,
      "beauty": 7161,
      "financial": 7162,
      "Society": 7163,
      "Lie": 7164,
      "wich": 7165,
      "shirt": 7166,
      "entirely": 7167,
      "journey": 7168,
      "owa": 7169,
      "represented": 7170,
      "Bas": 7171,
      "Pen": 7172,
      "Town": 7173,
      "Ve": 7174,
      "custo": 7175,
      "Steve": 7176,
      "Anyway": 7177,
      "FOR": 7178,
      "MO": 7179,
      "Na": 7180,
      "doors": 7181,
      "ski": 7182,
      "Didn": 7183,
      "motion": 7184,
      "theast": 7185,
      "plate": 7186,
      "complain": 7187,
      "Islam": 7188,
      "Americans": 7189,
      "rand": 7190,
      "rum": 7191,
      "vous": 7192,
      "numer": 7193,
      "document": 7194,
      "cards": 7195,
      "apt": 7196,
      "apping": 7197,
      "humans": 7198,
      "dressed": 7199,
      "fixed": 7200,
      "altern": 7201,
      "ooh": 7202,
      "civili": 7203,
      "sigh": 7204,
      "accepted": 7205,
      "wis": 7206,
      "arrange": 7207,
      "remains": 7208,
      "Bon": 7209,
      "noticed": 7210,
      "scen": 7211,
      "chem": 7212,
      "advantage": 7213,
      "75": 7214,
      "neighbor": 7215,
      "smoke": 7216,
      "Bad": 7217,
      "Gra": 7218,
      "awa": 7219,
      "feels": 7220,
      "Center": 7221,
      "AB": 7222,
      "assum": 7223,
      "eth": 7224,
      "ache": 7225,
      "iously": 7226,
      "fought": 7227,
      "Whate": 7228,
      "esty": 7229,
      "division": 7230,
      "capac": 7231,
      "fficient": 7232,
      "bat": 7233,
      "resist": 7234,
      "odd": 7235,
      "Again": 7236,
      "Rose": 7237,
      "icts": 7238,
      "beth": 7239,
      "awful": 7240,
      "drinking": 7241,
      "reality": 7242,
      "Common": 7243,
      "expensive": 7244,
      "languages": 7245,
      "VER": 7246,
      "thee": 7247,
      "drunk": 7248,
      "bringing": 7249,
      "Whatever": 7250,
      "Think": 7251,
      "poll": 7252,
      "Someone": 7253,
      "drag": 7254,
      "streets": 7255,
      "limited": 7256,
      "guns": 7257,
      "destroyed": 7258,
      "Hor": 7259,
      "Kim": 7260,
      "Kansas": 7261,
      "isa": 7262,
      "assu": 7263,
      "minor": 7264,
      "magazine": 7265,
      "wid": 7266,
      "iny": 7267,
      "notes": 7268,
      "Ly": 7269,
      "coal": 7270,
      "cohol": 7271,
      "pocket": 7272,
      "chocol": 7273,
      "SI": 7274,
      "planning": 7275,
      "barr": 7276,
      "completed": 7277,
      "Ra": 7278,
      "management": 7279,
      "Ireland": 7280,
      "Spr": 7281,
      "noise": 7282,
      "interview": 7283,
      "stret": 7284,
      "Wilson": 7285,
      "psycho": 7286,
      "Cy": 7287,
      "border": 7288,
      "cate": 7289,
      "royal": 7290,
      "broadcast": 7291,
      "occasion": 7292,
      "cant": 7293,
      "arian": 7294,
      "cake": 7295,
      "ami": 7296,
      "bull": 7297,
      "ission": 7298,
      "belief": 7299,
      "Republican": 7300,
      "reven": 7301,
      "ysis": 7302,
      "safety": 7303,
      "1987": 7304,
      "fifth": 7305,
      "stal": 7306,
      "struck": 7307,
      "falling": 7308,
      "programs": 7309,
      "keys": 7310,
      "knowing": 7311,
      "manufact": 7312,
      "laughing": 7313,
      "audience": 7314,
      "script": 7315,
      "comedy": 7316,
      "Ron": 7317,
      "blank": 7318,
      "Naz": 7319,
      "improve": 7320,
      "ERE": 7321,
      "magic": 7322,
      "behavi": 7323,
      "showing": 7324,
      "governor": 7325,
      "victory": 7326,
      "Princess": 7327,
      "99": 7328,
      "Cra": 7329,
      "indu": 7330,
      "declared": 7331,
      "Bri": 7332,
      "1989": 7333,
      "Northern": 7334,
      "mbly": 7335,
      "Daddy": 7336,
      "Pop": 7337,
      "bin": 7338,
      "tes": 7339,
      "tha": 7340,
      "guitar": 7341,
      "helping": 7342,
      "cells": 7343,
      "jail": 7344,
      "Should": 7345,
      "Too": 7346,
      "witch": 7347,
      "selling": 7348,
      "image": 7349,
      "antly": 7350,
      "Child": 7351,
      "awarded": 7352,
      "thousands": 7353,
      "Oxford": 7354,
      "opposite": 7355,
      "Holy": 7356,
      "sque": 7357,
      "armed": 7358,
      "delight": 7359,
      "Friday": 7360,
      "majority": 7361,
      "billion": 7362,
      "establish": 7363,
      "(,": 7364,
      "dev": 7365,
      "passeng": 7366,
      "receive": 7367,
      "mn": 7368,
      "relie": 7369,
      "tex": 7370,
      "1988": 7371,
      "Dun": 7372,
      "inhabit": 7373,
      "umn": 7374,
      "sin": 7375,
      "younger": 7376,
      "Cre": 7377,
      "ains": 7378,
      "Jimmy": 7379,
      "(;": 7380,
      "Six": 7381,
      "Chan": 7382,
      "ports": 7383,
      "swear": 7384,
      "Sher": 7385,
      "Shi": 7386,
      "rick": 7387,
      "ima": 7388,
      "manner": 7389,
      "delic": 7390,
      "authority": 7391,
      "frog": 7392,
      "thur": 7393,
      "aret": 7394,
      "split": 7395,
      "route": 7396,
      "lyn": 7397,
      "driver": 7398,
      "fired": 7399,
      "understood": 7400,
      "hmm": 7401,
      "lat": 7402,
      "politics": 7403,
      "effects": 7404,
      "fingers": 7405,
      "schol": 7406,
      "WI": 7407,
      "wave": 7408,
      "wings": 7409,
      "amb": 7410,
      "pulled": 7411,
      "understanding": 7412,
      "collection": 7413,
      "TE": 7414,
      "bub": 7415,
      "element": 7416,
      "Welcome": 7417,
      "GR": 7418,
      "mally": 7419,
      "removed": 7420,
      "Division": 7421,
      "300": 7422,
      "upper": 7423,
      "Arch": 7424,
      "Eliza": 7425,
      "branch": 7426,
      "ips": 7427,
      "drugs": 7428,
      "newspaper": 7429,
      "require": 7430,
      "Death": 7431,
      "cellent": 7432,
      "shooting": 7433,
      "Book": 7434,
      "Cross": 7435,
      "til": 7436,
      "onic": 7437,
      "visible": 7438,
      "drum": 7439,
      "Victori": 7440,
      "cock": 7441,
      "concent": 7442,
      "apple": 7443,
      "rison": 7444,
      "response": 7445,
      "darling": 7446,
      "ales": 7447,
      "Si": 7448,
      "effort": 7449,
      "Daniel": 7450,
      "suspect": 7451,
      "tiny": 7452,
      "Institute": 7453,
      "advice": 7454,
      "FC": 7455,
      "Blue": 7456,
      "teaching": 7457,
      "Southern": 7458,
      "bottle": 7459,
      "rab": 7460,
      "atures": 7461,
      "isher": 7462,
      "restaur": 7463,
      "studies": 7464,
      "connection": 7465,
      "resent": 7466,
      "useful": 7467,
      "target": 7468,
      "sli": 7469,
      "enty": 7470,
      "Jewish": 7471,
      "professor": 7472,
      "score": 7473,
      "Win": 7474,
      "Try": 7475,
      "stances": 7476,
      "agent": 7477,
      "Station": 7478,
      "presence": 7479,
      "vention": 7480,
      "Sit": 7481,
      "Tour": 7482,
      "Home": 7483,
      "factory": 7484,
      "jum": 7485,
      "protest": 7486,
      "rence": 7487,
      "supply": 7488,
      "map": 7489,
      "guil": 7490,
      "1986": 7491,
      "costs": 7492,
      "Senate": 7493,
      "Es": 7494,
      "cloud": 7495,
      "musical": 7496,
      "Tele": 7497,
      "pure": 7498,
      "awn": 7499,
      "Fox": 7500,
      "settled": 7501,
      "equi": 7502,
      "lan": 7503,
      "uals": 7504,
      "stance": 7505,
      "resident": 7506,
      "Ten": 7507,
      "setting": 7508,
      "vania": 7509,
      "credit": 7510,
      "ishing": 7511,
      "colour": 7512,
      "listed": 7513,
      "damage": 7514,
      "ached": 7515,
      "arrested": 7516,
      "chicken": 7517,
      "aters": 7518,
      "excl": 7519,
      "breaking": 7520,
      "passing": 7521,
      "divor": 7522,
      "asha": 7523,
      "accom": 7524,
      "contains": 7525,
      "affect": 7526,
      "elect": 7527,
      "Indiana": 7528,
      "Awards": 7529,
      "Bes": 7530,
      "Dom": 7531,
      "adium": 7532,
      "matches": 7533,
      "Iowa": 7534,
      "Tu": 7535,
      "sword": 7536,
      "aded": 7537,
      "advent": 7538,
      "ceremon": 7539,
      "pit": 7540,
      "strict": 7541,
      "stein": 7542,
      "Rick": 7543,
      "alcohol": 7544,
      "tied": 7545,
      "matters": 7546,
      "Edu": 7547,
      "acts": 7548,
      "products": 7549,
      "mixed": 7550,
      "bare": 7551,
      "everywhere": 7552,
      "Ann": 7553,
      "Harry": 7554,
      "chester": 7555,
      "Free": 7556,
      "ocean": 7557,
      "roles": 7558,
      "universe": 7559,
      "confl": 7560,
      "background": 7561,
      "mination": 7562,
      "univers": 7563,
      "uments": 7564,
      "grade": 7565,
      "flash": 7566,
      "Roger": 7567,
      "producer": 7568,
      "Latin": 7569,
      "temporary": 7570,
      "IV": 7571,
      "furn": 7572,
      "ouri": 7573,
      "meters": 7574,
      "oma": 7575,
      "hib": 7576,
      "details": 7577,
      "dé": 7578,
      "voc": 7579,
      "chant": 7580,
      "justice": 7581,
      "prior": 7582,
      "basic": 7583,
      "conversation": 7584,
      "chemical": 7585,
      "chocolate": 7586,
      "44": 7587,
      "climate": 7588,
      "aron": 7589,
      "Bank": 7590,
      "Hung": 7591,
      "ads": 7592,
      "treated": 7593,
      "supported": 7594,
      "attend": 7595,
      "syl": 7596,
      "keeps": 7597,
      "cute": 7598,
      "acted": 7599,
      "afterwards": 7600,
      "cycle": 7601,
      "tournament": 7602,
      "enge": 7603,
      "paying": 7604,
      "fields": 7605,
      "Valley": 7606,
      "slightly": 7607,
      "cheese": 7608,
      "watched": 7609,
      "laughed": 7610,
      "drawing": 7611,
      "sons": 7612,
      "shore": 7613,
      "commercial": 7614,
      "Had": 7615,
      "PS": 7616,
      "Rho": 7617,
      "Command": 7618,
      "calcul": 7619,
      "gall": 7620,
      "ching": 7621,
      "azz": 7622,
      "signal": 7623,
      "levels": 7624,
      "trail": 7625,
      "honour": 7626,
      "circle": 7627,
      "client": 7628,
      "GHT": 7629,
      "integr": 7630,
      ".--": 7631,
      "39": 7632,
      "Jam": 7633,
      "MY": 7634,
      "height": 7635,
      "fifteen": 7636,
      "esar": 7637,
      "ctic": 7638,
      "Pope": 7639,
      "Ash": 7640,
      "Pyr": 7641,
      "failure": 7642,
      "Pakistan": 7643,
      "tong": 7644,
      "poem": 7645,
      "aked": 7646,
      "Ga": 7647,
      "vy": 7648,
      "previously": 7649,
      "highly": 7650,
      "Wall": 7651,
      "gang": 7652,
      "pleased": 7653,
      "portion": 7654,
      "growth": 7655,
      "Jen": 7656,
      "hed": 7657,
      "flag": 7658,
      "Asia": 7659,
      "feelings": 7660,
      "expand": 7661,
      "tware": 7662,
      "Dal": 7663,
      "escap": 7664,
      "Anton": 7665,
      "increased": 7666,
      "Jun": 7667,
      "iana": 7668,
      "eastern": 7669,
      "ninety": 7670,
      "gentleman": 7671,
      "sees": 7672,
      "headed": 7673,
      "1982": 7674,
      "excited": 7675,
      "Games": 7676,
      "gers": 7677,
      "Gro": 7678,
      "Museum": 7679,
      "propos": 7680,
      "quant": 7681,
      "spin": 7682,
      "prime": 7683,
      "joke": 7684,
      "joint": 7685,
      "invited": 7686,
      "kidding": 7687,
      "silence": 7688,
      "bang": 7689,
      "icks": 7690,
      "Force": 7691,
      "Chair": 7692,
      "Serge": 7693,
      "hanging": 7694,
      "economy": 7695,
      "extremely": 7696,
      "ghost": 7697,
      "terror": 7698,
      "borough": 7699,
      "attacked": 7700,
      "strike": 7701,
      "cabin": 7702,
      "Cho": 7703,
      "carefully": 7704,
      "Tro": 7705,
      "tone": 7706,
      "chest": 7707,
      "federal": 7708,
      "Times": 7709,
      "Publ": 7710,
      "bone": 7711,
      "recomm": 7712,
      "advan": 7713,
      "chap": 7714,
      "Follow": 7715,
      "Police": 7716,
      "avoid": 7717,
      "defeated": 7718,
      "Fri": 7719,
      "Found": 7720,
      "Light": 7721,
      "MA": 7722,
      "upset": 7723,
      "1930": 7724,
      "maintain": 7725,
      "1979": 7726,
      "satisf": 7727,
      "Pennsyl": 7728,
      "64": 7729,
      "insur": 7730,
      "chain": 7731,
      "Tommy": 7732,
      "princess": 7733,
      "activity": 7734,
      "Olympics": 7735,
      "throat": 7736,
      "Colonel": 7737,
      "stated": 7738,
      "sugar": 7739,
      "changing": 7740,
      "generation": 7741,
      "instance": 7742,
      "Wales": 7743,
      "forgotten": 7744,
      "Michigan": 7745,
      "pitch": 7746,
      "parties": 7747,
      "award": 7748,
      "contest": 7749,
      "neighbour": 7750,
      "hase": 7751,
      "1985": 7752,
      "Carter": 7753,
      "soldier": 7754,
      "SH": 7755,
      "labor": 7756,
      "meal": 7757,
      "killer": 7758,
      "pressed": 7759,
      "allows": 7760,
      "locked": 7761,
      "tainment": 7762,
      "thoughts": 7763,
      "1981": 7764,
      "Carl": 7765,
      "review": 7766,
      "proceed": 7767,
      "1976": 7768,
      "patients": 7769,
      "resources": 7770,
      "dess": 7771,
      "gift": 7772,
      "causes": 7773,
      "quit": 7774,
      "brush": 7775,
      "spect": 7776,
      "closer": 7777,
      "lax": 7778,
      "queen": 7779,
      "Pacific": 7780,
      "UGH": 7781,
      "stations": 7782,
      "register": 7783,
      "1984": 7784,
      "apartment": 7785,
      "Cas": 7786,
      "task": 7787,
      "homes": 7788,
      "diag": 7789,
      "logist": 7790,
      "staying": 7791,
      "flew": 7792,
      "photograph": 7793,
      "Middle": 7794,
      "tts": 7795,
      "noted": 7796,
      "mming": 7797,
      "organis": 7798,
      "expression": 7799,
      "guilty": 7800,
      "Bat": 7801,
      "Dave": 7802,
      "Fire": 7803,
      "bunch": 7804,
      "hiding": 7805,
      "somehow": 7806,
      "giant": 7807,
      "Looks": 7808,
      "holds": 7809,
      "budget": 7810,
      "fortunately": 7811,
      "Aye": 7812,
      "jer": 7813,
      "slo": 7814,
      "sets": 7815,
      "colon": 7816,
      "suggested": 7817,
      "incident": 7818,
      "rapid": 7819,
      "dancing": 7820,
      "Scottish": 7821,
      "Kat": 7822,
      "hes": 7823,
      "rible": 7824,
      "ustration": 7825,
      "presents": 7826,
      "Brad": 7827,
      "solid": 7828,
      "Vo": 7829,
      "narrow": 7830,
      "stable": 7831,
      "forgive": 7832,
      "sphere": 7833,
      "Arthur": 7834,
      "balls": 7835,
      "fallen": 7836,
      "brave": 7837,
      "Carolina": 7838,
      "achieve": 7839,
      "Georgia": 7840,
      "Hard": 7841,
      "grav": 7842,
      "ANT": 7843,
      "carrying": 7844,
      "Pennsylvania": 7845,
      "Ak": 7846,
      "Lar": 7847,
      "Tai": 7848,
      "replace": 7849,
      "acle": 7850,
      "web": 7851,
      "custom": 7852,
      "Majesty": 7853,
      "Swit": 7854,
      "Uk": 7855,
      "tap": 7856,
      "devil": 7857,
      "Social": 7858,
      "zerland": 7859,
      "Williams": 7860,
      "hook": 7861,
      "nap": 7862,
      "horn": 7863,
      "ingu": 7864,
      "icated": 7865,
      "achuse": 7866,
      "metres": 7867,
      "basis": 7868,
      "Andrew": 7869,
      "\").": 7870,
      "App": 7871,
      "Civ": 7872,
      "heim": 7873,
      "fairly": 7874,
      "historical": 7875,
      "achusetts": 7876,
      "55": 7877,
      "cot": 7878,
      "Hurry": 7879,
      "crowd": 7880,
      "Director": 7881,
      "Net": 7882,
      "UT": 7883,
      "kingdom": 7884,
      "primary": 7885,
      "familiar": 7886,
      "Switzerland": 7887,
      "Bi": 7888,
      "Battle": 7889,
      "Mountain": 7890,
      "alty": 7891,
      "agu": 7892,
      "icket": 7893,
      "auto": 7894,
      "mathem": 7895,
      "tradition": 7896,
      "status": 7897,
      "Sid": 7898,
      "ey": 7899,
      "powers": 7900,
      "attract": 7901,
      "aband": 7902,
      "upstairs": 7903,
      "tive": 7904,
      "eleven": 7905,
      "Commit": 7906,
      "Caesar": 7907,
      "perfectly": 7908,
      "argument": 7909,
      "Massachusetts": 7910,
      "whisper": 7911,
      "freedom": 7912,
      "KE": 7913,
      "medal": 7914,
      "attended": 7915,
      "trem": 7916,
      "Boston": 7917,
      "Metro": 7918,
      "Wol": 7919,
      "vive": 7920,
      "pleasant": 7921,
      "visions": 7922,
      "dram": 7923,
      "Bru": 7924,
      "tower": 7925,
      "conference": 7926,
      "ulated": 7927,
      "disci": 7928,
      "Order": 7929,
      "analysis": 7930,
      "sharp": 7931,
      "faster": 7932,
      ".’": 7933,
      "Eastern": 7934,
      "rings": 7935,
      "istry": 7936,
      "vessel": 7937,
      "1983": 7938,
      "NOW": 7939,
      "scientific": 7940,
      "wore": 7941,
      "passion": 7942,
      "Exactly": 7943,
      "Lincol": 7944,
      "arrondissement": 7945,
      "47": 7946,
      "Ell": 7947,
      "helps": 7948,
      "nights": 7949,
      "Night": 7950,
      "irk": 7951,
      "worn": 7952,
      "creation": 7953,
      "1970": 7954,
      "iation": 7955,
      "quid": 7956,
      "OUT": 7957,
      "ONE": 7958,
      "beside": 7959,
      "feder": 7960,
      "weapon": 7961,
      "Fam": 7962,
      "Hun": 7963,
      "Tra": 7964,
      "aid": 7965,
      "ires": 7966,
      "beer": 7967,
      "captured": 7968,
      "knife": 7969,
      "pher": 7970,
      "wrest": 7971,
      "trou": 7972,
      "elements": 7973,
      "planned": 7974,
      "1973": 7975,
      "ception": 7976,
      "Him": 7977,
      "éné": 7978,
      "Such": 7979,
      "LAUGH": 7980,
      "Bus": 7981,
      "Offic": 7982,
      "file": 7983,
      "gam": 7984,
      "proposed": 7985,
      "Ohio": 7986,
      "chosen": 7987,
      "Lincoln": 7988,
      "PO": 7989,
      "rican": 7990,
      "Juli": 7991,
      "rocks": 7992,
      "sched": 7993,
      "mama": 7994,
      "purch": 7995,
      "icking": 7996,
      "plenty": 7997,
      "1972": 7998,
      "CHAP": 7999,
      "Irish": 8000,
      "inhabitants": 8001,
      "jan": 8002,
      "oops": 8003,
      "20th": 8004,
      "Year": 8005,
      "rant": 8006,
      "ishment": 8007,
      "otherwise": 8008,
      "happiness": 8009,
      "shame": 8010,
      "territory": 8011,
      "Prize": 8012,
      "ental": 8013,
      "Record": 8014,
      "normally": 8015,
      "1971": 8016,
      "Tech": 8017,
      "Anything": 8018,
      "CHAPTER": 8019,
      "42": 8020,
      "46": 8021,
      "49": 8022,
      "Tru": 8023,
      "Ven": 8024,
      "Want": 8025,
      "gment": 8026,
      "pul": 8027,
      "goods": 8028,
      "disco": 8029,
      "intended": 8030,
      "string": 8031,
      "apolog": 8032,
      "experiment": 8033,
      "CD": 8034,
      "Whe": 8035,
      "artists": 8036,
      "oldest": 8037,
      "valu": 8038,
      "Team": 8039,
      "Ari": 8040,
      "Rac": 8041,
      "desire": 8042,
      "ranch": 8043,
      "activities": 8044,
      "weapons": 8045,
      "Aha": 8046,
      "‎.": 8047,
      "oph": 8048,
      "1975": 8049,
      "committee": 8050,
      "lake": 8051,
      "pregn": 8052,
      "remembered": 8053,
      "sweetie": 8054,
      "unique": 8055,
      "Hit": 8056,
      "Laugh": 8057,
      "RA": 8058,
      "unknown": 8059,
      "mann": 8060,
      "dip": 8061,
      "paint": 8062,
      "Committee": 8063,
      "adem": 8064,
      "grab": 8065,
      "commission": 8066,
      "cousin": 8067,
      "Hans": 8068,
      "ulate": 8069,
      "ultim": 8070,
      "Missouri": 8071,
      "aye": 8072,
      "grees": 8073,
      "Shall": 8074,
      "lN": 8075,
      "onia": 8076,
      "tears": 8077,
      "wondering": 8078,
      "Besides": 8079,
      ".)": 8080,
      "Gard": 8081,
      "adop": 8082,
      "...\"": 8083,
      "1978": 8084,
      "aired": 8085,
      "officially": 8086,
      "burgh": 8087,
      "basketball": 8088,
      "Yep": 8089,
      "servative": 8090,
      "Holmes": 8091,
      "Ka": 8092,
      "Were": 8093,
      "py": 8094,
      "whoa": 8095,
      "nervous": 8096,
      "realized": 8097,
      "1968": 8098,
      "voted": 8099,
      "daily": 8100,
      "mous": 8101,
      "Health": 8102,
      "continues": 8103,
      "Enter": 8104,
      "defend": 8105,
      "frame": 8106,
      "zo": 8107,
      "plement": 8108,
      "commonly": 8109,
      "jected": 8110,
      "agreement": 8111,
      "knock": 8112,
      "Francisco": 8113,
      "determined": 8114,
      "Gil": 8115,
      "VI": 8116,
      "online": 8117,
      "forts": 8118,
      "aircraft": 8119,
      "Service": 8120,
      "Korea": 8121,
      "cation": 8122,
      "orange": 8123,
      "rier": 8124,
      "degrees": 8125,
      "begins": 8126,
      "400": 8127,
      "Labour": 8128,
      "Must": 8129,
      "rd": 8130,
      "icide": 8131,
      "etch": 8132,
      "consequ": 8133,
      "films": 8134,
      "evolution": 8135,
      "Lind": 8136,
      "teachers": 8137,
      "mountains": 8138,
      "false": 8139,
      "Ot": 8140,
      "ammy": 8141,
      "perman": 8142,
      "presented": 8143,
      "leaders": 8144,
      "confess": 8145,
      "Kill": 8146,
      "ola": 8147,
      "Bell": 8148,
      "follows": 8149,
      "towns": 8150,
      "associated": 8151,
      "Por": 8152,
      "Pap": 8153,
      "poison": 8154,
      "cris": 8155,
      "refused": 8156,
      "Turk": 8157,
      "variety": 8158,
      "launched": 8159,
      "dust": 8160,
      "heav": 8161,
      "silent": 8162,
      "Polish": 8163,
      "Ali": 8164,
      "Mun": 8165,
      "chuck": 8166,
      "signs": 8167,
      "occurred": 8168,
      ";/": 8169,
      "Aw": 8170,
      "Wat": 8171,
      "aspect": 8172,
      "stress": 8173,
      "chose": 8174,
      "stands": 8175,
      "suffered": 8176,
      "Tem": 8177,
      "tort": 8178,
      "writ": 8179,
      "referred": 8180,
      "symbol": 8181,
      "Ku": 8182,
      "nasty": 8183,
      "ological": 8184,
      "pink": 8185,
      "ares": 8186,
      "MI": 8187,
      "cats": 8188,
      "tum": 8189,
      "aly": 8190,
      "channel": 8191,
      "drove": 8192,
      "approxim": 8193,
      "senior": 8194,
      "featured": 8195,
      "Film": 8196,
      "ux": 8197,
      "somewhat": 8198,
      "ava": 8199,
      "1974": 8200,
      "falls": 8201,
      "toms": 8202,
      "supp": 8203,
      "ulture": 8204,
      "seriously": 8205,
      "Fair": 8206,
      "SA": 8207,
      "lone": 8208,
      "1969": 8209,
      "increasing": 8210,
      "golden": 8211,
      "Pyréné": 8212,
      "nick": 8213,
      "veget": 8214,
      "19th": 8215,
      "deser": 8216,
      "loose": 8217,
      "Pyrénées": 8218,
      "Song": 8219,
      "root": 8220,
      "blame": 8221,
      "protection": 8222,
      "techni": 8223,
      "violence": 8224,
      "lap": 8225,
      "seek": 8226,
      "mont": 8227,
      "winner": 8228,
      "Lieutenant": 8229,
      "Pu": 8230,
      "eding": 8231,
      "urally": 8232,
      "puts": 8233,
      "Argent": 8234,
      "Monday": 8235,
      "Aunt": 8236,
      "Festival": 8237,
      "Vol": 8238,
      "Wed": 8239,
      "museum": 8240,
      "hamm": 8241,
      "coo": 8242,
      "Leg": 8243,
      "Johnson": 8244,
      "innocent": 8245,
      "Die": 8246,
      "Gun": 8247,
      "acqu": 8248,
      "1960": 8249,
      "1967": 8250,
      "windows": 8251,
      "Eh": 8252,
      "zes": 8253,
      "core": 8254,
      "maid": 8255,
      "gging": 8256,
      "profit": 8257,
      "piano": 8258,
      "Hand": 8259,
      "aks": 8260,
      "disappeared": 8261,
      "apparently": 8262,
      "temple": 8263,
      "software": 8264,
      "antiques": 8265,
      "fancy": 8266,
      "chestra": 8267,
      "nuts": 8268,
      "Office": 8269,
      "bastard": 8270,
      "65": 8271,
      "admit": 8272,
      "shoulder": 8273,
      "sites": 8274,
      "Charlie": 8275,
      "critical": 8276,
      "',": 8277,
      "cig": 8278,
      "vor": 8279,
      "ira": 8280,
      "mayor": 8281,
      "organized": 8282,
      "hidden": 8283,
      "Story": 8284,
      "bite": 8285,
      "thri": 8286,
      "lean": 8287,
      "entially": 8288,
      "gery": 8289,
      "appointment": 8290,
      "latter": 8291,
      "vig": 8292,
      "domin": 8293,
      "kings": 8294,
      "sixty": 8295,
      "sales": 8296,
      "batter": 8297,
      "negot": 8298,
      "existence": 8299,
      "tories": 8300,
      "Andy": 8301,
      "boyfriend": 8302,
      "Pete": 8303,
      "ern": 8304,
      "stab": 8305,
      "severe": 8306,
      "advert": 8307,
      "180": 8308,
      "additional": 8309,
      "marks": 8310,
      "classes": 8311,
      "folks": 8312,
      "Broad": 8313,
      "ooth": 8314,
      "Head": 8315,
      "sheep": 8316,
      "stitu": 8317,
      "Ay": 8318,
      "Game": 8319,
      "Kong": 8320,
      "WO": 8321,
      "income": 8322,
      "cia": 8323,
      "Donald": 8324,
      "1977": 8325,
      "trains": 8326,
      "hoping": 8327,
      "Pi": 8328,
      "girlfriend": 8329,
      "advance": 8330,
      "juice": 8331,
      "Israel": 8332,
      "earned": 8333,
      "survive": 8334,
      "incredi": 8335,
      "Susan": 8336,
      "Les": 8337,
      "cue": 8338,
      "ography": 8339,
      "Maria": 8340,
      "circumstances": 8341,
      "tank": 8342,
      "Bring": 8343,
      "marked": 8344,
      "benefit": 8345,
      "BA": 8346,
      "agan": 8347,
      "grace": 8348,
      "earch": 8349,
      "nearby": 8350,
      "Civil": 8351,
      "elic": 8352,
      "thrown": 8353,
      "ctors": 8354,
      "reports": 8355,
      "Kentucky": 8356,
      "laughter": 8357,
      "convict": 8358,
      "estic": 8359,
      "steam": 8360,
      "Liber": 8361,
      "Atlantiques": 8362,
      "Cla": 8363,
      "Rh": 8364,
      "relax": 8365,
      "akers": 8366,
      "autom": 8367,
      "Bridge": 8368,
      "lliant": 8369,
      "insurance": 8370,
      "mile": 8371,
      "iance": 8372,
      "counts": 8373,
      "Berlin": 8374,
      "settlement": 8375,
      "Ukrain": 8376,
      "atom": 8377,
      "astr": 8378,
      "aside": 8379,
      "argu": 8380,
      "lom": 8381,
      "maxim": 8382,
      "steel": 8383,
      "weekend": 8384,
      "Sel": 8385,
      "oring": 8386,
      "delay": 8387,
      "embarr": 8388,
      "hundreds": 8389,
      "Brook": 8390,
      "iger": 8391,
      "angers": 8392,
      "idiot": 8393,
      "embarrass": 8394,
      "Cer": 8395,
      "Gri": 8396,
      "Greg": 8397,
      "scored": 8398,
      "Elizabeth": 8399,
      "Yet": 8400,
      "Soon": 8401,
      "cycl": 8402,
      "patch": 8403,
      "conver": 8404,
      "gotten": 8405,
      "desc": 8406,
      "organiz": 8407,
      "recognize": 8408,
      "Radio": 8409,
      "Castle": 8410,
      "urban": 8411,
      "anged": 8412,
      "Confeder": 8413,
      "engaged": 8414,
      "1964": 8415,
      "Columb": 8416,
      "buddy": 8417,
      "Jersey": 8418,
      "assistant": 8419,
      "appreciate": 8420,
      "Raj": 8421,
      "Swe": 8422,
      "isy": 8423,
      "Until": 8424,
      "flood": 8425,
      "charged": 8426,
      "techn": 8427,
      "Egypt": 8428,
      "theme": 8429,
      "agues": 8430,
      "faced": 8431,
      "reference": 8432,
      "random": 8433,
      "ricane": 8434,
      "spell": 8435,
      "desper": 8436,
      "steal": 8437,
      "Represent": 8438,
      "prepar": 8439,
      "fortune": 8440,
      "riding": 8441,
      "responsibility": 8442,
      "hunting": 8443,
      "tools": 8444,
      "RB": 8445,
      "ders": 8446,
      "goodness": 8447,
      "pursu": 8448,
      "Disney": 8449,
      "Rab": 8450,
      "UP": 8451,
      "mates": 8452,
      "library": 8453,
      "clever": 8454,
      "gods": 8455,
      "suspic": 8456,
      "EP": 8457,
      "Fall": 8458,
      "friendly": 8459,
      "solved": 8460,
      "ridic": 8461,
      "Danny": 8462,
      "rance": 8463,
      "compared": 8464,
      "cheer": 8465,
      "values": 8466,
      "finds": 8467,
      "recording": 8468,
      "Point": 8469,
      "Woman": 8470,
      "gie": 8471,
      "whist": 8472,
      "nominated": 8473,
      "Alice": 8474,
      "ivity": 8475,
      "1st": 8476,
      "Know": 8477,
      "retire": 8478,
      "etic": 8479,
      "iley": 8480,
      "Board": 8481,
      "Ti": 8482,
      "stones": 8483,
      "duck": 8484,
      "males": 8485,
      "respond": 8486,
      "Viet": 8487,
      "suffering": 8488,
      "ez": 8489,
      "hunt": 8490,
      "inch": 8491,
      "mole": 8492,
      "Nether": 8493,
      "operations": 8494,
      "seasons": 8495,
      "potential": 8496,
      "SB": 8497,
      "Top": 8498,
      "pension": 8499,
      "exchange": 8500,
      "carbon": 8501,
      "handed": 8502,
      "shared": 8503,
      "appropri": 8504,
      "waited": 8505,
      "pipe": 8506,
      "Id": 8507,
      "assa": 8508,
      "sem": 8509,
      "secut": 8510,
      "Kal": 8511,
      "Person": 8512,
      "properly": 8513,
      "95": 8514,
      "fate": 8515,
      "editor": 8516,
      "tram": 8517,
      "composed": 8518,
      "obvious": 8519,
      "borrow": 8520,
      "southwestern": 8521,
      "darkness": 8522,
      "recognized": 8523,
      "emergency": 8524,
      "platform": 8525,
      "\"),": 8526,
      "Ni": 8527,
      "arks": 8528,
      "fled": 8529,
      "ARE": 8530,
      "committed": 8531,
      "struct": 8532,
      "tongue": 8533,
      "Twenty": 8534,
      "mod": 8535,
      "discover": 8536,
      "criminal": 8537,
      "seventy": 8538,
      "restaurant": 8539,
      "Public": 8540,
      "Tha": 8541,
      "UE": 8542,
      "cers": 8543,
      "reaction": 8544,
      "ashed": 8545,
      "shake": 8546,
      "Hay": 8547,
      "Isa": 8548,
      "ule": 8549,
      "revolution": 8550,
      "alous": 8551,
      "proced": 8552,
      "mental": 8553,
      "shel": 8554,
      "spending": 8555,
      "News": 8556,
      "Eric": 8557,
      "isted": 8558,
      "legisl": 8559,
      "painted": 8560,
      "operating": 8561,
      "truly": 8562,
      "Burn": 8563,
      "Oper": 8564,
      "Test": 8565,
      "ias": 8566,
      "infl": 8567,
      "attr": 8568,
      "1945": 8569,
      "Without": 8570,
      "issued": 8571,
      "WHAT": 8572,
      "dread": 8573,
      "rend": 8574,
      "owder": 8575,
      "deck": 8576,
      "positions": 8577,
      "Revolution": 8578,
      "Jews": 8579,
      "ENT": 8580,
      "northwest": 8581,
      "Poland": 8582,
      "tracks": 8583,
      "Sarah": 8584,
      "enem": 8585,
      "som": 8586,
      "consists": 8587,
      "annual": 8588,
      "emplo": 8589,
      "burst": 8590,
      "Duke": 8591,
      "investigation": 8592,
      "citizens": 8593,
      "Ban": 8594,
      "IM": 8595,
      "Sud": 8596,
      "tub": 8597,
      "vit": 8598,
      "sters": 8599,
      "liar": 8600,
      "elections": 8601,
      "150": 8602,
      "sentence": 8603,
      "communication": 8604,
      ".[": 8605,
      "Ri": 8606,
      "overall": 8607,
      "cheek": 8608,
      "1962": 8609,
      "limit": 8610,
      "instrument": 8611,
      ",'": 8612,
      "Fa": 8613,
      "insp": 8614,
      "webs": 8615,
      "oop": 8616,
      "highway": 8617,
      "parte": 8618,
      "eaten": 8619,
      "Jr": 8620,
      "Pers": 8621,
      "Ted": 8622,
      "oty": 8623,
      "candidate": 8624,
      "numerous": 8625,
      "TA": 8626,
      "ora": 8627,
      "endy": 8628,
      "Mmm": 8629,
      "Bow": 8630,
      "inner": 8631,
      "importance": 8632,
      "ffici": 8633,
      "lion": 8634,
      "wire": 8635,
      "ila": 8636,
      "spector": 8637,
      "horrible": 8638,
      "bullet": 8639,
      "Columbia": 8640,
      "\"\"": 8641,
      "Seven": 8642,
      "bond": 8643,
      "sale": 8644,
      "alle": 8645,
      "democr": 8646,
      "article": 8647,
      "apore": 8648,
      "Alexander": 8649,
      "bones": 8650,
      "plot": 8651,
      "Beach": 8652,
      "Justice": 8653,
      "1966": 8654,
      "magn": 8655,
      "Earl": 8656,
      "holiday": 8657,
      "Singapore": 8658,
      "electricity": 8659,
      "Khan": 8660,
      "Sk": 8661,
      "cler": 8662,
      "Bern": 8663,
      "regre": 8664,
      "SS": 8665,
      "Tam": 8666,
      "arest": 8667,
      "conce": 8668,
      "Leon": 8669,
      "1963": 8670,
      "challenge": 8671,
      "lung": 8672,
      "adult": 8673,
      "moves": 8674,
      "creating": 8675,
      "odes": 8676,
      "earn": 8677,
      "bitter": 8678,
      "decor": 8679,
      "pretend": 8680,
      "probability": 8681,
      "adopted": 8682,
      "Rus": 8683,
      "Santa": 8684,
      "equip": 8685,
      "enemies": 8686,
      "bene": 8687,
      "Shar": 8688,
      "scientists": 8689,
      "Baby": 8690,
      "Hong": 8691,
      "Saudi": 8692,
      "Ton": 8693,
      "mier": 8694,
      "zi": 8695,
      "moral": 8696,
      "titles": 8697,
      "presidential": 8698,
      "complicated": 8699,
      "End": 8700,
      "Tenn": 8701,
      "Vice": 8702,
      "dates": 8703,
      "gust": 8704,
      "tab": 8705,
      "saving": 8706,
      "grat": 8707,
      "stole": 8708,
      "attered": 8709,
      "Quick": 8710,
      "concern": 8711,
      "selected": 8712,
      "Victoria": 8713,
      "41": 8714,
      "Gy": 8715,
      "Wag": 8716,
      "rice": 8717,
      "sion": 8718,
      "edition": 8719,
      "user": 8720,
      "convin": 8721,
      "reser": 8722,
      "igno": 8723,
      "Emily": 8724,
      "explained": 8725,
      "Kenned": 8726,
      "secure": 8727,
      "skills": 8728,
      "FL": 8729,
      "phr": 8730,
      "apply": 8731,
      "succeeded": 8732,
      "negoti": 8733,
      "Vietnam": 8734,
      "partement": 8735,
      "Lan": 8736,
      "uries": 8737,
      "atmo": 8738,
      "ala": 8739,
      "advis": 8740,
      "excellent": 8741,
      "venue": 8742,
      "materials": 8743,
      "repeated": 8744,
      "rhy": 8745,
      "leaf": 8746,
      "woods": 8747,
      "programme": 8748,
      "Vill": 8749,
      "ras": 8750,
      "estate": 8751,
      "fuel": 8752,
      "Ark": 8753,
      "roads": 8754,
      "gained": 8755,
      "mobile": 8756,
      "Sergeant": 8757,
      "Mind": 8758,
      "Tar": 8759,
      "mood": 8760,
      "brings": 8761,
      "breast": 8762,
      "examples": 8763,
      "BI": 8764,
      "Rand": 8765,
      "cheap": 8766,
      "pression": 8767,
      "Holly": 8768,
      "touched": 8769,
      "pattern": 8770,
      "43": 8771,
      "Honey": 8772,
      "acks": 8773,
      "Somebody": 8774,
      "eighty": 8775,
      "salt": 8776,
      "département": 8777,
      "hammad": 8778,
      "Jos": 8779,
      "TR": 8780,
      "attitude": 8781,
      "Count": 8782,
      "ighs": 8783,
      "interests": 8784,
      "Trust": 8785,
      "healthy": 8786,
      "86": 8787,
      "iture": 8788,
      "unte": 8789,
      "lotte": 8790,
      "slept": 8791,
      "Stephen": 8792,
      "burned": 8793,
      "literally": 8794,
      "conflict": 8795,
      "Netherlands": 8796,
      "BBC": 8797,
      "sust": 8798,
      "yeh": 8799,
      "Coast": 8800,
      "fishing": 8801,
      "Illustration": 8802,
      "exercise": 8803,
      "PR": 8804,
      "Tok": 8805,
      "endo": 8806,
      "sty": 8807,
      "depends": 8808,
      "describe": 8809,
      "Turkey": 8810,
      "impact": 8811,
      "Honor": 8812,
      "tip": 8813,
      "pointed": 8814,
      "politan": 8815,
      "millions": 8816,
      "concert": 8817,
      "glasses": 8818,
      "uniform": 8819,
      "elder": 8820,
      "Science": 8821,
      "Tot": 8822,
      "confir": 8823,
      "exact": 8824,
      "stomach": 8825,
      "preser": 8826,
      "Islands": 8827,
      "Goodbye": 8828,
      "communities": 8829,
      "install": 8830,
      "swimming": 8831,
      "Kennedy": 8832,
      "YE": 8833,
      "moun": 8834,
      "encies": 8835,
      "bride": 8836,
      "desk": 8837,
      "capable": 8838,
      "1965": 8839,
      "objects": 8840,
      "85": 8841,
      "BS": 8842,
      "Cab": 8843,
      "FE": 8844,
      "Ker": 8845,
      "kit": 8846,
      "pants": 8847,
      "boats": 8848,
      "aki": 8849,
      "Albert": 8850,
      "1947": 8851,
      "graduated": 8852,
      "challeng": 8853,
      "Brian": 8854,
      "ii": 8855,
      "otic": 8856,
      "Thus": 8857,
      "Asse": 8858,
      "System": 8859,
      "asion": 8860,
      "observed": 8861,
      "remaining": 8862,
      "screw": 8863,
      "None": 8864,
      "ading": 8865,
      "sau": 8866,
      "brid": 8867,
      "tons": 8868,
      "Hospital": 8869,
      "virt": 8870,
      "parent": 8871,
      "clubs": 8872,
      "Bir": 8873,
      "Power": 8874,
      "fli": 8875,
      "incorpor": 8876,
      "Through": 8877,
      "eping": 8878,
      "cultural": 8879,
      "nuclear": 8880,
      "Education": 8881,
      "equipment": 8882,
      "Find": 8883,
      "Jay": 8884,
      "bishop": 8885,
      "toi": 8886,
      "minim": 8887,
      "founder": 8888,
      "ultural": 8889,
      "ugly": 8890,
      "figured": 8891,
      "Brazil": 8892,
      "Wendy": 8893,
      "gil": 8894,
      "amm": 8895,
      "Chip": 8896,
      "uded": 8897,
      "Dean": 8898,
      "scul": 8899,
      "identified": 8900,
      "efforts": 8901,
      "distur": 8902,
      "Austria": 8903,
      "swim": 8904,
      "scholar": 8905,
      "Billy": 8906,
      "Dre": 8907,
      "alpha": 8908,
      "plastic": 8909,
      "creature": 8910,
      "driven": 8911,
      "1952": 8912,
      "trained": 8913,
      "engineering": 8914,
      "industrial": 8915,
      "Ever": 8916,
      "MS": 8917,
      "UL": 8918,
      "anne": 8919,
      "ader": 8920,
      "goals": 8921,
      "regions": 8922,
      "rising": 8923,
      "controlled": 8924,
      "executive": 8925,
      "Assembly": 8926,
      "89": 8927,
      "Cut": 8928,
      "Nic": 8929,
      "Wr": 8930,
      "alleg": 8931,
      "accur": 8932,
      "chart": 8933,
      "agric": 8934,
      "aho": 8935,
      "Dear": 8936,
      "subsequ": 8937,
      "Supreme": 8938,
      "literature": 8939,
      "affected": 8940,
      "Pass": 8941,
      "Wild": 8942,
      "dia": 8943,
      "Conne": 8944,
      "Contin": 8945,
      "1970s": 8946,
      "buying": 8947,
      "Coo": 8948,
      "Hang": 8949,
      "seas": 8950,
      "ulting": 8951,
      "Brand": 8952,
      "bably": 8953,
      "frag": 8954,
      "badly": 8955,
      "1956": 8956,
      "Corpor": 8957,
      "distributed": 8958,
      "revealed": 8959,
      "suicide": 8960,
      "surgery": 8961,
      "volume": 8962,
      "Guard": 8963,
      "Simon": 8964,
      "sacrif": 8965,
      "gian": 8966,
      "agement": 8967,
      "sorts": 8968,
      "bike": 8969,
      "belongs": 8970,
      "frightened": 8971,
      "Pur": 8972,
      "seats": 8973,
      "umph": 8974,
      "situ": 8975,
      "Human": 8976,
      "option": 8977,
      "occupied": 8978,
      "Wednes": 8979,
      "DNA": 8980,
      "hip": 8981,
      "uff": 8982,
      "grate": 8983,
      "Start": 8984,
      "torney": 8985,
      "Shel": 8986,
      "sixth": 8987,
      "idae": 8988,
      "wounded": 8989,
      "Jess": 8990,
      "anna": 8991,
      "iring": 8992,
      "unable": 8993,
      "romantic": 8994,
      "Instead": 8995,
      "surely": 8996,
      "1944": 8997,
      "opera": 8998,
      "Channel": 8999,
      "Lad": 9000,
      "PA": 9001,
      "Ta": 9002,
      "poser": 9003,
      "nod": 9004,
      "colors": 9005,
      "Mayor": 9006,
      "atherine": 9007,
      "Tan": 9008,
      "whale": 9009,
      "rode": 9010,
      "illness": 9011,
      "blast": 9012,
      "spit": 9013,
      "Boss": 9014,
      "Post": 9015,
      "closely": 9016,
      "laughs": 9017,
      "brilliant": 9018,
      "pushed": 9019,
      "employe": 9020,
      "website": 9021,
      "wished": 9022,
      "zation": 9023,
      "soil": 9024,
      "opposed": 9025,
      "whenever": 9026,
      "hired": 9027,
      "Asian": 9028,
      "prize": 9029,
      "Series": 9030,
      "ruled": 9031,
      "blocks": 9032,
      "application": 9033,
      "Navy": 9034,
      "parish": 9035,
      "shock": 9036,
      "dealing": 9037,
      "effective": 9038,
      "Atlantic": 9039,
      "administration": 9040,
      "Bul": 9041,
      "Morgan": 9042,
      "Rod": 9043,
      "ethe": 9044,
      "Arts": 9045,
      "Mean": 9046,
      "checked": 9047,
      "combination": 9048,
      "Better": 9049,
      "Jacob": 9050,
      "bie": 9051,
      "tered": 9052,
      "ules": 9053,
      "Def": 9054,
      "doctors": 9055,
      "Records": 9056,
      "Ocean": 9057,
      "icted": 9058,
      "cert": 9059,
      "harder": 9060,
      "authorities": 9061,
      "crossed": 9062,
      "DA": 9063,
      "Mit": 9064,
      "Main": 9065,
      "Ryan": 9066,
      "infe": 9067,
      "tier": 9068,
      "perial": 9069,
      "poses": 9070,
      "grey": 9071,
      "Constitution": 9072,
      "glas": 9073,
      "curious": 9074,
      "Walter": 9075,
      "Syd": 9076,
      "analy": 9077,
      "advanced": 9078,
      "iments": 9079,
      "lover": 9080,
      "explan": 9081,
      "preh": 9082,
      "genus": 9083,
      "possibility": 9084,
      "distingu": 9085,
      "widely": 9086,
      "beneath": 9087,
      "Mir": 9088,
      "aunt": 9089,
      "mart": 9090,
      "mud": 9091,
      "dozen": 9092,
      "Though": 9093,
      "jection": 9094,
      "relations": 9095,
      "Probably": 9096,
      "competed": 9097,
      "victims": 9098,
      "dun": 9099,
      "feather": 9100,
      "shell": 9101,
      "guar": 9102,
      "cutting": 9103,
      "instant": 9104,
      "sources": 9105,
      "pilot": 9106,
      "ridiculous": 9107,
      "Raw": 9108,
      "dale": 9109,
      "iest": 9110,
      "powder": 9111,
      "thetic": 9112,
      "tos": 9113,
      "bec": 9114,
      "diam": 9115,
      "puzz": 9116,
      "hydro": 9117,
      "Cub": 9118,
      "Tak": 9119,
      "slip": 9120,
      "uster": 9121,
      "conven": 9122,
      "constitu": 9123,
      "monster": 9124,
      "applied": 9125,
      "cuit": 9126,
      "stronger": 9127,
      "mathemat": 9128,
      "Mas": 9129,
      "sending": 9130,
      "handsome": 9131,
      "compon": 9132,
      "slide": 9133,
      "1954": 9134,
      "baseball": 9135,
      "approximately": 9136,
      "Base": 9137,
      "bay": 9138,
      "ories": 9139,
      "defeat": 9140,
      "visited": 9141,
      "talks": 9142,
      "Charlotte": 9143,
      "squared": 9144,
      "demonstr": 9145,
      "sie": 9146,
      "toys": 9147,
      "ulf": 9148,
      "tians": 9149,
      "identity": 9150,
      "mighty": 9151,
      "expert": 9152,
      "environmental": 9153,
      "2nd": 9154,
      "DON": 9155,
      "Morning": 9156,
      "wand": 9157,
      "yards": 9158,
      "eration": 9159,
      "acid": 9160,
      "unusual": 9161,
      "spare": 9162,
      "centuries": 9163,
      "chamber": 9164,
      "eighteen": 9165,
      "defined": 9166,
      "bathroom": 9167,
      "AA": 9168,
      "rix": 9169,
      "covers": 9170,
      "identify": 9171,
      "Frances": 9172,
      "prisoners": 9173,
      "necessarily": 9174,
      "Golden": 9175,
      "LES": 9176,
      "Vin": 9177,
      "ua": 9178,
      "gray": 9179,
      "pton": 9180,
      "athy": 9181,
      "Anna": 9182,
      "1961": 9183,
      "leads": 9184,
      "votes": 9185,
      "grandfather": 9186,
      "Korean": 9187,
      "regret": 9188,
      "Cop": 9189,
      "device": 9190,
      "YOUR": 9191,
      "graduate": 9192,
      "escaped": 9193,
      "rating": 9194,
      "Cu": 9195,
      "Sn": 9196,
      "stan": 9197,
      "beating": 9198,
      "usal": 9199,
      "1920": 9200,
      "phan": 9201,
      "asks": 9202,
      "Indones": 9203,
      "Michel": 9204,
      "burning": 9205,
      "surrounded": 9206,
      "kilo": 9207,
      "♪♪": 9208,
      "reput": 9209,
      "distribution": 9210,
      "Tay": 9211,
      "ón": 9212,
      "shed": 9213,
      "umes": 9214,
      "Marg": 9215,
      "ggy": 9216,
      "districts": 9217,
      "bowl": 9218,
      "independence": 9219,
      "pump": 9220,
      "zone": 9221,
      "onom": 9222,
      "regarded": 9223,
      "operated": 9224,
      "communes": 9225,
      "Bull": 9226,
      "murdered": 9227,
      "Sweden": 9228,
      "ceremony": 9229,
      "Rel": 9230,
      "thir": 9231,
      "1941": 9232,
      "equals": 9233,
      "enjoyed": 9234,
      "CON": 9235,
      "Mod": 9236,
      "cular": 9237,
      "pale": 9238,
      "pages": 9239,
      "rope": 9240,
      "inton": 9241,
      "observ": 9242,
      "Conference": 9243,
      "tribut": 9244,
      "confidence": 9245,
      "Aren": 9246,
      "Oliver": 9247,
      "Sof": 9248,
      "athing": 9249,
      "gory": 9250,
      "pron": 9251,
      "THIS": 9252,
      "horror": 9253,
      "combined": 9254,
      "Philip": 9255,
      "Budd": 9256,
      "philosophy": 9257,
      "Wonder": 9258,
      "BR": 9259,
      "Cir": 9260,
      "Fu": 9261,
      "fans": 9262,
      "amin": 9263,
      "udes": 9264,
      "avar": 9265,
      "deserve": 9266,
      "despite": 9267,
      "versions": 9268,
      "babies": 9269,
      "label": 9270,
      "hearts": 9271,
      "cooking": 9272,
      "Bos": 9273,
      "mers": 9274,
      "pled": 9275,
      "passage": 9276,
      "alongside": 9277,
      "Railway": 9278,
      "nurse": 9279,
      "shadow": 9280,
      "appropriate": 9281,
      "Laughter": 9282,
      "tender": 9283,
      "waves": 9284,
      "enna": 9285,
      "illust": 9286,
      "primar": 9287,
      "airport": 9288,
      "sisters": 9289,
      "banks": 9290,
      "principal": 9291,
      "scratch": 9292,
      "57": 9293,
      "waters": 9294,
      "shine": 9295,
      "composer": 9296,
      "items": 9297,
      "Anth": 9298,
      "fourteen": 9299,
      "Absolutely": 9300,
      "provin": 9301,
      "decisions": 9302,
      "merely": 9303,
      "diamond": 9304,
      "66": 9305,
      "Rom": 9306,
      "ckey": 9307,
      "reward": 9308,
      "dynam": 9309,
      "Howard": 9310,
      "copies": 9311,
      "Shakes": 9312,
      "oxy": 9313,
      "lonely": 9314,
      "piss": 9315,
      "loan": 9316,
      "worship": 9317,
      "stranger": 9318,
      "funeral": 9319,
      "Eddie": 9320,
      "campus": 9321,
      "accompl": 9322,
      "hedron": 9323,
      "guarante": 9324,
      "Bible": 9325,
      "Hart": 9326,
      "stir": 9327,
      "span": 9328,
      "enses": 9329,
      "Cape": 9330,
      "Matthe": 9331,
      "pregnant": 9332,
      "98": 9333,
      "Aaron": 9334,
      "Loc": 9335,
      "Mand": 9336,
      "OH": 9337,
      "Sab": 9338,
      "dat": 9339,
      "woke": 9340,
      "typical": 9341,
      "voices": 9342,
      "1950": 9343,
      "1958": 9344,
      "exciting": 9345,
      "individuals": 9346,
      "reduced": 9347,
      "Sydney": 9348,
      "Lam": 9349,
      "Moo": 9350,
      "bent": 9351,
      "pity": 9352,
      "esome": 9353,
      "bran": 9354,
      "hire": 9355,
      "listened": 9356,
      "appeal": 9357,
      "ierce": 9358,
      "architect": 9359,
      "Shakespe": 9360,
      "lab": 9361,
      "column": 9362,
      "cript": 9363,
      "shortly": 9364,
      "scheme": 9365,
      "assume": 9366,
      "discipl": 9367,
      "keeper": 9368,
      "akh": 9369,
      "operate": 9370,
      "arranged": 9371,
      "neighborhood": 9372,
      "flies": 9373,
      "gig": 9374,
      "neut": 9375,
      "diet": 9376,
      "compar": 9377,
      "hypo": 9378,
      "Centre": 9379,
      "separated": 9380,
      "Research": 9381,
      "stroke": 9382,
      "Chairman": 9383,
      "Shakespeare": 9384,
      "97": 9385,
      "fasc": 9386,
      "sne": 9387,
      "childhood": 9388,
      "1960s": 9389,
      "PC": 9390,
      "Pho": 9391,
      "gur": 9392,
      "orton": 9393,
      "aska": 9394,
      "1980s": 9395,
      "distinct": 9396,
      "Senator": 9397,
      "hibition": 9398,
      "Clar": 9399,
      "Ev": 9400,
      "Ice": 9401,
      "theatre": 9402,
      "reviews": 9403,
      "islands": 9404,
      "aro": 9405,
      "icing": 9406,
      "regional": 9407,
      "profession": 9408,
      "Goo": 9409,
      "dating": 9410,
      "ito": 9411,
      "wart": 9412,
      "rol": 9413,
      "Hell": 9414,
      "itty": 9415,
      "tooth": 9416,
      "gene": 9417,
      "musician": 9418,
      "1955": 9419,
      "1959": 9420,
      "massive": 9421,
      "Douglas": 9422,
      "permanent": 9423,
      "confirmed": 9424,
      "grateful": 9425,
      "Bour": 9426,
      "pour": 9427,
      "sta": 9428,
      "actors": 9429,
      "cops": 9430,
      "histori": 9431,
      "aughters": 9432,
      "Finn": 9433,
      "Internet": 9434,
      "dedicated": 9435,
      "Spring": 9436,
      "relief": 9437,
      "Family": 9438,
      "Gas": 9439,
      "ee": 9440,
      "jury": 9441,
      "outs": 9442,
      "shift": 9443,
      "lod": 9444,
      "returning": 9445,
      "balance": 9446,
      "knees": 9447,
      "Talk": 9448,
      "struggle": 9449,
      "Lisa": 9450,
      "stolen": 9451,
      "valley": 9452,
      "warning": 9453,
      "personality": 9454,
      "telephone": 9455,
      "cruel": 9456,
      "capacity": 9457,
      "crisis": 9458,
      "Ky": 9459,
      "Kan": 9460,
      "dor": 9461,
      "sang": 9462,
      "enor": 9463,
      "semi": 9464,
      "yep": 9465,
      "Stone": 9466,
      "buck": 9467,
      "initial": 9468,
      "Amy": 9469,
      "CAR": 9470,
      "Kur": 9471,
      "SPE": 9472,
      "choo": 9473,
      "aman": 9474,
      "counting": 9475,
      "jealous": 9476,
      "factor": 9477,
      "provides": 9478,
      "Peace": 9479,
      "inosa": 9480,
      "answers": 9481,
      "Sem": 9482,
      "festival": 9483,
      "tric": 9484,
      "swing": 9485,
      "Build": 9486,
      "machines": 9487,
      "Special": 9488,
      "secretary": 9489,
      "collap": 9490,
      "collabor": 9491,
      "methods": 9492,
      "Egyp": 9493,
      "Nik": 9494,
      "implement": 9495,
      "reek": 9496,
      "crown": 9497,
      "persons": 9498,
      "1957": 9499,
      "Between": 9500,
      "Region": 9501,
      "vast": 9502,
      "destru": 9503,
      "desert": 9504,
      "Forest": 9505,
      "Luc": 9506,
      "Wis": 9507,
      "aced": 9508,
      "academ": 9509,
      "resto": 9510,
      "bold": 9511,
      "torn": 9512,
      "aws": 9513,
      "bedroom": 9514,
      "1942": 9515,
      "practical": 9516,
      "estimated": 9517,
      "journalist": 9518,
      "rear": 9519,
      "seed": 9520,
      "pride": 9521,
      "Despite": 9522,
      "istol": 9523,
      "intelligence": 9524,
      "HAVE": 9525,
      "Fur": 9526,
      "dum": 9527,
      "lest": 9528,
      "hem": 9529,
      "celer": 9530,
      "dem": 9531,
      "merged": 9532,
      "display": 9533,
      "intend": 9534,
      "persu": 9535,
      "loaded": 9536,
      "impression": 9537,
      "iving": 9538,
      "tag": 9539,
      "stall": 9540,
      "Rober": 9541,
      "Ask": 9542,
      "Leo": 9543,
      "Blood": 9544,
      "starred": 9545,
      "inspired": 9546,
      "Der": 9547,
      "Econ": 9548,
      "Gall": 9549,
      "OD": 9550,
      "vul": 9551,
      "iser": 9552,
      "shook": 9553,
      "Poor": 9554,
      "confused": 9555,
      "claims": 9556,
      "guests": 9557,
      "FIFA": 9558,
      "granted": 9559,
      "Bush": 9560,
      "Sister": 9561,
      "XX": 9562,
      "dude": 9563,
      "chairman": 9564,
      "quietly": 9565,
      "principle": 9566,
      "historic": 9567,
      "ticket": 9568,
      "promoted": 9569,
      "Federal": 9570,
      "600": 9571,
      "87": 9572,
      "vant": 9573,
      "betray": 9574,
      "wanting": 9575,
      "Develo": 9576,
      "allowing": 9577,
      "promin": 9578,
      "villages": 9579,
      "domestic": 9580,
      "experienced": 9581,
      "Finally": 9582,
      "physics": 9583,
      "83": 9584,
      "Card": 9585,
      "mr": 9586,
      "oli": 9587,
      "tack": 9588,
      "reci": 9589,
      "preced": 9590,
      "dragon": 9591,
      "volunte": 9592,
      "existing": 9593,
      "taxes": 9594,
      "bourne": 9595,
      "800": 9596,
      "Ms": 9597,
      "Rural": 9598,
      "soup": 9599,
      "inher": 9600,
      "beast": 9601,
      "smith": 9602,
      "servant": 9603,
      "Greece": 9604,
      "Mexican": 9605,
      "atmosphere": 9606,
      "Mount": 9607,
      "stim": 9608,
      "hab": 9609,
      "agger": 9610,
      "demo": 9611,
      "formal": 9612,
      "minds": 9613,
      "extended": 9614,
      "benefits": 9615,
      "--------": 9616,
      "frequently": 9617,
      "poetry": 9618,
      "plause": 9619,
      "Bol": 9620,
      "CI": 9621,
      "Ira": 9622,
      "Nar": 9623,
      "rust": 9624,
      "ensity": 9625,
      "ensions": 9626,
      "chae": 9627,
      "facts": 9628,
      "Plan": 9629,
      "worthy": 9630,
      "Premier": 9631,
      "spiritual": 9632,
      "models": 9633,
      "/&": 9634,
      "Ji": 9635,
      "inal": 9636,
      "urer": 9637,
      "noble": 9638,
      "berry": 9639,
      "foc": 9640,
      "crap": 9641,
      "Produ": 9642,
      "revenge": 9643,
      "Children": 9644,
      ",’": 9645,
      "entrance": 9646,
      "Thurs": 9647,
      "aka": 9648,
      "specially": 9649,
      "fairy": 9650,
      "purple": 9651,
      "albums": 9652,
      "Kelly": 9653,
      "Fif": 9654,
      "Sever": 9655,
      "fiction": 9656,
      "theless": 9657,
      "ende": 9658,
      "rolled": 9659,
      "illegal": 9660,
      "Hope": 9661,
      "snake": 9662,
      "dollar": 9663,
      "satisfied": 9664,
      "pically": 9665,
      "revol": 9666,
      "secre": 9667,
      "lov": 9668,
      "cker": 9669,
      "Beat": 9670,
      "Doesn": 9671,
      "initi": 9672,
      "jacket": 9673,
      "discovery": 9674,
      "Fig": 9675,
      "gic": 9676,
      "chat": 9677,
      "usive": 9678,
      "moments": 9679,
      "gger": 9680,
      "Protest": 9681,
      "Trump": 9682,
      "commander": 9683,
      "vehicle": 9684,
      "Margaret": 9685,
      "oxygen": 9686,
      "Gon": 9687,
      "Wy": 9688,
      "daughters": 9689,
      "ori": 9690,
      "throne": 9691,
      "Real": 9692,
      "Ready": 9693,
      "valent": 9694,
      "onsense": 9695,
      "difficulty": 9696,
      "67": 9697,
      "rates": 9698,
      "sufficient": 9699,
      "endment": 9700,
      "emperor": 9701,
      "personally": 9702,
      "Joy": 9703,
      "drinks": 9704,
      "naturally": 9705,
      "violent": 9706,
      "housing": 9707,
      "mystery": 9708,
      "Following": 9709,
      "dumb": 9710,
      "orrow": 9711,
      "entry": 9712,
      "eties": 9713,
      "spite": 9714,
      "--\"": 9715,
      "pson": 9716,
      "shaped": 9717,
      "explos": 9718,
      "starring": 9719,
      "statistics": 9720,
      "GET": 9721,
      "Wednesday": 9722,
      "atically": 9723,
      "rever": 9724,
      "solo": 9725,
      "proto": 9726,
      "--&": 9727,
      "ERS": 9728,
      "charges": 9729,
      "fecture": 9730,
      "Germans": 9731,
      "alternative": 9732,
      "toast": 9733,
      "sixteen": 9734,
      "Color": 9735,
      "Hugh": 9736,
      "recommend": 9737,
      "DS": 9738,
      "Daw": 9739,
      "Glo": 9740,
      "Jon": 9741,
      "Number": 9742,
      "Sports": 9743,
      "dated": 9744,
      "sper": 9745,
      "ugu": 9746,
      "sheet": 9747,
      "ideal": 9748,
      "episodes": 9749,
      "fantastic": 9750,
      "scenes": 9751,
      "diagno": 9752,
      "WAS": 9753,
      "lers": 9754,
      "encour": 9755,
      "uts": 9756,
      "shopping": 9757,
      "injury": 9758,
      "abandoned": 9759,
      "Ball": 9760,
      "CL": 9761,
      "rage": 9762,
      "abol": 9763,
      "una": 9764,
      "permission": 9765,
      "letting": 9766,
      "harmon": 9767,
      "Steven": 9768,
      "fleet": 9769,
      "description": 9770,
      "Kh": 9771,
      "PLA": 9772,
      "bage": 9773,
      "institut": 9774,
      "prepare": 9775,
      "discussion": 9776,
      "instructions": 9777,
      "eve": 9778,
      "obey": 9779,
      "remove": 9780,
      "render": 9781,
      "images": 9782,
      "sav": 9783,
      "lately": 9784,
      "Among": 9785,
      "videos": 9786,
      "introduce": 9787,
      "initially": 9788,
      "intel": 9789,
      "delivered": 9790,
      "delicious": 9791,
      "59": 9792,
      "88": 9793,
      "Tues": 9794,
      "Vis": 9795,
      "eager": 9796,
      "adel": 9797,
      "shots": 9798,
      "causing": 9799,
      "collect": 9800,
      "squad": 9801,
      "Anthony": 9802,
      "Corn": 9803,
      "Matt": 9804,
      "UM": 9805,
      "dict": 9806,
      "lio": 9807,
      "depos": 9808,
      "debt": 9809,
      "aux": 9810,
      "Forget": 9811,
      "deaths": 9812,
      "ARR": 9813,
      "1946": 9814,
      "boxes": 9815,
      "confident": 9816,
      "defense": 9817,
      "NOT": 9818,
      "subjects": 9819,
      "jumped": 9820,
      "Officer": 9821,
      "valuable": 9822,
      "Cry": 9823,
      "Os": 9824,
      "Pad": 9825,
      "abe": 9826,
      "punch": 9827,
      "quot": 9828,
      "stops": 9829,
      "shoulders": 9830,
      "carriage": 9831,
      "Ross": 9832,
      "fron": 9833,
      "ilian": 9834,
      "virus": 9835,
      "connect": 9836,
      "reduce": 9837,
      "Origin": 9838,
      "Ep": 9839,
      "Lim": 9840,
      "hockey": 9841,
      "1990s": 9842,
      "legend": 9843,
      "1948": 9844,
      "Warwick": 9845,
      "thesis": 9846,
      "documents": 9847,
      "behavior": 9848,
      "maximum": 9849,
      "120": 9850,
      "77": 9851,
      "Cher": 9852,
      "Dak": 9853,
      "Koh": 9854,
      "TING": 9855,
      "bis": 9856,
      "inary": 9857,
      "deli": 9858,
      "cave": 9859,
      "Administr": 9860,
      "appearances": 9861,
      "Palace": 9862,
      "Bah": 9863,
      "pent": 9864,
      "rein": 9865,
      "nowhere": 9866,
      "ifer": 9867,
      "exped": 9868,
      "exclaimed": 9869,
      "Chi": 9870,
      "awards": 9871,
      "breathe": 9872,
      "considerable": 9873,
      "Jerry": 9874,
      "printed": 9875,
      "Toronto": 9876,
      "capture": 9877,
      "relatively": 9878,
      "Turkish": 9879,
      "\"...": 9880,
      "Bishop": 9881,
      "ett": 9882,
      "elev": 9883,
      "largely": 9884,
      "joining": 9885,
      "scarce": 9886,
      "Career": 9887,
      "global": 9888,
      "etheart": 9889,
      "Face": 9890,
      "lecture": 9891,
      "acceler": 9892,
      "attached": 9893,
      "consult": 9894,
      "Grey": 9895,
      "metro": 9896,
      "reasonable": 9897,
      "garage": 9898,
      "Deput": 9899,
      "Championships": 9900,
      "sacred": 9901,
      "strategy": 9902,
      "toilet": 9903,
      "Band": 9904,
      "MR": 9905,
      "Pot": 9906,
      "pse": 9907,
      "rog": 9908,
      "engines": 9909,
      "slave": 9910,
      "1953": 9911,
      "shops": 9912,
      "dramatic": 9913,
      "Thursday": 9914,
      "Cze": 9915,
      "essee": 9916,
      "cano": 9917,
      "raising": 9918,
      "posing": 9919,
      "cricket": 9920,
      "headquarters": 9921,
      "Enough": 9922,
      "Media": 9923,
      "Airport": 9924,
      "sandwich": 9925,
      "administrative": 9926,
      "Tennessee": 9927,
      "aud": 9928,
      "bby": 9929,
      "bass": 9930,
      "nig": 9931,
      "haw": 9932,
      "ille": 9933,
      "raw": 9934,
      "phant": 9935,
      "lesson": 9936,
      "parliament": 9937,
      "invented": 9938,
      "1943": 9939,
      "ucking": 9940,
      "Ministry": 9941,
      "Olympic": 9942,
      "Ut": 9943,
      "sought": 9944,
      "infin": 9945,
      "reform": 9946,
      "vector": 9947,
      "admir": 9948,
      "Anti": 9949,
      "smooth": 9950,
      "engineer": 9951,
      "investment": 9952,
      "deeply": 9953,
      "fortunate": 9954,
      "Nations": 9955,
      "fake": 9956,
      "aser": 9957,
      "bearing": 9958,
      "keen": 9959,
      "worker": 9960,
      "Grant": 9961,
      "1940": 9962,
      "1939": 9963,
      "prisoner": 9964,
      "bags": 9965,
      "municipal": 9966,
      "sighs": 9967,
      "tel": 9968,
      "Area": 9969,
      "Haven": 9970,
      "hills": 9971,
      "absor": 9972,
      "injured": 9973,
      "96": 9974,
      "GI": 9975,
      "Kev": 9976,
      "fred": 9977,
      "zu": 9978,
      "begun": 9979,
      "dece": 9980,
      "sible": 9981,
      "Short": 9982,
      "draft": 9983,
      "animated": 9984,
      "accused": 9985,
      "Hawai": 9986,
      "Robinson": 9987,
      "56": 9988,
      "Ama": 9989,
      "Maz": 9990,
      "Sav": 9991,
      "Anim": 9992,
      "breathing": 9993,
      "voy": 9994,
      "angel": 9995,
      "paintings": 9996,
      "affairs": 9997,
      "Foundation": 9998,
      "heavily": 9999,
      "3rd": 10000,
      "Pict": 10001,
      "oon": 10002,
      "ograph": 10003,
      "recru": 10004,
      "tale": 10005,
      "crush": 10006,
      "shoe": 10007,
      "testing": 10008,
      "representing": 10009,
      "boom": 10010,
      "Transport": 10011,
      "Arabia": 10012,
      "explanation": 10013,
      "Kr": 10014,
      "KNOW": 10015,
      "Pic": 10016,
      "avan": 10017,
      "scow": 10018,
      "singles": 10019,
      "adding": 10020,
      "mistry": 10021,
      "conduct": 10022,
      "survived": 10023,
      "transferred": 10024,
      "Live": 10025,
      "doo": 10026,
      "Heaven": 10027,
      "comot": 10028,
      "umin": 10029,
      "Admir": 10030,
      "miser": 10031,
      "Tomorrow": 10032,
      "hoped": 10033,
      "symptoms": 10034,
      "4th": 10035,
      "Ford": 10036,
      "Field": 10037,
      "Ul": 10038,
      "ike": 10039,
      "rig": 10040,
      "neath": 10041,
      "aints": 10042,
      "cloth": 10043,
      "Joel": 10044,
      "formerly": 10045,
      "Check": 10046,
[...]
