{
  "version": "1.0",
  "truncation": null,
  "padding": null,
  "added_tokens": [
    {
      "id": 0,
      "content": "[UNK]",
      "single_word": false,
      "lstrip": false,
      "rstrip": false,
      "normalized": false,
      "special": true
    },
    {
      "id": 1,
      "content": "<|endoftext|>",
      "single_word": false,
      "lstrip": false,
      "rstrip": false,
      "normalized": false,
      "special": true
    }
  ],
  "normalizer": null,
  "pre_tokenizer": {
    "type": "Whitespace"
  },
  "post_processor": null,
  "decoder": null,
  "model": {
    "type": "BPE",
    "dropout": null,
    "unk_token": "[UNK]",
    "continuing_subword_prefix": null,
    "end_of_word_suffix": null,
    "fuse_unk": false,
    "byte_fallback": false,
    "vocab": {
      "[UNK]": 0,
      "<|endoftext|>": 1,
      "!": 2,
      "\"": 3,
      "#": 4,
      "$": 5,
      "%": 6,
      "&": 7,
      "'": 8,
      "(": 9,
      ")": 10,
      "*": 11,
      "+": 12,
      ",": 13,
      "-": 14,
      ".": 15,
      "/": 16,
      "0": 17,
      "1": 18,
      "2": 19,
      "3": 20,
      "4": 21,
      "5": 22,
      "6": 23,
      "7": 24,
      "8": 25,
      "9": 26,
      ":": 27,
      ";": 28,
      "<": 29,
      "=": 30,
      ">": 31,
      "?": 32,
      "@": 33,
      "A": 34,
      "B": 35,
      "C": 36,
      "D": 37,
      "E": 38,
      "F": 39,
      "G": 40,
      "H": 41,
      "I": 42,
      "J": 43,
      "K": 44,
      "L": 45,
      "M": 46,
      "N": 47,
      "O": 48,
      "P": 49,
      "Q": 50,
      "R": 51,
      "S": 52,
      "T": 53,
      "U": 54,
      "V": 55,
      "W": 56,
      "X": 57,
      "Y": 58,
      "Z": 59,
      "[": 60,
      "\\": 61,
      "]": 62,
      "_": 63,
      "`": 64,
      "a": 65,
      "b": 66,
      "c": 67,
      "d": 68,
      "e": 69,
      "f": 70,
      "g": 71,
      "h": 72,
      "i": 73,
      "j": 74,
      "k": 75,
      "l": 76,
      "m": 77,
      "n": 78,
      "o": 79,
      "p": 80,
      "q": 81,
      "r": 82,
      "s": 83,
      "t": 84,
      "u": 85,
      "v": 86,
      "w": 87,
      "x": 88,
      "y": 89,
      "z": 90,
      "{": 91,
      "|": 92,
      "}": 93,
      "~": 94,
      "": 95,
      "": 96,
      "": 97,
      "¡": 98,
      "¢": 99,
      "£": 100,
      "§": 101,
      "«": 102,
      "­": 103,
      "°": 104,
      "´": 105,
      "·": 106,
      "»": 107,
      "¿": 108,
      "É": 109,
      "ß": 110,
      "à": 111,
      "á": 112,
      "â": 113,
      "è": 114,
      "é": 115,
      "ê": 116,
      "í": 117,
      "ï": 118,
      "ñ": 119,
      "ó": 120,
      "ö": 121,
      "ú": 122,
      "ā": 123,
      "İ": 124,
      "œ": 125,
      "ɪ": 126,
      "ʏ": 127,
      "ʙ": 128,
      "ʜ": 129,
      "і": 130,
      "ғ": 131,
      "ᴀ": 132,
      "ᴄ": 133,
      "ᴅ": 134,
      "ᴇ": 135,
      "ᴏ": 136,
      "ᴛ": 137,
      "ᴜ": 138,
      "ᴡ": 139,
      "ᴢ": 140,
      "​": 141,
      "‌": 142,
      "‎": 143,
      "‐": 144,
      "‑": 145,
      "–": 146,
      "—": 147,
      "―": 148,
      "‘": 149,
      "’": 150,
      "‚": 151,
      "“": 152,
      "”": 153,
      "„": 154,
      "…": 155,
      "‪": 156,
      "€": 157,
      "™": 158,
      "−": 159,
      "─": 160,
      "❤": 161,
      "。": 162,
      "一": 163,
      "了": 164,
      "些": 165,
      "他": 166,
      "但": 167,
      "保": 168,
      "個": 169,
      "們": 170,
      "兒": 171,
      "兩": 172,
      "分": 173,
      "到": 174,
      "剛": 175,
      "又": 176,
      "和": 177,
      "在": 178,
      "天": 179,
      "奮": 180,
      "她": 181,
      "己": 182,
      "巴": 183,
      "度": 184,
      "很": 185,
      "恩": 186,
      "應": 187,
      "把": 188,
      "整": 189,
      "是": 190,
      "時": 191,
      "會": 192,
      "獨": 193,
      "玉": 194,
      "田": 195,
      "留": 196,
      "當": 197,
      "的": 198,
      "童": 199,
      "答": 200,
      "米": 201,
      "給": 202,
      "自": 203,
      "興": 204,
      "艾": 205,
      "莉": 206,
      "裡": 207,
      "這": 208,
      "過": 209,
      "難": 210,
      "高": 211,
      "": 212,
      "": 213,
      "️": 214,
      "﻿": 215,
      "，": 216,
      "�": 217,
      "🌴": 218,
      "🍌": 219,
      "🎓": 220,
      "🤩": 221,
      "he": 222,
      "an": 223,
      "the": 224,
      "ed": 225,
      "to": 226,
      "and": 227,
      "in": 228,
      "re": 229,
      "it": 230,
      "wa": 231,
      "ou": 232,
      "en": 233,
      "ha": 234,
      "The": 235,
      "er": 236,
      "was": 237,
      "ay": 238,
      "om": 239,
      "is": 240,
      "ar": 241,
      "on": 242,
      "im": 243,
      "sa": 244,
      "id": 245,
      "ll": 246,
      "le": 247,
      "ing": 248,
      "end": 249,
      "st": 250,
      "ot": 251,
      "am": 252,
      "or": 253,
      "ir": 254,
      "of": 255,
      "ne": 256,
      "They": 257,
      "pl": 258,
      "ig": 259,
      "at": 260,
      "He": 261,
      "be": 262,
      "il": 263,
      "lo": 264,
      "all": 265,
      "ri": 266,
      "ver": 267,
      "his": 268,
      "day": 269,
      "ut": 270,
      "play": 271,
      "said": 272,
      "Tim": 273,
      "ith": 274,
      "se": 275,
      "with": 276,
      "pp": 277,
      "her": 278,
      "ked": 279,
      "ow": 280,
      "ce": 281,
      "un": 282,
      "ke": 283,
      "She": 284,
      "hat": 285,
      "ld": 286,
      "th": 287,
      "big": 288,
      "you": 289,
      "ex": 290,
      "very": 291,
      "ted": 292,
      "ve": 293,
      "li": 294,
      "ck": 295,
      "we": 296,
      "happ": 297,
      "riend": 298,
      "friend": 299,
      "up": 300,
      "ily": 301,
      "they": 302,
      "had": 303,
      "ad": 304,
      "oft": 305,
      "not": 306,
      "wan": 307,
      "ge": 308,
      "ext": 309,
      "itt": 310,
      "<|": 311,
      "|>": 312,
      "endoft": 313,
      "endoftext": 314,
      "ome": 315,
      "ther": 316,
      "do": 317,
      "nd": 318,
      "bo": 319,
      "al": 320,
      "happy": 321,
      "ch": 322,
      "Lily": 323,
      "ent": 324,
      "for": 325,
      "that": 326,
      "saw": 327,
      "she": 328,
      "One": 329,
      "ould": 330,
      "mom": 331,
      "ittle": 332,
      "little": 333,
      "ime": 334,
      "as": 335,
      "so": 336,
      "Tom": 337,
      "time": 338,
      "ro": 339,
      "fe": 340,
      "nam": 341,
      ".\"": 342,
      "ound": 343,
      "es": 344,
      "there": 345,
      "oo": 346,
      "named": 347,
      "sm": 348,
      "were": 349,
      "It": 350,
      "wanted": 351,
      "but": 352,
      "friends": 353,
      "ved": 354,
      "!\"": 355,
      "ht": 356,
      "ird": 357,
      "sh": 358,
      "ry": 359,
      "are": 360,
      "bird": 361,
      "too": 362,
      "ra": 363,
      "On": 364,
      "my": 365,
      "out": 366,
      "ug": 367,
      "ake": 368,
      "ide": 369,
      "lp": 370,
      "ter": 371,
      "went": 372,
      "Once": 373,
      "car": 374,
      "loo": 375,
      "ue": 376,
      "help": 377,
      "upon": 378,
      "thing": 379,
      "ind": 380,
      "fun": 381,
      "toy": 382,
      "ill": 383,
      "ame": 384,
      "did": 385,
      "ly": 386,
      "gether": 387,
      "pe": 388,
      "ur": 389,
      "way": 390,
      "some": 391,
      "one": 392,
      "cat": 393,
      "me": 394,
      "together": 395,
      "ore": 396,
      "tre": 397,
      "ack": 398,
      "ag": 399,
      "new": 400,
      "can": 401,
      "dog": 402,
      "came": 403,
      "could": 404,
      "ood": 405,
      "their": 406,
      "ball": 407,
      "ic": 408,
      "par": 409,
      "gir": 410,
      "played": 411,
      "him": 412,
      "But": 413,
      "?\"": 414,
      "girl": 415,
      "go": 416,
      "fu": 417,
      "ho": 418,
      "man": 419,
      "them": 420,
      "hen": 421,
      "um": 422,
      "ax": 423,
      "sad": 424,
      "Sue": 425,
      "rom": 426,
      "boy": 427,
      "have": 428,
      "tree": 429,
      "Max": 430,
      "loved": 431,
      "looked": 432,
      "oug": 433,
      "hed": 434,
      "found": 435,
      "star": 436,
      "ab": 437,
      "side": 438,
      "other": 439,
      "back": 440,
      "Ben": 441,
      "la": 442,
      "lt": 443,
      "park": 444,
      "like": 445,
      "ain": 446,
      "Sam": 447,
      "ful": 448,
      "own": 449,
      "de": 450,
      "op": 451,
      "pr": 452,
      "et": 453,
      "ong": 454,
      "ight": 455,
      "no": 456,
      "pot": 457,
      "fa": 458,
      "ran": 459,
      "liked": 460,
      "would": 461,
      "sto": 462,
      "co": 463,
      "make": 464,
      "felt": 465,
      "You": 466,
      "see": 467,
      "now": 468,
      "want": 469,
      "asked": 470,
      "ouse": 471,
      "ard": 472,
      "ca": 473,
      "started": 474,
      "ought": 475,
      "iled": 476,
      "ice": 477,
      "good": 478,
      "small": 479,
      "wor": 480,
      "smiled": 481,
      "more": 482,
      "say": 483,
      "ried": 484,
      "mad": 485,
      "scar": 486,
      "red": 487,
      "gr": 488,
      "Spot": 489,
      "put": 490,
      "king": 491,
      "find": 492,
      "Mom": 493,
      "home": 494,
      "ty": 495,
      "away": 496,
      "what": 497,
      "something": 498,
      "from": 499,
      "made": 500,
      "uc": 501,
      "thought": 502,
      "ened": 503,
      "sha": 504,
      "playing": 505,
      "ia": 506,
      "wal": 507,
      "every": 508,
      "ach": 509,
      "mu": 510,
      "arn": 511,
      "Mia": 512,
      "ile": 513,
      "box": 514,
      "again": 515,
      "house": 516,
      "laug": 517,
      "ret": 518,
      "down": 519,
      "use": 520,
      "took": 521,
      "scared": 522,
      "learn": 523,
      "ny": 524,
      "ure": 525,
      "toys": 526,
      "get": 527,
      "ss": 528,
      "will": 529,
      "got": 530,
      "dd": 531,
      "around": 532,
      "things": 533,
      "ish": 534,
      "your": 535,
      "oud": 536,
      "lived": 537,
      "el": 538,
      "ick": 539,
      "low": 540,
      "lot": 541,
      "ave": 542,
      "pec": 543,
      "then": 544,
      "sun": 545,
      "ep": 546,
      "So": 547,
      "der": 548,
      ",\"": 549,
      "when": 550,
      "ob": 551,
      "pped": 552,
      "ie": 553,
      "na": 554,
      "bot": 555,
      "ru": 556,
      "Luc": 557,
      "Lucy": 558,
      "if": 559,
      "te": 560,
      "ant": 561,
      "room": 562,
      "tried": 563,
      "know": 564,
      "says": 565,
      "ump": 566,
      "ited": 567,
      "who": 568,
      "any": 569,
      "many": 570,
      "pic": 571,
      "about": 572,
      "us": 573,
      "care": 574,
      "pret": 575,
      "dec": 576,
      "We": 577,
      "by": 578,
      "knew": 579,
      "ous": 580,
      "ise": 581,
      "ally": 582,
      "pu": 583,
      "ist": 584,
      "ways": 585,
      "qu": 586,
      "learned": 587,
      "ate": 588,
      "water": 589,
      "ank": 590,
      "And": 591,
      "fter": 592,
      "became": 593,
      "best": 594,
      "ive": 595,
      "ust": 596,
      "gre": 597,
      "long": 598,
      "nex": 599,
      "bl": 600,
      "exc": 601,
      "cause": 602,
      "outside": 603,
      "laughed": 604,
      "mo": 605,
      "look": 606,
      "always": 607,
      "here": 608,
      "decid": 609,
      "show": 610,
      "eat": 611,
      "ite": 612,
      "decided": 613,
      "because": 614,
      "fore": 615,
      "cl": 616,
      "into": 617,
      "po": 618,
      "cle": 619,
      "ang": 620,
      "Let": 621,
      "jump": 622,
      "both": 623,
      "Then": 624,
      "run": 625,
      "hug": 626,
      "ers": 627,
      "dad": 628,
      "ma": 629,
      "ok": 630,
      "An": 631,
      "fast": 632,
      "sur": 633,
      "clo": 634,
      "When": 635,
      "this": 636,
      "excited": 637,
      "nice": 638,
      "feel": 639,
      "Yes": 640,
      "sor": 641,
      "wh": 642,
      "bb": 643,
      "pa": 644,
      "old": 645,
      "bu": 646,
      "ink": 647,
      "told": 648,
      "sk": 649,
      "come": 650,
      "Bob": 651,
      "br": 652,
      "inside": 653,
      "fish": 654,
      "surpr": 655,
      "His": 656,
      "iny": 657,
      "ook": 658,
      "pretty": 659,
      "fly": 660,
      "ara": 661,
      "gave": 662,
      "take": 663,
      "ta": 664,
      "our": 665,
      "let": 666,
      "each": 667,
      "jo": 668,
      "much": 669,
      "its": 670,
      "how": 671,
      "Anna": 672,
      "lew": 673,
      "under": 674,
      "imal": 675,
      "animal": 676,
      "Amy": 677,
      "udd": 678,
      "need": 679,
      "than": 680,
      "ven": 681,
      "able": 682,
      "ac": 683,
      "flow": 684,
      "As": 685,
      "har": 686,
      "sorry": 687,
      "sw": 688,
      "ell": 689,
      "uck": 690,
      "Can": 691,
      "Th": 692,
      "Sara": 693,
      "ged": 694,
      "ised": 695,
      "rock": 696,
      "dre": 697,
      "Thank": 698,
      "walked": 699,
      "urt": 700,
      "bear": 701,
      "read": 702,
      "hand": 703,
      "lea": 704,
      "urn": 705,
      "kind": 706,
      "rain": 707,
      "try": 708,
      "just": 709,
      "happened": 710,
      "str": 711,
      "Her": 712,
      "list": 713,
      "food": 714,
      "bet": 715,
      "didn": 716,
      "igh": 717,
      "fi": 718,
      "animals": 719,
      "war": 720,
      "spec": 721,
      "In": 722,
      "wat": 723,
      "near": 724,
      "sky": 725,
      "ine": 726,
      "cre": 727,
      "ving": 728,
      "bug": 729,
      "From": 730,
      "idea": 731,
      "better": 732,
      "heard": 733,
      "never": 734,
      "ket": 735,
      "che": 736,
      "tw": 737,
      "bro": 738,
      "bed": 739,
      "pla": 740,
      "ff": 741,
      "tal": 742,
      "love": 743,
      "nt": 744,
      "sp": 745,
      "ber": 746,
      "careful": 747,
      "share": 748,
      "tow": 749,
      "col": 750,
      "ial": 751,
      "flew": 752,
      "anymore": 753,
      "com": 754,
      "special": 755,
      "ion": 756,
      "lots": 757,
      "lf": 758,
      "per": 759,
      "where": 760,
      "don": 761,
      "wind": 762,
      "give": 763,
      "book": 764,
      "Every": 765,
      "safe": 766,
      "lad": 767,
      "clean": 768,
      "That": 769,
      "ground": 770,
      "even": 771,
      "ople": 772,
      "mag": 773,
      "over": 774,
      "cake": 775,
      "ass": 776,
      "shiny": 777,
      "udden": 778,
      "turn": 779,
      "fam": 780,
      "bad": 781,
      "after": 782,
      "Do": 783,
      "uddenly": 784,
      "people": 785,
      "proud": 786,
      "rabb": 787,
      "ever": 788,
      "door": 789,
      "surprised": 790,
      "high": 791,
      "hurt": 792,
      "pected": 793,
      "gard": 794,
      "garden": 795,
      "opened": 796,
      "picked": 797,
      "loud": 798,
      "clim": 799,
      "far": 800,
      "nexpected": 801,
      "unexpected": 802,
      "fo": 803,
      "bea": 804,
      "hard": 805,
      "app": 806,
      "What": 807,
      "place": 808,
      "unt": 809,
      "color": 810,
      "thanked": 811,
      "blue": 812,
      "still": 813,
      "ear": 814,
      "hugged": 815,
      "ct": 816,
      "call": 817,
      "No": 818,
      "off": 819,
      "mor": 820,
      "ough": 821,
      "magic": 822,
      "ummy": 823,
      "Wh": 824,
      "jumped": 825,
      "Jo": 826,
      "should": 827,
      "family": 828,
      "kid": 829,
      "walk": 830,
      "ool": 831,
      "smile": 832,
      "squ": 833,
      "rog": 834,
      "cha": 835,
      "imp": 836,
      "uff": 837,
      "rel": 838,
      "great": 839,
      "Suddenly": 840,
      "bra": 841,
      "stay": 842,
      "strong": 843,
      "ark": 844,
      "forest": 845,
      "tru": 846,
      "dan": 847,
      "itty": 848,
      "sl": 849,
      "ble": 850,
      "frog": 851,
      "until": 852,
      "Sally": 853,
      "beaut": 854,
      "stick": 855,
      "dy": 856,
      "boat": 857,
      "ort": 858,
      "ning": 859,
      "ess": 860,
      "next": 861,
      "ture": 862,
      "lease": 863,
      "This": 864,
      "Kitty": 865,
      "After": 866,
      "pt": 867,
      "happily": 868,
      "listen": 869,
      "ched": 870,
      "kids": 871,
      "beauti": 872,
      "beautiful": 873,
      "sed": 874,
      "helped": 875,
      "yes": 876,
      "showed": 877,
      "while": 878,
      "unny": 879,
      "story": 880,
      "town": 881,
      "cu": 882,
      "keep": 883,
      "At": 884,
      "picture": 885,
      "ree": 886,
      "ste": 887,
      "lly": 888,
      "being": 889,
      "ak": 890,
      "met": 891,
      "everyone": 892,
      "ip": 893,
      "raw": 894,
      "called": 895,
      "les": 896,
      "stopped": 897,
      "game": 898,
      "Now": 899,
      "Fin": 900,
      "sing": 901,
      "angry": 902,
      "joy": 903,
      "soft": 904,
      "uffy": 905,
      "open": 906,
      "ane": 907,
      "truck": 908,
      "luffy": 909,
      "yummy": 910,
      "cry": 911,
      "lost": 912,
      "Jack": 913,
      "vent": 914,
      "warm": 915,
      "ild": 916,
      "ask": 917,
      "brave": 918,
      "work": 919,
      "mouse": 920,
      "ond": 921,
      "won": 922,
      "ished": 923,
      "watch": 924,
      "couldn": 925,
      "doll": 926,
      "face": 927,
      "leave": 928,
      "flower": 929,
      "also": 930,
      "fell": 931,
      "flowers": 932,
      "green": 933,
      "mon": 934,
      "llo": 935,
      "two": 936,
      "laugh": 937,
      "less": 938,
      "lock": 939,
      "gan": 940,
      "Look": 941,
      "noise": 942,
      "irst": 943,
      "owl": 944,
      "right": 945,
      "store": 946,
      "cream": 947,
      "soon": 948,
      "self": 949,
      "top": 950,
      "slide": 951,
      "ser": 952,
      "hole": 953,
      "Hi": 954,
      "Fluffy": 955,
      "iz": 956,
      "sat": 957,
      "before": 958,
      "irrel": 959,
      "key": 960,
      "ung": 961,
      "ired": 962,
      "illy": 963,
      "hear": 964,
      "race": 965,
      "table": 966,
      "kept": 967,
      "yard": 968,
      "nodd": 969,
      "squirrel": 970,
      "tor": 971,
      "nodded": 972,
      "used": 973,
      "swing": 974,
      "expl": 975,
      "birds": 976,
      "vo": 977,
      "rabbit": 978,
      "having": 979,
      "pain": 980,
      "hands": 981,
      "mber": 982,
      "set": 983,
      "going": 984,
      "tr": 985,
      "looking": 986,
      "Don": 987,
      "funny": 988,
      "rest": 989,
      "head": 990,
      "aybe": 991,
      "uch": 992,
      "catch": 993,
      "ught": 994,
      "fin": 995,
      "shed": 996,
      "yell": 997,
      "think": 998,
      "leep": 999,
      "fix": 1000,
      "lled": 1001,
      "sn": 1002,
      "tired": 1003,
      "bunny": 1004,
      "ting": 1005,
      "ama": 1006,
      "wr": 1007,
      "ries": 1008,
      "night": 1009,
      "thr": 1010,
      "kit": 1011,
      "tell": 1012,
      "sound": 1013,
      "member": 1014,
      "has": 1015,
      "mean": 1016,
      "cook": 1017,
      "cold": 1018,
      "Why": 1019,
      "pond": 1020,
      "sunny": 1021,
      "others": 1022,
      "talk": 1023,
      "flo": 1024,
      "chen": 1025,
      "ds": 1026,
      "kitchen": 1027,
      "wait": 1028,
      "cut": 1029,
      "pie": 1030,
      "Dad": 1031,
      "cou": 1032,
      "dif": 1033,
      "first": 1034,
      "Hello": 1035,
      "mommy": 1036,
      "eyes": 1037,
      "import": 1038,
      "age": 1039,
      "fav": 1040,
      "ies": 1041,
      "swe": 1042,
      "con": 1043,
      "ath": 1044,
      "remember": 1045,
      "climb": 1046,
      "party": 1047,
      "ious": 1048,
      "ft": 1049,
      "sand": 1050,
      "bar": 1051,
      "orn": 1052,
      "move": 1053,
      "llow": 1054,
      "curi": 1055,
      "important": 1056,
      "light": 1057,
      "duck": 1058,
      "moral": 1059,
      "shared": 1060,
      "zy": 1061,
      "ster": 1062,
      "okay": 1063,
      "dress": 1064,
      "advent": 1065,
      "ash": 1066,
      "worked": 1067,
      "making": 1068,
      "enjoy": 1069,
      "bright": 1070,
      "times": 1071,
      "curious": 1072,
      "fru": 1073,
      "agre": 1074,
      "Mommy": 1075,
      "Joh": 1076,
      "tall": 1077,
      "dir": 1078,
      "hone": 1079,
      "hid": 1080,
      "John": 1081,
      "favor": 1082,
      "dis": 1083,
      "Wow": 1084,
      "sleep": 1085,
      "favorite": 1086,
      "began": 1087,
      "shar": 1088,
      "Bo": 1089,
      "bag": 1090,
      "fire": 1091,
      "hill": 1092,
      "agreed": 1093,
      "draw": 1094,
      "sho": 1095,
      "ken": 1096,
      "bre": 1097,
      "cla": 1098,
      "que": 1099,
      "hind": 1100,
      "watched": 1101,
      "follow": 1102,
      "mess": 1103,
      "zed": 1104,
      "Mr": 1105,
      "pick": 1106,
      "please": 1107,
      "block": 1108,
      "stop": 1109,
      "hung": 1110,
      "behind": 1111,
      "gu": 1112,
      "surprise": 1113,
      "paper": 1114,
      "hot": 1115,
      "Maybe": 1116,
      "worry": 1117,
      "dark": 1118,
      "dro": 1119,
      "Bobo": 1120,
      "trees": 1121,
      "voice": 1122,
      "grass": 1123,
      "walking": 1124,
      "air": 1125,
      "tail": 1126,
      "fere": 1127,
      "lion": 1128,
      "floor": 1129,
      "farm": 1130,
      "differe": 1131,
      "song": 1132,
      "stand": 1133,
      "feeling": 1134,
      "butter": 1135,
      "led": 1136,
      "wel": 1137,
      "ready": 1138,
      "ied": 1139,
      "colors": 1140,
      "lady": 1141,
      "Jane": 1142,
      "ange": 1143,
      "Timmy": 1144,
      "isy": 1145,
      "leaves": 1146,
      "closer": 1147,
      "ign": 1148,
      "cars": 1149,
      "turned": 1150,
      "needed": 1151,
      "wood": 1152,
      "cried": 1153,
      "tri": 1154,
      "different": 1155,
      "piece": 1156,
      "adventure": 1157,
      "does": 1158,
      "prin": 1159,
      "hair": 1160,
      "hungry": 1161,
      "cked": 1162,
      "bye": 1163,
      "yellow": 1164,
      "sweet": 1165,
      "ced": 1166,
      "full": 1167,
      "touch": 1168,
      "wet": 1169,
      "mar": 1170,
      "friendly": 1171,
      "mis": 1172,
      "ike": 1173,
      "cr": 1174,
      "ger": 1175,
      "din": 1176,
      "broken": 1177,
      "mou": 1178,
      "cra": 1179,
      "All": 1180,
      "land": 1181,
      "ient": 1182,
      "sit": 1183,
      "med": 1184,
      "prom": 1185,
      "another": 1186,
      "pretend": 1187,
      "dance": 1188,
      "reac": 1189,
      "climbed": 1190,
      "listened": 1191,
      "plan": 1192,
      "tle": 1193,
      "pen": 1194,
      "ater": 1195,
      "fl": 1196,
      "running": 1197,
      "To": 1198,
      "only": 1199,
      "river": 1200,
      "gone": 1201,
      "swim": 1202,
      "ila": 1203,
      "train": 1204,
      "andma": 1205,
      "smell": 1206,
      "thank": 1207,
      "There": 1208,
      "close": 1209,
      "ple": 1210,
      "tra": 1211,
      "gg": 1212,
      "Lila": 1213,
      "pet": 1214,
      "hold": 1215,
      "aby": 1216,
      "chair": 1217,
      "blocks": 1218,
      "wonder": 1219,
      "Everyone": 1220,
      "av": 1221,
      "fight": 1222,
      "reached": 1223,
      "lie": 1224,
      "wall": 1225,
      "bor": 1226,
      "rag": 1227,
      "ner": 1228,
      "helping": 1229,
      "ary": 1230,
      "kay": 1231,
      "slow": 1232,
      "ze": 1233,
      "cool": 1234,
      "glad": 1235,
      "hop": 1236,
      "goodbye": 1237,
      "been": 1238,
      "wear": 1239,
      "fair": 1240,
      "pushed": 1241,
      "ins": 1242,
      "ered": 1243,
      "oon": 1244,
      "iced": 1245,
      "dr": 1246,
      "bit": 1247,
      "Just": 1248,
      "sees": 1249,
      "hide": 1250,
      "coming": 1251,
      "must": 1252,
      "moment": 1253,
      "window": 1254,
      "fr": 1255,
      "balloon": 1256,
      "repl": 1257,
      "done": 1258,
      "snow": 1259,
      "explore": 1260,
      "bow": 1261,
      "Soon": 1262,
      "wished": 1263,
      "baby": 1264,
      "stuck": 1265,
      "buy": 1266,
      "real": 1267,
      "fall": 1268,
      "might": 1269,
      "name": 1270,
      "apple": 1271,
      "trying": 1272,
      "quick": 1273,
      "scary": 1274,
      "looks": 1275,
      "dream": 1276,
      "doing": 1277,
      "aisy": 1278,
      "ings": 1279,
      "dirty": 1280,
      "build": 1281,
      "outed": 1282,
      "ppy": 1283,
      "cket": 1284,
      "held": 1285,
      "Be": 1286,
      "ames": 1287,
      "spo": 1288,
      "arm": 1289,
      "je": 1290,
      "wise": 1291,
      "cast": 1292,
      "butterfly": 1293,
      "swa": 1294,
      "left": 1295,
      "deli": 1296,
      "shouted": 1297,
      "replied": 1298,
      "sure": 1299,
      "wo": 1300,
      "win": 1301,
      "em": 1302,
      "reach": 1303,
      "why": 1304,
      "bran": 1305,
      "through": 1306,
      "tiny": 1307,
      "wag": 1308,
      "mi": 1309,
      "mat": 1310,
      "three": 1311,
      "treat": 1312,
      "grow": 1313,
      "pulled": 1314,
      "brother": 1315,
      "woods": 1316,
      "art": 1317,
      "fill": 1318,
      "ton": 1319,
      "bus": 1320,
      "seen": 1321,
      "cup": 1322,
      "pink": 1323,
      "plant": 1324,
      "clapped": 1325,
      "ield": 1326,
      "sometimes": 1327,
      "andy": 1328,
      "year": 1329,
      "cloud": 1330,
      "swam": 1331,
      "grabb": 1332,
      "Okay": 1333,
      "Inside": 1334,
      "job": 1335,
      "colorful": 1336,
      "nest": 1337,
      "remembered": 1338,
      "bigger": 1339,
      "mouth": 1340,
      "join": 1341,
      "lesson": 1342,
      "Oh": 1343,
      "waved": 1344,
      "grabbed": 1345,
      "stayed": 1346,
      "Daisy": 1347,
      "uddy": 1348,
      "rot": 1349,
      "Buddy": 1350,
      "clothe": 1351,
      "nap": 1352,
      "oup": 1353,
      "waited": 1354,
      "clothes": 1355,
      "heav": 1356,
      "quickly": 1357,
      "pare": 1358,
      "broke": 1359,
      "games": 1360,
      "gent": 1361,
      "vis": 1362,
      "blew": 1363,
      "Finally": 1364,
      "gl": 1365,
      "ucky": 1366,
      "erous": 1367,
      "While": 1368,
      "row": 1369,
      "zz": 1370,
      "noticed": 1371,
      "enjoyed": 1372,
      "tast": 1373,
      "pur": 1374,
      "thre": 1375,
      "likes": 1376,
      "paint": 1377,
      "sea": 1378,
      "pictures": 1379,
      "books": 1380,
      "dry": 1381,
      "heavy": 1382,
      "gif": 1383,
      "alone": 1384,
      "mus": 1385,
      "asure": 1386,
      "anything": 1387,
      "spot": 1388,
      "live": 1389,
      "hopped": 1390,
      "turns": 1391,
      "Tommy": 1392,
      "world": 1393,
      "castle": 1394,
      "cont": 1395,
      "pat": 1396,
      "Sarah": 1397,
      "mix": 1398,
      "bike": 1399,
      "tight": 1400,
      "forgot": 1401,
      "everywhere": 1402,
      "Joe": 1403,
      "tower": 1404,
      "round": 1405,
      "threw": 1406,
      "whis": 1407,
      "himself": 1408,
      "Please": 1409,
      "followed": 1410,
      "ju": 1411,
      "ride": 1412,
      "board": 1413,
      "ather": 1414,
      "fruit": 1415,
      "\".": 1416,
      "white": 1417,
      "sec": 1418,
      "wrong": 1419,
      "makes": 1420,
      "stran": 1421,
      "Em": 1422,
      "break": 1423,
      "pre": 1424,
      "black": 1425,
      "parent": 1426,
      "thy": 1427,
      "bee": 1428,
      "music": 1429,
      "deep": 1430,
      "cess": 1431,
      "Re": 1432,
      "stone": 1433,
      "olly": 1434,
      "Billy": 1435,
      "ation": 1436,
      "whe": 1437,
      "oun": 1438,
      "stre": 1439,
      "pill": 1440,
      "wi": 1441,
      "lar": 1442,
      "iet": 1443,
      "danced": 1444,
      "ap": 1445,
      "ali": 1446,
      "leaf": 1447,
      "wants": 1448,
      "quiet": 1449,
      "ba": 1450,
      "monster": 1451,
      "understand": 1452,
      "bowl": 1453,
      "fur": 1454,
      "Come": 1455,
      "ub": 1456,
      "talked": 1457,
      "pes": 1458,
      "itten": 1459,
      "faster": 1460,
      "fully": 1461,
      "cookies": 1462,
      "pro": 1463,
      "brought": 1464,
      "leg": 1465,
      "ross": 1466,
      "sc": 1467,
      "ph": 1468,
      "cy": 1469,
      "mum": 1470,
      "sign": 1471,
      "ued": 1472,
      "sis": 1473,
      "well": 1474,
      "ance": 1475,
      "ts": 1476,
      "smart": 1477,
      "rocks": 1478,
      "someone": 1479,
      "poin": 1480,
      "sharing": 1481,
      "cover": 1482,
      "reali": 1483,
      "fox": 1484,
      "button": 1485,
      "happen": 1486,
      "branch": 1487,
      "finished": 1488,
      "really": 1489,
      "oom": 1490,
      "hit": 1491,
      "ence": 1492,
      "orange": 1493,
      "Gr": 1494,
      "itch": 1495,
      "sister": 1496,
      "corn": 1497,
      "dinner": 1498,
      "zing": 1499,
      "gi": 1500,
      "flying": 1501,
      "ele": 1502,
      "most": 1503,
      "contin": 1504,
      "fect": 1505,
      "worried": 1506,
      "sy": 1507,
      "beach": 1508,
      "af": 1509,
      "plane": 1510,
      "dang": 1511,
      "wish": 1512,
      "secret": 1513,
      "stu": 1514,
      "dren": 1515,
      "chil": 1516,
      "free": 1517,
      "spe": 1518,
      "today": 1519,
      "perfect": 1520,
      "min": 1521,
      "shin": 1522,
      "everything": 1523,
      "silly": 1524,
      "children": 1525,
      "filled": 1526,
      "field": 1527,
      "else": 1528,
      "oth": 1529,
      "stead": 1530,
      "smiles": 1531,
      "OK": 1532,
      "visit": 1533,
      "pow": 1534,
      "sang": 1535,
      "snack": 1536,
      "pull": 1537,
      "asks": 1538,
      "parents": 1539,
      "pudd": 1540,
      "eating": 1541,
      "pieces": 1542,
      "realized": 1543,
      "promised": 1544,
      "ctor": 1545,
      "pig": 1546,
      "spr": 1547,
      "pers": 1548,
      "continued": 1549,
      "bite": 1550,
      "ses": 1551,
      "carefully": 1552,
      "itting": 1553,
      "ons": 1554,
      "hig": 1555,
      "gra": 1556,
      "jar": 1557,
      "phone": 1558,
      "pper": 1559,
      "cow": 1560,
      "ated": 1561,
      "words": 1562,
      "drag": 1563,
      "moved": 1564,
      "mud": 1565,
      "rolled": 1566,
      "wave": 1567,
      "amp": 1568,
      "appear": 1569,
      "crying": 1570,
      "Le": 1571,
      "enough": 1572,
      "blan": 1573,
      "blanket": 1574,
      "Jim": 1575,
      "bath": 1576,
      "oney": 1577,
      "soup": 1578,
      "dri": 1579,
      "mother": 1580,
      "sail": 1581,
      "push": 1582,
      "imi": 1583,
      "Mimi": 1584,
      "My": 1585,
      "Jen": 1586,
      "drink": 1587,
      "Some": 1588,
      "boun": 1589,
      "snake": 1590,
      "pass": 1591,
      "throw": 1592,
      "roll": 1593,
      "fairy": 1594,
      "crab": 1595,
      "laughing": 1596,
      "amazing": 1597,
      "ote": 1598,
      "getting": 1599,
      "purple": 1600,
      "without": 1601,
      "bottle": 1602,
      "grandma": 1603,
      "gift": 1604,
      "mail": 1605,
      "spl": 1606,
      "money": 1607,
      "barked": 1608,
      "wagged": 1609,
      "monkey": 1610,
      "past": 1611,
      "welcome": 1612,
      "sel": 1613,
      "chool": 1614,
      "brown": 1615,
      "doctor": 1616,
      "ises": 1617,
      "closed": 1618,
      "school": 1619,
      "pping": 1620,
      "cious": 1621,
      "morning": 1622,
      "owner": 1623,
      "candy": 1624,
      "lone": 1625,
      "higher": 1626,
      "sitting": 1627,
      ".”": 1628,
      "stoo": 1629,
      "treasure": 1630,
      "hes": 1631,
      "dangerous": 1632,
      "!”": 1633,
      "net": 1634,
      "lonely": 1635,
      "shop": 1636,
      "living": 1637,
      "icy": 1638,
      "apples": 1639,
      "count": 1640,
      "strange": 1641,
      "comfor": 1642,
      "Bl": 1643,
      "smo": 1644,
      "road": 1645,
      "shining": 1646,
      "egg": 1647,
      "ants": 1648,
      "paw": 1649,
      "una": 1650,
      "creat": 1651,
      "cks": 1652,
      "shoes": 1653,
      "ible": 1654,
      "talking": 1655,
      "althy": 1656,
      "caught": 1657,
      "Ch": 1658,
      "stood": 1659,
      "lake": 1660,
      "letter": 1661,
      "runs": 1662,
      "coat": 1663,
      "bas": 1664,
      "wings": 1665,
      "chee": 1666,
      "cho": 1667,
      "fan": 1668,
      "va": 1669,
      "nee": 1670,
      "Fred": 1671,
      "years": 1672,
      "basket": 1673,
      "dragon": 1674,
      "days": 1675,
      "belie": 1676,
      "mine": 1677,
      "thinks": 1678,
      "delicious": 1679,
      "puddle": 1680,
      "nose": 1681,
      "igg": 1682,
      "farmer": 1683,
      "same": 1684,
      "Emma": 1685,
      "teddy": 1686,
      "mind": 1687,
      "unch": 1688,
      "sear": 1689,
      "ches": 1690,
      "Whis": 1691,
      "Molly": 1692,
      "Good": 1693,
      "fit": 1694,
      "bring": 1695,
      "gentle": 1696,
      "wards": 1697,
      "start": 1698,
      "Together": 1699,
      "finally": 1700,
      "cray": 1701,
      "kite": 1702,
      "scream": 1703,
      "pol": 1704,
      "shell": 1705,
      "vill": 1706,
      "singing": 1707,
      "hor": 1708,
      "tasty": 1709,
      "idge": 1710,
      "ace": 1711,
      "ben": 1712,
      "trou": 1713,
      "herself": 1714,
      "hoped": 1715,
      "wore": 1716,
      "answ": 1717,
      "arri": 1718,
      "swings": 1719,
      "Blue": 1720,
      "uni": 1721,
      "kis": 1722,
      "belong": 1723,
      "pack": 1724,
      "kers": 1725,
      "bush": 1726,
      "ng": 1727,
      "kn": 1728,
      "woke": 1729,
      "carrot": 1730,
      "ming": 1731,
      "Bell": 1732,
      "ughty": 1733,
      "teach": 1734,
      "eleph": 1735,
      "naughty": 1736,
      "dropped": 1737,
      "hu": 1738,
      "Whiskers": 1739,
      "teac": 1740,
      "coll": 1741,
      "pile": 1742,
      "hiding": 1743,
      "cour": 1744,
      "Their": 1745,
      "Remy": 1746,
      "di": 1747,
      "Bella": 1748,
      "bell": 1749,
      "touc": 1750,
      "isa": 1751,
      "val": 1752,
      "kno": 1753,
      "su": 1754,
      "puppy": 1755,
      "llie": 1756,
      "If": 1757,
      "lunch": 1758,
      "twins": 1759,
      "sack": 1760,
      "ment": 1761,
      "rope": 1762,
      "mach": 1763,
      "Mark": 1764,
      "Lisa": 1765,
      "course": 1766,
      "Grandma": 1767,
      "shapes": 1768,
      "cheered": 1769,
      "grew": 1770,
      "lay": 1771,
      "village": 1772,
      "fused": 1773,
      "shelf": 1774,
      "erful": 1775,
      "irth": 1776,
      "spin": 1777,
      "juice": 1778,
      "word": 1779,
      "rainbow": 1780,
      "part": 1781,
      "irthday": 1782,
      "shook": 1783,
      "bench": 1784,
      "fence": 1785,
      "street": 1786,
      "cute": 1787,
      "nut": 1788,
      "Jill": 1789,
      "cal": 1790,
      "cheese": 1791,
      "touched": 1792,
      "balls": 1793,
      "orm": 1794,
      "shad": 1795,
      "wand": 1796,
      "seed": 1797,
      "tea": 1798,
      "eas": 1799,
      "teacher": 1800,
      "des": 1801,
      "loom": 1802,
      "arrived": 1803,
      "band": 1804,
      "wra": 1805,
      "forever": 1806,
      "carry": 1807,
      "few": 1808,
      "lla": 1809,
      "bugs": 1810,
      "sounds": 1811,
      "sli": 1812,
      "Go": 1813,
      "blem": 1814,
      "problem": 1815,
      "cing": 1816,
      "num": 1817,
      "promise": 1818,
      "ilk": 1819,
      "ier": 1820,
      "birthday": 1821,
      "wonderful": 1822,
      "dolls": 1823,
      "How": 1824,
      "stor": 1825,
      "busy": 1826,
      "shy": 1827,
      "irp": 1828,
      "feels": 1829,
      "bread": 1830,
      "ade": 1831,
      "neck": 1832,
      "milk": 1833,
      "ian": 1834,
      "robot": 1835,
      "vel": 1836,
      "ntain": 1837,
      "pop": 1838,
      "heart": 1839,
      "believe": 1840,
      "irt": 1841,
      "cave": 1842,
      "pocket": 1843,
      "shake": 1844,
      "seek": 1845,
      "helpful": 1846,
      "storm": 1847,
      "slowly": 1848,
      "Pe": 1849,
      "umpy": 1850,
      "patient": 1851,
      "berries": 1852,
      "appeared": 1853,
      "ugly": 1854,
      "driver": 1855,
      "holding": 1856,
      "towards": 1857,
      "elephant": 1858,
      "upset": 1859,
      "ring": 1860,
      "turt": 1861,
      "kitten": 1862,
      "stories": 1863,
      "suc": 1864,
      "late": 1865,
      "splash": 1866,
      "Sure": 1867,
      "honey": 1868,
      "zoom": 1869,
      "cir": 1870,
      "noises": 1871,
      "sharp": 1872,
      "Later": 1873,
      "spark": 1874,
      "gray": 1875,
      "dirt": 1876,
      "Leo": 1877,
      "dist": 1878,
      "seat": 1879,
      "Ann": 1880,
      "ucket": 1881,
      "bucket": 1882,
      "shr": 1883,
      "meet": 1884,
      "young": 1885,
      "note": 1886,
      "uce": 1887,
      "amazed": 1888,
      "turtle": 1889,
      "spoon": 1890,
      "treats": 1891,
      "spid": 1892,
      "ull": 1893,
      "magical": 1894,
      "wash": 1895,
      "shine": 1896,
      "ped": 1897,
      "era": 1898,
      "glow": 1899,
      "Mama": 1900,
      "fold": 1901,
      "lemon": 1902,
      "trip": 1903,
      "comfortable": 1904,
      "gen": 1905,
      "mist": 1906,
      "quest": 1907,
      "hang": 1908,
      "jour": 1909,
      "horse": 1910,
      "loth": 1911,
      "add": 1912,
      "cloth": 1913,
      "puzz": 1914,
      "Daddy": 1915,
      "organ": 1916,
      "princess": 1917,
      "roar": 1918,
      "cookie": 1919,
      "picy": 1920,
      "drive": 1921,
      "oose": 1922,
      "hugs": 1923,
      "wild": 1924,
      "taking": 1925,
      "wheel": 1926,
      "bled": 1927,
      "organiz": 1928,
      "miss": 1929,
      "sug": 1930,
      "iling": 1931,
      "rich": 1932,
      "Of": 1933,
      "string": 1934,
      "instead": 1935,
      "ti": 1936,
      "rude": 1937,
      "lucky": 1938,
      "drove": 1939,
      "ero": 1940,
      "Bu": 1941,
      "huge": 1942,
      "mer": 1943,
      "coin": 1944,
      "lice": 1945,
      "fighting": 1946,
      "stars": 1947,
      "spicy": 1948,
      "bone": 1949,
      "Mary": 1950,
      "craw": 1951,
      "Hey": 1952,
      "tie": 1953,
      "den": 1954,
      "cor": 1955,
      "ek": 1956,
      "bubb": 1957,
      "last": 1958,
      "wide": 1959,
      "card": 1960,
      "Cat": 1961,
      "life": 1962,
      "Ro": 1963,
      "whistle": 1964,
      "path": 1965,
      "ney": 1966,
      "cannot": 1967,
      "sick": 1968,
      "bat": 1969,
      "comes": 1970,
      "rush": 1971,
      "resting": 1972,
      "circle": 1973,
      "spider": 1974,
      "foot": 1975,
      "inv": 1976,
      "songs": 1977,
      "snowman": 1978,
      "change": 1979,
      "Luna": 1980,
      "pillow": 1981,
      "fixed": 1982,
      "With": 1983,
      "sage": 1984,
      "boss": 1985,
      "giant": 1986,
      "joke": 1987,
      "erry": 1988,
      "forget": 1989,
      "ship": 1990,
      "pra": 1991,
      "moon": 1992,
      "worm": 1993,
      "taste": 1994,
      "grumpy": 1995,
      "wing": 1996,
      "machine": 1997,
      "coun": 1998,
      "thin": 1999,
      "step": 2000,
      "bri": 2001,
      "grab": 2002,
      "att": 2003,
      "rad": 2004,
      "peace": 2005,
      "Chirp": 2006,
      "sour": 2007,
      "ined": 2008,
      "daddy": 2009,
      "fing": 2010,
      "suddenly": 2011,
      "landed": 2012,
      "hidden": 2013,
      "wasn": 2014,
      "write": 2015,
      "confused": 2016,
      "chased": 2017,
      "inte": 2018,
      "ert": 2019,
      "fruits": 2020,
      "myster": 2021,
      "smooth": 2022,
      "cage": 2023,
      "stepped": 2024,
      "oven": 2025,
      "adventures": 2026,
      "missed": 2027,
      "takes": 2028,
      "selfish": 2029,
      "ggy": 2030,
      "kin": 2031,
      "tu": 2032,
      "sheep": 2033,
      "messy": 2034,
      "across": 2035,
      "dest": 2036,
      "cop": 2037,
      "pan": 2038,
      "though": 2039,
      "hero": 2040,
      "sticks": 2041,
      "ps": 2042,
      "Momo": 2043,
      "later": 2044,
      "gy": 2045,
      "io": 2046,
      "bought": 2047,
      "elly": 2048,
      "drew": 2049,
      "grate": 2050,
      "cord": 2051,
      "Chirpy": 2052,
      "ars": 2053,
      "?”": 2054,
      "loves": 2055,
      "Ollie": 2056,
      "beak": 2057,
      "line": 2058,
      "child": 2059,
      "ducks": 2060,
      "body": 2061,
      "legs": 2062,
      "covered": 2063,
      "da": 2064,
      "grateful": 2065,
      "ye": 2066,
      "fil": 2067,
      "Bunny": 2068,
      "pty": 2069,
      "hope": 2070,
      "slid": 2071,
      "empty": 2072,
      "feather": 2073,
      "Doggy": 2074,
      "sleepy": 2075,
      "zoo": 2076,
      "ions": 2077,
      "drum": 2078,
      "save": 2079,
      "ward": 2080,
      "Help": 2081,
      "smelly": 2082,
      "ban": 2083,
      "Mum": 2084,
      "Jerry": 2085,
      "clever": 2086,
      "shes": 2087,
      "interesting": 2088,
      "chick": 2089,
      "Jimmy": 2090,
      "watching": 2091,
      "finish": 2092,
      "izzy": 2093,
      "rubb": 2094,
      "banan": 2095,
      "log": 2096,
      "gest": 2097,
      "plate": 2098,
      "faces": 2099,
      "clouds": 2100,
      "Where": 2101,
      "wolf": 2102,
      "dogs": 2103,
      "backyard": 2104,
      "izz": 2105,
      "test": 2106,
      "seemed": 2107,
      "spray": 2108,
      "rank": 2109,
      "Here": 2110,
      "og": 2111,
      "prote": 2112,
      "whole": 2113,
      "fancy": 2114,
      "arms": 2115,
      "healthy": 2116,
      "gives": 2117,
      "pin": 2118,
      "rocket": 2119,
      "sent": 2120,
      "puzzle": 2121,
      "along": 2122,
      "explain": 2123,
      "tom": 2124,
      "jewel": 2125,
      "easy": 2126,
      "trouble": 2127,
      "working": 2128,
      "pract": 2129,
      "jelly": 2130,
      "tid": 2131,
      "scre": 2132,
      "maybe": 2133,
      "fake": 2134,
      "spla": 2135,
      "crayons": 2136,
      "wondered": 2137,
      "hing": 2138,
      "fron": 2139,
      "stair": 2140,
      "cape": 2141,
      "nothing": 2142,
      "ipp": 2143,
      "pool": 2144,
      "longer": 2145,
      "Bird": 2146,
      "front": 2147,
      "anyone": 2148,
      "mir": 2149,
      "queen": 2150,
      "van": 2151,
      "such": 2152,
      "sol": 2153,
      "imag": 2154,
      "hello": 2155,
      "bossy": 2156,
      "ves": 2157,
      "saved": 2158,
      "neigh": 2159,
      "smelled": 2160,
      "shirt": 2161,
      "Bobby": 2162,
      "honest": 2163,
      "vie": 2164,
      "barr": 2165,
      "berry": 2166,
      "iting": 2167,
      "lift": 2168,
      "embarr": 2169,
      "tidy": 2170,
      "weak": 2171,
      "shout": 2172,
      "Are": 2173,
      "kick": 2174,
      "puts": 2175,
      "embarrass": 2176,
      "calm": 2177,
      "plants": 2178,
      "gently": 2179,
      "coo": 2180,
      "cozy": 2181,
      "explor": 2182,
      "sco": 2183,
      "ugg": 2184,
      "mistake": 2185,
      "aser": 2186,
      "onto": 2187,
      "cross": 2188,
      "yog": 2189,
      "waiting": 2190,
      "pointed": 2191,
      "erly": 2192,
      "jumping": 2193,
      "prince": 2194,
      "forgive": 2195,
      "bul": 2196,
      "chicken": 2197,
      "Stop": 2198,
      "stret": 2199,
      "lovely": 2200,
      "bal": 2201,
      "ladder": 2202,
      "large": 2203,
      "match": 2204,
      "couch": 2205,
      "ughter": 2206,
      "deer": 2207,
      "lex": 2208,
      "lown": 2209,
      "places": 2210,
      "colle": 2211,
      "bridge": 2212,
      "return": 2213,
      "daughter": 2214,
      "dish": 2215,
      "stir": 2216,
      "raid": 2217,
      "Tiny": 2218,
      "afraid": 2219,
      "cleaned": 2220,
      "nic": 2221,
      "building": 2222,
      "tomor": 2223,
      "tomorrow": 2224,
      "law": 2225,
      "person": 2226,
      "wich": 2227,
      "ado": 2228,
      "ned": 2229,
      "sandwich": 2230,
      "asha": 2231,
      "pretended": 2232,
      "bounce": 2233,
      "ending": 2234,
      "search": 2235,
      "eth": 2236,
      "gather": 2237,
      "pizz": 2238,
      "wom": 2239,
      "boring": 2240,
      "protect": 2241,
      "ast": 2242,
      "woman": 2243,
      "teeth": 2244,
      "pri": 2245,
      "goes": 2246,
      "jog": 2247,
      "scarf": 2248,
      "hin": 2249,
      "swimming": 2250,
      "furry": 2251,
      "Your": 2252,
      "splashed": 2253,
      "number": 2254,
      "screamed": 2255,
      "true": 2256,
      "eag": 2257,
      "lazy": 2258,
      "ually": 2259,
      "fear": 2260,
      "answer": 2261,
      "ashamed": 2262,
      "pens": 2263,
      "pizza": 2264,
      "Benny": 2265,
      "brush": 2266,
      "ones": 2267,
      "nearby": 2268,
      "Sometimes": 2269,
      "powerful": 2270,
      "motor": 2271,
      "flag": 2272,
      "vous": 2273,
      "clown": 2274,
      "Ducky": 2275,
      "ress": 2276,
      "respec": 2277,
      "Will": 2278,
      "success": 2279,
      "TV": 2280,
      "polite": 2281,
      "chocol": 2282,
      "clear": 2283,
      "hose": 2284,
      "trust": 2285,
      "wearing": 2286,
      "creative": 2287,
      "case": 2288,
      "matter": 2289,
      "noisy": 2290,
      "ail": 2291,
      "dig": 2292,
      "fli": 2293,
      "ult": 2294,
      "ror": 2295,
      "tool": 2296,
      "nervous": 2297,
      "shadow": 2298,
      "smiling": 2299,
      "sold": 2300,
      "saur": 2301,
      "Bear": 2302,
      "ery": 2303,
      "drank": 2304,
      "form": 2305,
      "osaur": 2306,
      "tries": 2307,
      "oc": 2308,
      "chocolate": 2309,
      "Give": 2310,
      "impress": 2311,
      "wha": 2312,
      "dinosaur": 2313,
      "Who": 2314,
      "icro": 2315,
      "gun": 2316,
      "knee": 2317,
      "mirror": 2318,
      "gold": 2319,
      "rare": 2320,
      "cand": 2321,
      "jam": 2322,
      "carried": 2323,
      "balloons": 2324,
      "known": 2325,
      "pensive": 2326,
      "ich": 2327,
      "cri": 2328,
      "expensive": 2329,
      "ute": 2330,
      "au": 2331,
      "bald": 2332,
      "ina": 2333,
      "oppy": 2334,
      "map": 2335,
      "mysterious": 2336,
      "respect": 2337,
      "pump": 2338,
      "class": 2339,
      "march": 2340,
      "weird": 2341,
      "gate": 2342,
      "tent": 2343,
      "act": 2344,
      "Me": 2345,
      "issor": 2346,
      "snee": 2347,
      "soap": 2348,
      "icked": 2349,
      "these": 2350,
      "issors": 2351,
      "towel": 2352,
      "poor": 2353,
      "tape": 2354,
      "whale": 2355,
      "Ella": 2356,
      "feet": 2357,
      "dizzy": 2358,
      "rough": 2359,
      "andpa": 2360,
      "itter": 2361,
      "chew": 2362,
      "generous": 2363,
      "ness": 2364,
      "tory": 2365,
      "ours": 2366,
      "wake": 2367,
      "sque": 2368,
      "lead": 2369,
      "ventually": 2370,
      "sugar": 2371,
      "picnic": 2372,
      "micro": 2373,
      "ling": 2374,
      "boot": 2375,
      "journey": 2376,
      "embarrassed": 2377,
      "print": 2378,
      "Andy": 2379,
      "peaceful": 2380,
      "scissors": 2381,
      "fat": 2382,
      "mel": 2383,
      "ee": 2384,
      "kiss": 2385,
      "yelled": 2386,
      "hur": 2387,
      "glue": 2388,
      "tasted": 2389,
      "dancing": 2390,
      "lose": 2391,
      "decor": 2392,
      "oop": 2393,
      "closet": 2394,
      "crown": 2395,
      "chase": 2396,
      "ual": 2397,
      "lamp": 2398,
      "eld": 2399,
      "scare": 2400,
      "usual": 2401,
      "pay": 2402,
      "locked": 2403,
      "cele": 2404,
      "relie": 2405,
      "celebr": 2406,
      "tele": 2407,
      "spa": 2408,
      "blow": 2409,
      "stairs": 2410,
      "painted": 2411,
      "vase": 2412,
      "vide": 2413,
      "burn": 2414,
      "norm": 2415,
      "spread": 2416,
      "mixed": 2417,
      "bake": 2418,
      "wouldn": 2419,
      "Jenny": 2420,
      "getable": 2421,
      "cred": 2422,
      "gust": 2423,
      "rod": 2424,
      "mountain": 2425,
      "bean": 2426,
      "clock": 2427,
      "famous": 2428,
      "become": 2429,
      "drawing": 2430,
      "Little": 2431,
      "knocked": 2432,
      "vegetable": 2433,
      "kicked": 2434,
      "normal": 2435,
      "shark": 2436,
      "team": 2437,
      "incred": 2438,
      "Rex": 2439,
      "group": 2440,
      "ignor": 2441,
      "collect": 2442,
      "glass": 2443,
      "fine": 2444,
      "elderly": 2445,
      "thick": 2446,
      "guess": 2447,
      "lace": 2448,
      "corner": 2449,
      "frustr": 2450,
      "mighty": 2451,
      "cone": 2452,
      "incredible": 2453,
      "nail": 2454,
      "sup": 2455,
      "gas": 2456,
      "Zoom": 2457,
      "ighed": 2458,
      "breath": 2459,
      "moms": 2460,
      "Sammy": 2461,
      "balance": 2462,
      "sock": 2463,
      "est": 2464,
      "space": 2465,
      "fright": 2466,
      "frag": 2467,
      "tun": 2468,
      "organized": 2469,
      "branches": 2470,
      "sell": 2471,
      "fool": 2472,
      "feed": 2473,
      "alous": 2474,
      "neighbor": 2475,
      "umble": 2476,
      "shoe": 2477,
      "which": 2478,
      "aw": 2479,
      "hel": 2480,
      "fragile": 2481,
      "jealous": 2482,
      "pair": 2483,
      "horn": 2484,
      "understood": 2485,
      "pir": 2486,
      "yarn": 2487,
      "pray": 2488,
      "exam": 2489,
      "stubb": 2490,
      "frustrated": 2491,
      "whisper": 2492,
      "stubborn": 2493,
      "anc": 2494,
      "cher": 2495,
      "twist": 2496,
      "chest": 2497,
      "cube": 2498,
      "spent": 2499,
      "ten": 2500,
      "taught": 2501,
      "stic": 2502,
      "bark": 2503,
      "cart": 2504,
      "chang": 2505,
      "ray": 2506,
      "ancient": 2507,
      "spoiled": 2508,
      "terri": 2509,
      "relieved": 2510,
      "fier": 2511,
      "creature": 2512,
      "fierce": 2513,
      "goat": 2514,
      "owed": 2515,
      "measure": 2516,
      "barn": 2517,
      "eggs": 2518,
      "unique": 2519,
      "frightened": 2520,
      "pumpkin": 2521,
      "wrap": 2522,
      "toug": 2523,
      "wagon": 2524,
      "useful": 2525,
      "foolish": 2526,
      "straw": 2527,
      "cab": 2528,
      "dead": 2529,
      "exploring": 2530,
      "toma": 2531,
      "clay": 2532,
      "tomato": 2533,
      "dug": 2534,
      "gigg": 2535,
      "unusual": 2536,
      "present": 2537,
      "police": 2538,
      "finding": 2539,
      "clum": 2540,
      "wrote": 2541,
      "Br": 2542,
      "ity": 2543,
      "square": 2544,
      "waves": 2545,
      "hears": 2546,
      "ony": 2547,
      "soar": 2548,
      "iver": 2549,
      "dull": 2550,
      "tough": 2551,
      "tells": 2552,
      "necklace": 2553,
      "clumsy": 2554,
      "cabin": 2555,
      "tig": 2556,
      "bubbles": 2557,
      "searched": 2558,
      "nosy": 2559,
      "lu": 2560,
      "orry": 2561,
      "washed": 2562,
      "painting": 2563,
      "ham": 2564,
      "yal": 2565,
      "bathroom": 2566,
      "paws": 2567,
      "rat": 2568,
      "ize": 2569,
      "wis": 2570,
      "cil": 2571,
      "fic": 2572,
      "bitter": 2573,
      "ipped": 2574,
      "clap": 2575,
      "asking": 2576,
      "crazy": 2577,
      "thankful": 2578,
      "Sorry": 2579,
      "ficult": 2580,
      "swan": 2581,
      "difficult": 2582,
      "ato": 2583,
      "unknown": 2584,
      "Today": 2585,
      "witch": 2586,
      "rose": 2587,
      "bloom": 2588,
      "pencil": 2589,
      "gloom": 2590,
      "meal": 2591,
      "sword": 2592,
      "ife": 2593,
      "finger": 2594,
      "sca": 2595,
      "jet": 2596,
      "lin": 2597,
      "gloomy": 2598,
      "loyal": 2599,
      "Many": 2600,
      "wealthy": 2601,
      "zip": 2602,
      "moving": 2603,
      "cats": 2604,
      "guit": 2605,
      "cate": 2606,
      "joined": 2607,
      "terrible": 2608,
      "dove": 2609,
      "changed": 2610,
      "value": 2611,
      "anut": 2612,
      "yours": 2613,
      "nuts": 2614,
      "stri": 2615,
      "salad": 2616,
      "bers": 2617,
      "iant": 2618,
      "rise": 2619,
      "order": 2620,
      "cane": 2621,
      "selves": 2622,
      "Ted": 2623,
      "Brown": 2624,
      "potato": 2625,
      "tiger": 2626,
      "shoot": 2627,
      "lexible": 2628,
      "Instead": 2629,
      "knowing": 2630,
      "exciting": 2631,
      "hairy": 2632,
      "cheap": 2633,
      "lif": 2634,
      "guitar": 2635,
      "enorm": 2636,
      "enormous": 2637,
      "irsty": 2638,
      "yourself": 2639,
      "adventur": 2640,
      "cro": 2641,
      "marble": 2642,
      "bored": 2643,
      "fla": 2644,
      "record": 2645,
      "remind": 2646,
      "smaller": 2647,
      "pepper": 2648,
      "acorn": 2649,
      "adventurous": 2650,
      "stuff": 2651,
      "agree": 2652,
      "hats": 2653,
      "solve": 2654,
      "sunshine": 2655,
      "flash": 2656,
      "knife": 2657,
      "flexible": 2658,
      "snacks": 2659,
      "delicate": 2660,
      "dle": 2661,
      "lliant": 2662,
      "coura": 2663,
      "disgust": 2664,
      "shore": 2665,
      "nods": 2666,
      "thirsty": 2667,
      "brilliant": 2668,
      "market": 2669,
      "dough": 2670,
      "upid": 2671,
      "res": 2672,
      "frown": 2673,
      "banana": 2674,
      "stat": 2675,
      "seeds": 2676,
      "asleep": 2677,
      "counted": 2678,
      "heal": 2679,
      "Ow": 2680,
      "sport": 2681,
      "mailbox": 2682,
      "rane": 2683,
      "stage": 2684,
      "trick": 2685,
      "hoop": 2686,
      "ungle": 2687,
      "St": 2688,
      "ident": 2689,
      "jungle": 2690,
      "supp": 2691,
      "squee": 2692,
      "stupid": 2693,
      "disgusting": 2694,
      "page": 2695,
      "explained": 2696,
      "umbre": 2697,
      "jolly": 2698,
      "dge": 2699,
      "cater": 2700,
      "flies": 2701,
      "caterpill": 2702,
      "dep": 2703,
      "fridge": 2704,
      "ilt": 2705,
      "Jake": 2706,
      "igin": 2707,
      "four": 2708,
      "ular": 2709,
      "obed": 2710,
      "iddle": 2711,
      "relax": 2712,
      "island": 2713,
      "sunflower": 2714,
      "crane": 2715,
      "iginal": 2716,
      "medic": 2717,
      "epend": 2718,
      "iness": 2719,
      "harm": 2720,
      "shiver": 2721,
      "See": 2722,
      "goose": 2723,
      "eng": 2724,
      "spring": 2725,
      "ates": 2726,
      "stove": 2727,
      "obedient": 2728,
      "gets": 2729,
      "suit": 2730,
      "using": 2731,
      "del": 2732,
      "independ": 2733,
      "Tr": 2734,
      "medicine": 2735,
      "verse": 2736,
      "rug": 2737,
      "Emily": 2738,
      "original": 2739,
      "gem": 2740,
      "batter": 2741,
      "stones": 2742,
      "sighed": 2743,
      "vegetables": 2744,
      "stal": 2745,
      "stamp": 2746,
      "mark": 2747,
      "port": 2748,
      "careless": 2749,
      "Lu": 2750,
      "successful": 2751,
      "jeep": 2752,
      "carrots": 2753,
      "depend": 2754,
      "men": 2755,
      "cries": 2756,
      "popcorn": 2757,
      "sauce": 2758,
      "study": 2759,
      "independent": 2760,
      "almost": 2761,
      "middle": 2762,
      "pal": 2763,
      "spit": 2764,
      "caterpillar": 2765,
      "fearful": 2766,
      "escape": 2767,
      "inky": 2768,
      "belt": 2769,
      "press": 2770,
      "pebb": 2771,
      "brace": 2772,
      "parrot": 2773,
      "serious": 2774,
      "eager": 2775,
      "ountain": 2776,
      "bedroom": 2777,
      "helmet": 2778,
      "statue": 2779,
      "pasta": 2780,
      "peanut": 2781,
      "raven": 2782,
      "acket": 2783,
      "fountain": 2784,
      "jacket": 2785,
      "umbrella": 2786,
      "belonged": 2787,
      "filthy": 2788,
      "borrow": 2789,
      "comb": 2790,
      "houses": 2791,
      "design": 2792,
      "prize": 2793,
      "liz": 2794,
      "erable": 2795,
      "hay": 2796,
      "standing": 2797,
      "melon": 2798,
      "bracelet": 2799,
      "raced": 2800,
      "miserable": 2801,
      "uli": 2802,
      "taken": 2803,
      "gum": 2804,
      "avo": 2805,
      "lean": 2806,
      "fork": 2807,
      "crayon": 2808,
      "triang": 2809,
      "web": 2810,
      "impressive": 2811,
      "fig": 2812,
      "choose": 2813,
      "steal": 2814,
      "nel": 2815,
      "oured": 2816,
      "tied": 2817,
      "True": 2818,
      "vest": 2819,
      "lifted": 2820,
      "Mummy": 2821,
      "spotted": 2822,
      "slipped": 2823,
      "liable": 2824,
      "thoughtful": 2825,
      "tank": 2826,
      "ased": 2827,
      "cer": 2828,
      "dependable": 2829,
      "wip": 2830,
      "Peter": 2831,
      "arrow": 2832,
      "toast": 2833,
      "built": 2834,
      "arage": 2835,
      "Even": 2836,
      "garage": 2837,
      "crack": 2838,
      "news": 2839,
      "lid": 2840,
      "dolp": 2841,
      "boats": 2842,
      "crawled": 2843,
      "mole": 2844,
      "ipe": 2845,
      "scale": 2846,
      "giving": 2847,
      "picks": 2848,
      "bottom": 2849,
      "iano": 2850,
      "cheerful": 2851,
      "char": 2852,
      "dile": 2853,
      "smoke": 2854,
      "shroom": 2855,
      "hammer": 2856,
      "piano": 2857,
      "shows": 2858,
      "moder": 2859,
      "jug": 2860,
      "codile": 2861,
      "hurts": 2862,
      "oin": 2863,
      "aunt": 2864,
      "serve": 2865,
      "modern": 2866,
      "wrapped": 2867,
      "waff": 2868,
      "mask": 2869,
      "cco": 2870,
      "reliable": 2871,
      "tunnel": 2872,
      "nder": 2873,
      "host": 2874,
      "boys": 2875,
      "mushroom": 2876,
      "hopping": 2877,
      "squash": 2878,
      "rubbed": 2879,
      "movie": 2880,
      "sink": 2881,
      "pear": 2882,
      "flute": 2883,
      "popular": 2884,
      "sil": 2885,
      "rid": 2886,
      "cam": 2887,
      "rub": 2888,
      "tax": 2889,
      "beet": 2890,
      "licop": 2891,
      "licopter": 2892,
      "compet": 2893,
      "crystal": 2894,
      "needs": 2895,
      "appoin": 2896,
      "crocodile": 2897,
      "lizard": 2898,
      "dinary": 2899,
      "llip": 2900,
      "llipop": 2901,
      "troubled": 2902,
      "ordinary": 2903,
      "helicopter": 2904,
      "competit": 2905,
      "pige": 2906,
      "playful": 2907,
      "tricks": 2908,
      "humble": 2909,
      "lollipop": 2910,
      "kissed": 2911,
      "cap": 2912,
      "uncomfortable": 2913,
      "amond": 2914,
      "licked": 2915,
      "taxi": 2916,
      "muff": 2917,
      "Sus": 2918,
      "anx": 2919,
      "angel": 2920,
      "edy": 2921,
      "grace": 2922,
      "pants": 2923,
      "torn": 2924,
      "diamond": 2925,
      "cident": 2926,
      "twig": 2927,
      "helps": 2928,
      "anxious": 2929,
      "camera": 2930,
      "disappoin": 2931,
      "quar": 2932,
      "ghost": 2933,
      "ruined": 2934,
      "lime": 2935,
      "tears": 2936,
      "weet": 2937,
      "env": 2938,
      "ilty": 2939,
      "happiness": 2940,
      "guilty": 2941,
      "tube": 2942,
      "bull": 2943,
      "helpless": 2944,
      "walks": 2945,
      "aero": 2946,
      "une": 2947,
      "cean": 2948,
      "load": 2949,
      "passed": 2950,
      "ocean": 2951,
      "Next": 2952,
      "radio": 2953,
      "deaf": 2954,
      "stretch": 2955,
      "ears": 2956,
      "fluffy": 2957,
      "polish": 2958,
      "runk": 2959,
      "meant": 2960,
      "bees": 2961,
      "coco": 2962,
      "candle": 2963,
      "cact": 2964,
      "harmless": 2965,
      "Poppy": 2966,
      "mop": 2967,
      "answered": 2968,
      "compl": 2969,
      "stum": 2970,
      "trum": 2971,
      "beetle": 2972,
      "shape": 2973,
      "quarrel": 2974,
      "tti": 2975,
      "Pipp": 2976,
      "collar": 2977,
      "lit": 2978,
      "flashlight": 2979,
      "engine": 2980,
      "poured": 2981,
      "harder": 2982,
      "persist": 2983,
      "cereal": 2984,
      "tag": 2985,
      "cado": 2986,
      "passion": 2987,
      "trumpet": 2988,
      "invited": 2989,
      "spill": 2990,
      "melt": 2991,
      "office": 2992,
      "comput": 2993,
      "scoot": 2994,
      "triangle": 2995,
      "tooth": 2996,
      "shade": 2997,
      "accident": 2998,
      "inse": 2999,
      "hip": 3000,
      "mug": 3001,
      "gular": 3002,
      "yogurt": 3003,
      "aghe": 3004,
      "aghetti": 3005,
      "screen": 3006,
      "cush": 3007,
      "Buzz": 3008,
      "barber": 3009,
      "regular": 3010,
      "disappointed": 3011,
      "figure": 3012,
      "avocado": 3013,
      "cactus": 3014,
      "roof": 3015,
      "Fo": 3016,
      "thie": 3017,
      "sheet": 3018,
      "pale": 3019,
      "asses": 3020,
      "rice": 3021,
      "whispered": 3022,
      "power": 3023,
      "gue": 3024,
      "create": 3025,
      "tellig": 3026,
      "comple": 3027,
      "pipe": 3028,
      "harsh": 3029,
      "intellig": 3030,
      "libr": 3031,
      "practiced": 3032,
      "rode": 3033,
      "uth": 3034,
      "gifted": 3035,
      "ubby": 3036,
      "velo": 3037,
      "thread": 3038,
      "spaghetti": 3039,
      "icycle": 3040,
      "vol": 3041,
      "dust": 3042,
      "tur": 3043,
      "cycle": 3044,
      "Dan": 3045,
      "sailed": 3046,
      "compassion": 3047,
      "forward": 3048,
      "speed": 3049,
      "bicycle": 3050,
      "persistent": 3051,
      "ccoli": 3052,
      "envelo": 3053,
      "Mis": 3054,
      "cocoa": 3055,
      "Polly": 3056,
      "nod": 3057,
      "stream": 3058,
      "mitten": 3059,
      "computer": 3060,
      "questions": 3061,
      "feathers": 3062,
      "tic": 3063,
      "pigeon": 3064,
      "desk": 3065,
      "shrimp": 3066,
      "glove": 3067,
      "turkey": 3068,
      "cano": 3069,
      "envious": 3070,
      "azz": 3071,
      "charming": 3072,
      "knot": 3073,
      "stronger": 3074,
      "tem": 3075,
      "raft": 3076,
      "magnet": 3077,
      "coins": 3078,
      "ctive": 3079,
      "boxes": 3080,
      "seal": 3081,
      "wheat": 3082,
      "atch": 3083,
      "comet": 3084,
      "trunk": 3085,
      "chubby": 3086,
      "friendship": 3087,
      "carpet": 3088,
      "dreams": 3089,
      "spun": 3090,
      "aeroplane": 3091,
      "restless": 3092,
      "Alice": 3093,
      "intelligent": 3094,
      "half": 3095,
      "bandage": 3096,
      "salt": 3097,
      "crawl": 3098,
      "deliver": 3099,
      "Bet": 3100,
      "roy": 3101,
      "mill": 3102,
      "sle": 3103,
      "week": 3104,
      "volcano": 3105,
      "acce": 3106,
      "vio": 3107,
      "vine": 3108,
      "onion": 3109,
      "video": 3110,
      "attra": 3111,
      "broccoli": 3112,
      "cauli": 3113,
      "track": 3114,
      "leo": 3115,
      "ticket": 3116,
      "louder": 3117,
      "essie": 3118,
      "thief": 3119,
      "pebble": 3120,
      "destroy": 3121,
      "judge": 3122,
      "sleeping": 3123,
      "numbers": 3124,
      "alert": 3125,
      "yaw": 3126,
      "insect": 3127,
      "haircut": 3128,
      "Pet": 3129,
      "eventually": 3130,
      "excite": 3131,
      "spital": 3132,
      "hospital": 3133,
      "Lulu": 3134,
      "returned": 3135,
      "eraser": 3136,
      "happening": 3137,
      "pour": 3138,
      "planet": 3139,
      "graceful": 3140,
      "decide": 3141,
      "learning": 3142,
      "lying": 3143,
      "leopar": 3144,
      "urse": 3145,
      "nicely": 3146,
      "celebrate": 3147,
      "cauliflower": 3148,
      "keeper": 3149,
      "competitive": 3150,
      "poem": 3151,
      "ignorant": 3152,
      "sau": 3153,
      "glasses": 3154,
      "hun": 3155,
      "peach": 3156,
      "catter": 3157,
      "sausage": 3158,
      "lk": 3159,
      "attractive": 3160,
      "zzy": 3161,
      "curt": 3162,
      "soldier": 3163,
      "dolphin": 3164,
      "parade": 3165,
      "curtain": 3166,
      "scatter": 3167,
      "travel": 3168,
      "Car": 3169,
      "atient": 3170,
      "ator": 3171,
      "mes": 3172,
      "violin": 3173,
      "deter": 3174,
      "base": 3175,
      "compassionate": 3176,
      "wheels": 3177,
      "yach": 3178,
      "ud": 3179,
      "envelope": 3180,
      "Bye": 3181,
      "bulb": 3182,
      "barrel": 3183,
      "Is": 3184,
      "Pete": 3185,
      "sort": 3186,
      "pho": 3187,
      "bin": 3188,
      "cob": 3189,
      "motorcycle": 3190,
      "pit": 3191,
      "firework": 3192,
      "photo": 3193,
      "ither": 3194,
      "bubble": 3195,
      "question": 3196,
      "father": 3197,
      "shells": 3198,
      "trap": 3199,
      "oat": 3200,
      "leopard": 3201,
      "float": 3202,
      "scooter": 3203,
      "needle": 3204,
      "teas": 3205,
      "perform": 3206,
      "determin": 3207,
      "tern": 3208,
      "yacht": 3209,
      "dom": 3210,
      "truth": 3211,
      "cricket": 3212,
      "ador": 3213,
      "cel": 3214,
      "hook": 3215,
      "pony": 3216,
      "igator": 3217,
      "rem": 3218,
      "homes": 3219,
      "uncle": 3220,
      "Birdy": 3221,
      "bushes": 3222,
      "guard": 3223,
      "grown": 3224,
      "cushion": 3225,
      "spell": 3226,
      "tire": 3227,
      "cooked": 3228,
      "Sp": 3229,
      "Tina": 3230,
      "packed": 3231,
      "adorable": 3232,
      "skin": 3233,
      "chalk": 3234,
      "impatient": 3235,
      "themselves": 3236,
      "celery": 3237,
      "tray": 3238,
      "purse": 3239,
      "pengu": 3240,
      "snif": 3241,
      "speak": 3242,
      "lively": 3243,
      "alligator": 3244,
      "walls": 3245,
      "prune": 3246,
      "radish": 3247,
      "saying": 3248,
      "distant": 3249,
      "city": 3250,
      "meat": 3251,
      "post": 3252,
      "illa": 3253,
      "cleaning": 3254,
      "forth": 3255,
      "bounced": 3256,
      "counting": 3257,
      "spinning": 3258,
      "Tweet": 3259,
      "marry": 3260,
      "behave": 3261,
      "slept": 3262,
      "steak": 3263,
      "thus": 3264,
      "metal": 3265,
      "skip": 3266,
      "enthus": 3267,
      "wallet": 3268,
      "biggest": 3269,
      "film": 3270,
      "wiped": 3271,
      "vator": 3272,
      "impro": 3273,
      "scr": 3274,
      "Well": 3275,
      "pole": 3276,
      "shut": 3277,
      "oy": 3278,
      "elevator": 3279,
      "edge": 3280,
      "dive": 3281,
      "laughs": 3282,
      "pattern": 3283,
      "courage": 3284,
      "skipped": 3285,
      "isted": 3286,
      "unlock": 3287,
      "distur": 3288,
      "az": 3289,
      "bags": 3290,
      "diary": 3291,
      "nal": 3292,
      "Susie": 3293,
      "armchair": 3294,
      "affe": 3295,
      "screw": 3296,
      "showing": 3297,
      "club": 3298,
      "tap": 3299,
      "earth": 3300,
      "journal": 3301,
      "ject": 3302,
      "gathered": 3303,
      "nurse": 3304,
      "jellyfish": 3305,
      "seem": 3306,
      "sweater": 3307,
      "stranger": 3308,
      "bulance": 3309,
      "bump": 3310,
      "chain": 3311,
      "lights": 3312,
      "ambulance": 3313,
      "skull": 3314,
      "aged": 3315,
      "loudly": 3316,
      "notebook": 3317,
      "folder": 3318,
      "shield": 3319,
      "Rose": 3320,
      "mixer": 3321,
      "ito": 3322,
      "wire": 3323,
      "library": 3324,
      "buttons": 3325,
      "nament": 3326,
      "playground": 3327,
      "kne": 3328,
      "hunter": 3329,
      "pointing": 3330,
      "loop": 3331,
      "squito": 3332,
      "trucks": 3333,
      "decorate": 3334,
      "tummy": 3335,
      "station": 3336,
      "falls": 3337,
      "cupboard": 3338,
      "gri": 3339,
      "herb": 3340,
      "fed": 3341,
      "knows": 3342,
      "ornament": 3343,
      "modest": 3344,
      "mosquito": 3345,
      "lives": 3346,
      "giraffe": 3347,
      "attic": 3348,
      "oby": 3349,
      "sailor": 3350,
      "yet": 3351,
      "Lo": 3352,
      "whenever": 3353,
      "Sunny": 3354,
      "disappeared": 3355,
      "strawberry": 3356,
      "ceed": 3357,
      "package": 3358,
      "once": 3359,
      "ribb": 3360,
      "drop": 3361,
      "steps": 3362,
      "pirate": 3363,
      "People": 3364,
      "brothers": 3365,
      "Miss": 3366,
      "tear": 3367,
      "hipp": 3368,
      "topus": 3369,
      "kele": 3370,
      "hall": 3371,
      "support": 3372,
      "keleton": 3373,
      "cli": 3374,
      "hippo": 3375,
      "repe": 3376,
      "stack": 3377,
      "driving": 3378,
      "split": 3379,
      "cable": 3380,
      "calling": 3381,
      "lood": 3382,
      "fre": 3383,
      "football": 3384,
      "tho": 3385,
      "aff": 3386,
      "wishes": 3387,
      "coal": 3388,
      "tripped": 3389,
      "complete": 3390,
      "poke": 3391,
      "added": 3392,
      "root": 3393,
      "obile": 3394,
      "octopus": 3395,
      "Betty": 3396,
      "succeed": 3397,
      "tomobile": 3398,
      "kayak": 3399,
      "?\".": 3400,
      "determined": 3401,
      "repair": 3402,
      "mild": 3403,
      "reading": 3404,
      "thunder": 3405,
      "automobile": 3406,
      "complain": 3407,
      "kindness": 3408,
      "suggest": 3409,
      "utes": 3410,
      "scope": 3411,
      "rolling": 3412,
      "unk": 3413,
      "gor": 3414,
      "uring": 3415,
      "iastic": 3416,
      "send": 3417,
      "enthusiastic": 3418,
      "hive": 3419,
      "math": 3420,
      "sneeze": 3421,
      "drawer": 3422,
      "chess": 3423,
      "adow": 3424,
      "yoga": 3425,
      "flea": 3426,
      "carto": 3427,
      "growl": 3428,
      "five": 3429,
      "htub": 3430,
      "inde": 3431,
      "tress": 3432,
      "meadow": 3433,
      "golf": 3434,
      "means": 3435,
      "bathtub": 3436,
      "tro": 3437,
      "Toby": 3438,
      "skeleton": 3439,
      "veil": 3440,
      "shel": 3441,
      "sity": 3442,
      "cups": 3443,
      "spend": 3444,
      "flame": 3445,
      "penny": 3446,
      "Bessie": 3447,
      "troph": 3448,
      "Zip": 3449,
      "Mar": 3450,
      "Pippin": 3451,
      "sunglasses": 3452,
      "glowing": 3453,
      "itself": 3454,
      "oyster": 3455,
      "drawings": 3456,
      "vet": 3457,
      "ache": 3458,
      "pine": 3459,
      "muffin": 3460,
      "Snow": 3461,
      "switch": 3462,
      "stume": 3463,
      "powder": 3464,
      "costume": 3465,
      ",”": 3466,
      "dess": 3467,
      "pun": 3468,
      "Did": 3469,
      "medal": 3470,
      "maze": 3471,
      "iron": 3472,
      "pastry": 3473,
      "hedge": 3474,
      "minutes": 3475,
      "makeup": 3476,
      "handle": 3477,
      "telephone": 3478,
      "Un": 3479,
      "aky": 3480,
      "Rob": 3481,
      "waffle": 3482,
      "knight": 3483,
      "son": 3484,
      "mattress": 3485,
      "shocked": 3486,
      "goal": 3487,
      "frame": 3488,
      "spir": 3489,
      "trophy": 3490,
      "missile": 3491,
      "separ": 3492,
      "wife": 3493,
      "managed": 3494,
      "Grandpa": 3495,
      "Spike": 3496,
      "zi": 3497,
      "eye": 3498,
      "struc": 3499,
      "grapes": 3500,
      "magaz": 3501,
      "ait": 3502,
      "zebra": 3503,
      "camp": 3504,
      "file": 3505,
      "cobweb": 3506,
      "wool": 3507,
      "rushed": 3508,
      "chor": 3509,
      "message": 3510,
      "either": 3511,
      "bathe": 3512,
      "microphone": 3513,
      "leash": 3514,
      "vend": 3515,
      "fee": 3516,
      "weep": 3517,
      "view": 3518,
      "staff": 3519,
      "barking": 3520,
      "basketball": 3521,
      "safely": 3522,
      "whist": 3523,
      "washer": 3524,
      "ature": 3525,
      "offee": 3526,
      "tol": 3527,
      "slides": 3528,
      "mp": 3529,
      "trem": 3530,
      "bananas": 3531,
      "gorilla": 3532,
      "istol": 3533,
      "giggled": 3534,
      "hoc": 3535,
      "those": 3536,
      "fis": 3537,
      "Wait": 3538,
      "hockey": 3539,
      "cooler": 3540,
      "urch": 3541,
      "spear": 3542,
      "Mrs": 3543,
      "vendor": 3544,
      "grandpa": 3545,
      "early": 3546,
      "mint": 3547,
      "marched": 3548,
      "tion": 3549,
      "Al": 3550,
      "remain": 3551,
      "flour": 3552,
      "hotel": 3553,
      "sty": 3554,
      "gain": 3555,
      "dessert": 3556,
      "pas": 3557,
      "hic": 3558,
      "ilot": 3559,
      "Would": 3560,
      "cell": 3561,
      "may": 3562,
      "often": 3563,
      "otter": 3564,
      "church": 3565,
      "uel": 3566,
      "pee": 3567,
      "cooking": 3568,
      "Kim": 3569,
      "vehic": 3570,
      "temple": 3571,
      "ey": 3572,
      "dishwasher": 3573,
      "anchor": 3574,
      "pretending": 3575,
      "organize": 3576,
      "sight": 3577,
      "pistol": 3578,
      "thinking": 3579,
      "tools": 3580,
      "Teddy": 3581,
      "battery": 3582,
      "fireman": 3583,
      "oil": 3584,
      "opens": 3585,
      "realised": 3586,
      "laser": 3587,
      "sne": 3588,
      "patch": 3589,
      "umb": 3590,
      "hours": 3591,
      "robe": 3592,
      "brea": 3593,
      "pilot": 3594,
      "spirit": 3595,
      "buck": 3596,
      "sandbox": 3597,
      "baseball": 3598,
      "fac": 3599,
      "whip": 3600,
      "grill": 3601,
      "trash": 3602,
      "rhin": 3603,
      "lotion": 3604,
      "suppl": 3605,
      "fort": 3606,
      "factory": 3607,
      "seum": 3608,
      "short": 3609,
      "museum": 3610,
      "coffee": 3611,
      "valu": 3612,
      "cardboard": 3613,
      "avail": 3614,
      "wardro": 3615,
      "wardrobe": 3616,
      "ugged": 3617,
      "shrink": 3618,
      "hanging": 3619,
      "check": 3620,
      "napkin": 3621,
      "towers": 3622,
      "blackboard": 3623,
      "quit": 3624,
      "xy": 3625,
      "picking": 3626,
      "excitement": 3627,
      "reward": 3628,
      "dreamed": 3629,
      "penguin": 3630,
      "passport": 3631,
      "Before": 3632,
      "fauce": 3633,
      "available": 3634,
      "igloo": 3635,
      "laun": 3636,
      "stumbled": 3637,
      "sla": 3638,
      "juicy": 3639,
      "aroo": 3640,
      "angaroo": 3641,
      "already": 3642,
      "Everywhere": 3643,
      "allowed": 3644,
      "holds": 3645,
      "novel": 3646,
      "beep": 3647,
      "ense": 3648,
      "fingers": 3649,
      "tornado": 3650,
      "faucet": 3651,
      "hanger": 3652,
      "htray": 3653,
      "fisher": 3654,
      "size": 3655,
      "chim": 3656,
      "oak": 3657,
      "laundry": 3658,
      "chimney": 3659,
      "telling": 3660,
      "ately": 3661,
      "kangaroo": 3662,
      "mule": 3663,
      "cherries": 3664,
      "gging": 3665,
      "aid": 3666,
      "mummy": 3667,
      "spilled": 3668,
      "notice": 3669,
      "practice": 3670,
      "por": 3671,
      "wander": 3672,
      "snap": 3673,
      "weigh": 3674,
      "enjoying": 3675,
      "hut": 3676,
      "imagine": 3677,
      "hurry": 3678,
      "bel": 3679,
      "reinde": 3680,
      "microscope": 3681,
      "sub": 3682,
      "ocero": 3683,
      "fastest": 3684,
      "Co": 3685,
      "cheer": 3686,
      "magazine": 3687,
      "anda": 3688,
      "Mandy": 3689,
      "fireplace": 3690,
      "umber": 3691,
      "listening": 3692,
      "doors": 3693,
      "cabinet": 3694,
      "ashtray": 3695,
      "rake": 3696,
      "bathrobe": 3697,
      "palace": 3698,
      "cows": 3699,
      "Dolly": 3700,
      "improve": 3701,
      "enny": 3702,
      "colour": 3703,
      "falling": 3704,
      "oceros": 3705,
      "arian": 3706,
      "skirt": 3707,
      "discovered": 3708,
      "blin": 3709,
      "stared": 3710,
      "reindeer": 3711,
      "miner": 3712,
      "silver": 3713,
      "trail": 3714,
      "memor": 3715,
      "roared": 3716,
      "stretched": 3717,
      "vision": 3718,
      "bill": 3719,
      "fog": 3720,
      "iction": 3721,
      "toile": 3722,
      "valuable": 3723,
      "taller": 3724,
      "fisherman": 3725,
      "happier": 3726,
      "object": 3727,
      "shamp": 3728,
      "ictionary": 3729,
      "shampoo": 3730,
      "oats": 3731,
      "holes": 3732,
      "ire": 3733,
      "offered": 3734,
      "rhinoceros": 3735,
      "boots": 3736,
      "climbing": 3737,
      "opera": 3738,
      "toilet": 3739,
      "zipper": 3740,
      "mineral": 3741,
      "names": 3742,
      "Frog": 3743,
      "vice": 3744,
      "fuel": 3745,
      "jewelry": 3746,
      "perfu": 3747,
      "Or": 3748,
      "television": 3749,
      "reverse": 3750,
      "axe": 3751,
      "jokes": 3752,
      "gn": 3753,
      "sym": 3754,
      "raz": 3755,
      "sparkly": 3756,
      "stops": 3757,
      "calend": 3758,
      "jumps": 3759,
      "bury": 3760,
      "pressed": 3761,
      "perfume": 3762,
      "razor": 3763,
      "super": 3764,
      "zer": 3765,
      "bol": 3766,
      "attach": 3767,
      "sses": 3768,
      "int": 3769,
      "dictionary": 3770,
      "rece": 3771,
      "neat": 3772,
      "zag": 3773,
      "popped": 3774,
      "gasped": 3775,
      "Pandy": 3776,
      "papers": 3777,
      "calendar": 3778,
      "unpack": 3779,
      "resist": 3780,
      "creek": 3781,
      "symbol": 3782,
      "gear": 3783,
      "pinch": 3784,
      "tuna": 3785,
      "subway": 3786,
      "freezer": 3787,
      "letters": 3788,
      "chose": 3789,
      "Ouch": 3790,
      "bikes": 3791,
      "porch": 3792,
      "spoke": 3793,
      "helper": 3794,
      "anyway": 3795,
      "ival": 3796,
      "shaking": 3797,
      "wic": 3798,
      "wiches": 3799,
      "tightly": 3800,
      "ended": 3801,
      "newspaper": 3802,
      "igzag": 3803,
      "aur": 3804,
      "sandwiches": 3805,
      "against": 3806,
      "billboard": 3807,
      "blouse": 3808,
      "stickers": 3809,
      "swinging": 3810,
      "incl": 3811,
      "restaur": 3812,
      "bookcase": 3813,
      "gym": 3814,
      "lic": 3815,
      "squirrels": 3816,
      "vehicle": 3817,
      "buckle": 3818,
      "nature": 3819,
      "growing": 3820,
      "belongs": 3821,
      "butterflies": 3822,
      "restaurant": 3823,
      "swamp": 3824,
      "hate": 3825,
      "mustache": 3826,
      "stirred": 3827,
      "cards": 3828,
      "Ellie": 3829,
      "lightning": 3830,
      "fest": 3831,
      "reco": 3832,
      "distance": 3833,
      "disturb": 3834,
      "discover": 3835,
      "poon": 3836,
      "recogn": 3837,
      "sof": 3838,
      "beef": 3839,
      "rubber": 3840,
      "festival": 3841,
      "doesn": 3842,
      "crib": 3843,
      "musician": 3844,
      "noon": 3845,
      "alarm": 3846,
      "drain": 3847,
      "model": 3848,
      "ik": 3849,
      "cted": 3850,
      "advice": 3851,
      "sweetie": 3852,
      "apr": 3853,
      "sofa": 3854,
      "Dave": 3855,
      "separate": 3856,
      "surf": 3857,
      "comm": 3858,
      "circles": 3859,
      "breakfast": 3860,
      "arry": 3861,
      "blueberries": 3862,
      "tutor": 3863,
      "shelter": 3864,
      "airport": 3865,
      "ured": 3866,
      "asis": 3867,
      "tease": 3868,
      "knob": 3869,
      "ummer": 3870,
      "mall": 3871,
      "These": 3872,
      "bookshelf": 3873,
      "Johnny": 3874,
      "frogs": 3875,
      "Red": 3876,
      "lands": 3877,
      "Bubb": 3878,
      "Spe": 3879,
      "junk": 3880,
      "Bill": 3881,
      "riding": 3882,
      "pleased": 3883,
      "lend": 3884,
      "display": 3885,
      "wipe": 3886,
      "ahead": 3887,
      "oasis": 3888,
      "soil": 3889,
      "resc": 3890,
      "rescue": 3891,
      "painter": 3892,
      "rail": 3893,
      "squeeze": 3894,
      "leaving": 3895,
      "pedal": 3896,
      "ination": 3897,
      "lumber": 3898,
      "peeked": 3899,
      "poked": 3900,
      "Bow": 3901,
      "quiz": 3902,
      "disappear": 3903,
      "chance": 3904,
      "trains": 3905,
      "tub": 3906,
      "knock": 3907,
      "extra": 3908,
      "ometer": 3909,
      "mometer": 3910,
      "Boun": 3911,
      "refused": 3912,
      "repeat": 3913,
      "point": 3914,
      "dar": 3915,
      "birdcage": 3916,
      "rules": 3917,
      "ga": 3918,
      "winter": 3919,
      "ost": 3920,
      "sounded": 3921,
      "happens": 3922,
      "dancer": 3923,
      "teaspoon": 3924,
      "waste": 3925,
      "theater": 3926,
      "comfort": 3927,
      "weather": 3928,
      "invite": 3929,
      "carrying": 3930,
      "swung": 3931,
      "reef": 3932,
      "trade": 3933,
      "Have": 3934,
      "oph": 3935,
      "Jazz": 3936,
      "cliff": 3937,
      "accept": 3938,
      "uage": 3939,
      "anguage": 3940,
      "lawn": 3941,
      "uniform": 3942,
      "Soph": 3943,
      "admi": 3944,
      "leaned": 3945,
      "lab": 3946,
      "dreaming": 3947,
      "planes": 3948,
      "Lee": 3949,
      "task": 3950,
      "erator": 3951,
      "accidentally": 3952,
      "language": 3953,
      "license": 3954,
      "remove": 3955,
      "frig": 3956,
      "frigerator": 3957,
      "Buzzy": 3958,
      "pastel": 3959,
      "peek": 3960,
      "twir": 3961,
      "suff": 3962,
      "summer": 3963,
      "refrigerator": 3964,
      "!\".": 3965,
      "blinked": 3966,
      "mas": 3967,
      "panda": 3968,
      "Big": 3969,
      "Pat": 3970,
      "starts": 3971,
      "anywhere": 3972,
      "imagined": 3973,
      "stable": 3974,
      "grand": 3975,
      "thermometer": 3976,
      "admire": 3977,
      "caring": 3978,
      "classroom": 3979,
      "ceiling": 3980,
      "shower": 3981,
      "adm": 3982,
      "bove": 3983,
      "Whe": 3984,
      "Sun": 3985,
      "missing": 3986,
      "monkeys": 3987,
      "Ru": 3988,
      "warned": 3989,
      "ium": 3990,
      "wine": 3991,
      "brick": 3992,
      "respectful": 3993,
      "aced": 3994,
      "enter": 3995,
      "above": 3996,
      "cudd": 3997,
      "Lola": 3998,
      "Binky": 3999,
      "problems": 4000,
      "chasing": 4001,
      "apron": 4002,
      "Freddy": 4003,
      "lawy": 4004,
      "strugg": 4005,
      "reg": 4006,
      "freeze": 4007,
      "iture": 4008,
      "urniture": 4009,
      "label": 4010,
      "zoomed": 4011,
      "uggage": 4012,
      "bent": 4013,
      "frowned": 4014,
      "aked": 4015,
      "furniture": 4016,
      "handed": 4017,
      "sunset": 4018,
      "Eventually": 4019,
      "pages": 4020,
      "ostrich": 4021,
      "luggage": 4022,
      "mistakes": 4023,
      "alley": 4024,
      "windows": 4025,
      "ison": 4026,
      "lions": 4027,
      "suggested": 4028,
      "jail": 4029,
      "older": 4030,
      "cur": 4031,
      "grape": 4032,
      "ribbon": 4033,
      "unite": 4034,
      "spoil": 4035,
      "shouts": 4036,
      "Ge": 4037,
      "chamber": 4038,
      "structure": 4039,
      "delay": 4040,
      "fixing": 4041,
      "finds": 4042,
      "fought": 4043,
      "searching": 4044,
      "Geor": 4045,
      "tick": 4046,
      "fant": 4047,
      "surre": 4048,
      "yield": 4049,
      "lawyer": 4050,
      "ady": 4051,
      "meeting": 4052,
      "brightly": 4053,
      "choice": 4054,
      "surprises": 4055,
      "incre": 4056,
      "adium": 4057,
      "favour": 4058,
      "terin": 4059,
      "terinarian": 4060,
      "stadium": 4061,
      "fresh": 4062,
      "veterinarian": 4063,
      "proudly": 4064,
      "veal": 4065,
      "chairs": 4066,
      "iki": 4067,
      "ations": 4068,
      "Carl": 4069,
      "sadly": 4070,
      "fro": 4071,
      "Olive": 4072,
      "puddles": 4073,
      "introd": 4074,
      "Speedy": 4075,
      "reveal": 4076,
      "ranch": 4077,
      "Char": 4078,
      "favourite": 4079,
      "argue": 4080,
      "steam": 4081,
      "admired": 4082,
      "human": 4083,
      "grabs": 4084,
      "saving": 4085,
      "excitedly": 4086,
      "leak": 4087,
      "Lilly": 4088,
      "Mike": 4089,
      "oh": 4090,
      "George": 4091,
      "Bubbles": 4092,
      "appla": 4093,
      "pushing": 4094,
      "ized": 4095,
      "reminded": 4096,
      "recomm": 4097,
      "regret": 4098,
      "ues": 4099,
      "weap": 4100,
      "castles": 4101,
      "Wo": 4102,
      "apo": 4103,
      "wigg": 4104,
      "cuss": 4105,
      "matches": 4106,
      "valley": 4107,
      "forgave": 4108,
      "Wel": 4109,
      "putting": 4110,
      "evening": 4111,
      "Welcome": 4112,
      "chan": 4113,
      "vy": 4114,
      "sneezed": 4115,
      "Pau": 4116,
      "Zoomy": 4117,
      "vroom": 4118,
      "supply": 4119,
      "spade": 4120,
      "discuss": 4121,
      "pup": 4122,
      "cared": 4123,
      "ignore": 4124,
      "prepare": 4125,
      "plates": 4126,
      "country": 4127,
      "restore": 4128,
      "pulls": 4129,
      "plastic": 4130,
      "harbor": 4131,
      "sniffed": 4132,
      "Ho": 4133,
      "replace": 4134,
      "shovel": 4135,
      "raise": 4136,
      "meas": 4137,
      "given": 4138,
      "prevent": 4139,
      "mystery": 4140,
      "socks": 4141,
      "cartoon": 4142,
      "Because": 4143,
      "Ready": 4144,
      "Under": 4145,
      "sticker": 4146,
      "Kiki": 4147,
      "sudden": 4148,
      "slipper": 4149,
      "ience": 4150,
      "wre": 4151,
      "ighted": 4152,
      "player": 4153,
      "kinds": 4154,
      "ricane": 4155,
      "slippery": 4156,
      "panic": 4157,
      "hoping": 4158,
      "shone": 4159,
      "gro": 4160,
      "rained": 4161,
      "superhero": 4162,
      "Boo": 4163,
      "delighted": 4164,
      "ase": 4165,
      "Yay": 4166,
      "surrender": 4167,
      "chickens": 4168,
      "gran": 4169,
      "colourful": 4170,
      "shoulder": 4171,
      "liday": 4172,
      "Yuck": 4173,
      "softly": 4174,
      "claw": 4175,
      "holiday": 4176,
      "Dog": 4177,
      "shakes": 4178,
      "throwing": 4179,
      "barks": 4180,
      "kneel": 4181,
      "ines": 4182,
      "keeping": 4183,
      "applaud": 4184,
      "shivering": 4185,
      "pushes": 4186,
      "sunrise": 4187,
      "ason": 4188,
      "Alex": 4189,
      "thanks": 4190,
      "image": 4191,
      "tip": 4192,
      "ude": 4193,
      "lect": 4194,
      "suffer": 4195,
      "Cl": 4196,
      "points": 4197,
      "expec": 4198,
      "beg": 4199,
      "Shar": 4200,
      "imed": 4201,
      "giggle": 4202,
      "Grace": 4203,
      "copper": 4204,
      "Danny": 4205,
      "infant": 4206,
      "heads": 4207,
      "apolog": 4208,
      "End": 4209,
      "smells": 4210,
      "Happ": 4211,
      "dear": 4212,
      "chanic": 4213,
      "provide": 4214,
      "cherry": 4215,
      "hurricane": 4216,
      "warning": 4217,
      "Bee": 4218,
      "dishes": 4219,
      "meowed": 4220,
      "ince": 4221,
      "mechanic": 4222,
      "menu": 4223,
      "brighter": 4224,
      "thumb": 4225,
      "second": 4226,
      "cakes": 4227,
      "poison": 4228,
      "weapon": 4229,
      "event": 4230,
      "Joey": 4231,
      "letting": 4232,
      "laught": 4233,
      "sprayed": 4234,
      "laughter": 4235,
      "Hoppy": 4236,
      "feelings": 4237,
      "clapping": 4238,
      "score": 4239,
      "rec": 4240,
      "Sophie": 4241,
      "hy": 4242,
      "rooms": 4243,
      "splashing": 4244,
      "navy": 4245,
      "icky": 4246,
      "iest": 4247,
      "Happy": 4248,
      "universe": 4249,
      "sticky": 4250,
      "Paul": 4251,
      "Gig": 4252,
      "mit": 4253,
      "unhappy": 4254,
      "Woof": 4255,
      "Gigi": 4256,
      "cation": 4257,
      "dare": 4258,
      "Sque": 4259,
      "massage": 4260,
      "greedy": 4261,
      "coats": 4262,
      "ener": 4263,
      "Su": 4264,
      "alive": 4265,
      "bend": 4266,
      "breaks": 4267,
      "Qu": 4268,
      "mand": 4269,
      "crash": 4270,
      "invit": 4271,
      "demand": 4272,
      "Hen": 4273,
      "sie": 4274,
      "ating": 4275,
      "Annie": 4276,
      "swee": 4277,
      "wreck": 4278,
      "sigh": 4279,
      "Mag": 4280,
      "trusted": 4281,
      "somewhere": 4282,
      "eaten": 4283,
      "punish": 4284,
      "permit": 4285,
      "Charlie": 4286,
      "toe": 4287,
      "delight": 4288,
      "skill": 4289,
      "erc": 4290,
      "examine": 4291,
      "parts": 4292,
      "versity": 4293,
      "mention": 4294,
      "nes": 4295,
      "slip": 4296,
      "chirp": 4297,
      "raining": 4298,
      "brain": 4299,
      "Henry": 4300,
      "strip": 4301,
      "throws": 4302,
      "jogged": 4303,
      "starting": 4304,
      "university": 4305,
      "drops": 4306,
      "pirates": 4307,
      "request": 4308,
      "Snowy": 4309,
      "flapped": 4310,
      "sparkled": 4311,
      "Sk": 4312,
      "streng": 4313,
      "boo": 4314,
      "steel": 4315,
      "bumped": 4316,
      "yawned": 4317,
      "equ": 4318,
      "scold": 4319,
      "myself": 4320,
      "exerc": 4321,
      "shrugged": 4322,
      "theart": 4323,
      "strength": 4324,
      "paid": 4325,
      "Lucky": 4326,
      "pigs": 4327,
      "scratch": 4328,
      "tracks": 4329,
      "danger": 4330,
      "impressed": 4331,
      "prayed": 4332,
      "crossed": 4333,
      "upstairs": 4334,
      "bouncing": 4335,
      "squeezed": 4336,
      "breathe": 4337,
      "Elly": 4338,
      "badly": 4339,
      "expect": 4340,
      "rabbits": 4341,
      "minute": 4342,
      "snugg": 4343,
      "..": 4344,
      "leather": 4345,
      "rhy": 4346,
      "nation": 4347,
      "Finny": 4348,
      "ix": 4349,
      "choo": 4350,
      "tide": 4351,
      "Finn": 4352,
      "tour": 4353,
      "stud": 4354,
      "flood": 4355,
      "recommend": 4356,
      "sweetheart": 4357,
      "bears": 4358,
      "espec": 4359,
      "claws": 4360,
      "heat": 4361,
      "history": 4362,
      "content": 4363,
      "strawberries": 4364,
      "settle": 4365,
      "vacation": 4366,
      "sandcastle": 4367,
      "network": 4368,
      "Coco": 4369,
      "observe": 4370,
      "explored": 4371,
      "thm": 4372,
      "yawn": 4373,
      "believed": 4374,
      "horses": 4375,
      "neighb": 4376,
      "ially": 4377,
      "checked": 4378,
      "mare": 4379,
      "inking": 4380,
      "placed": 4381,
      "Fox": 4382,
      "bling": 4383,
      "cheek": 4384,
      "Tilly": 4385,
      "ffic": 4386,
      "Not": 4387,
      "Harry": 4388,
      "offer": 4389,
      "easily": 4390,
      "First": 4391,
      "spots": 4392,
      "blueberry": 4393,
      "energy": 4394,
      "mission": 4395,
      "safar": 4396,
      "ween": 4397,
      "between": 4398,
      "nightmare": 4399,
      "imagination": 4400,
      "Penny": 4401,
      "Pa": 4402,
      "daisy": 4403,
      "waving": 4404,
      "soak": 4405,
      "twisted": 4406,
      "counter": 4407,
      "writing": 4408,
      "baking": 4409,
      "safari": 4410,
      "blowing": 4411,
      "quake": 4412,
      "prunes": 4413,
      "rhythm": 4414,
      "stomach": 4415,
      "insisted": 4416,
      "muscle": 4417,
      "Owl": 4418,
      "entered": 4419,
      "beauty": 4420,
      "bother": 4421,
      "palm": 4422,
      "poppy": 4423,
      "ipment": 4424,
      "hills": 4425,
      "equipment": 4426,
      "burned": 4427,
      "ddy": 4428,
      "especially": 4429,
      "cky": 4430,
      "sir": 4431,
      "ingred": 4432,
      "nobody": 4433,
      "ingredient": 4434,
      "ignored": 4435,
      "earthquake": 4436,
      "xygen": 4437,
      "Mill": 4438,
      "calls": 4439,
      "exper": 4440,
      "hood": 4441,
      "tug": 4442,
      "Whenever": 4443,
      "afternoon": 4444,
      "Maria": 4445,
      "lemonade": 4446,
      "Goodbye": 4447,
      "learnt": 4448,
      "hearts": 4449,
      "Zara": 4450,
      "increase": 4451,
      "napped": 4452,
      "Ju": 4453,
      "tremble": 4454,
      "mailman": 4455,
      "whistled": 4456,
      "shopkeeper": 4457,
      "backpack": 4458,
      "yucky": 4459,
      "lemons": 4460,
      "beans": 4461,
      "sting": 4462,
      "moves": 4463,
      "introduce": 4464,
      "strike": 4465,
      "Wed": 4466,
      "Wednes": 4467,
      "Mitten": 4468,
      "ris": 4469,
      "include": 4470,
      "floated": 4471,
      "Froggy": 4472,
      "folded": 4473,
      "traffic": 4474,
      "Sandy": 4475,
      "Sharing": 4476,
      "Mittens": 4477,
      "price": 4478,
      "planned": 4479,
      "Squeaky": 4480,
      "rested": 4481,
      "Sur": 4482,
      "racing": 4483,
      "wisdom": 4484,
      "luck": 4485,
      "Bounce": 4486,
      "Sh": 4487,
      "pitch": 4488,
      "wags": 4489,
      "excla": 4490,
      "following": 4491,
      "mama": 4492,
      "slap": 4493,
      "lip": 4494,
      "below": 4495,
      "heel": 4496,
      "encourage": 4497,
      "served": 4498,
      "weight": 4499,
      "gling": 4500,
      "Gre": 4501,
      "buried": 4502,
      "exclaimed": 4503,
      "prints": 4504,
      "crow": 4505,
      "pted": 4506,
      "follows": 4507,
      "ingredients": 4508,
      "recognize": 4509,
      "allow": 4510,
      "Millie": 4511,
      "candles": 4512,
      "Remember": 4513,
      "Kate": 4514,
      "bey": 4515,
      "urge": 4516,
      "Wednesday": 4517,
      "ler": 4518,
      "ptain": 4519,
      "apart": 4520,
      "bang": 4521,
      "oper": 4522,
      "marbles": 4523,
      "teaching": 4524,
      "growled": 4525,
      "chore": 4526,
      "hopes": 4527,
      "Baby": 4528,
      "closely": 4529,
      "James": 4530,
      "tch": 4531,
      "Follow": 4532,
      "May": 4533,
      "zigzag": 4534,
      "pulling": 4535,
      "chewed": 4536,
      "bouncy": 4537,
      "digg": 4538,
      "further": 4539,
      "dresses": 4540,
      "riage": 4541,
      "winning": 4542,
      "digging": 4543,
      "Pinky": 4544,
      "solved": 4545,
      "gie": 4546,
      "Pip": 4547,
      "ifi": 4548,
      "twis": 4549,
      "puzzles": 4550,
      "shouting": 4551,
      "cery": 4552,
      "grocery": 4553,
      "attent": 4554,
      "peanuts": 4555,
      "chores": 4556,
      "twisty": 4557,
      "worms": 4558,
      "scrat": 4559,
      "dressed": 4560,
      "Papa": 4561,
      "Tony": 4562,
      "operation": 4563,
      "snail": 4564,
      "hon": 4565,
      "deeper": 4566,
      "exercise": 4567,
      "Bluey": 4568,
      "spike": 4569,
      "acorns": 4570,
      "izes": 4571,
      "planted": 4572,
      "oxygen": 4573,
      "wink": 4574,
      "Fifi": 4575,
      "Ruby": 4576,
      "lecture": 4577,
      "attention": 4578,
      "quite": 4579,
      "marriage": 4580,
      "underground": 4581,
      "Everything": 4582,
      "creatures": 4583,
      "argu": 4584,
      "washing": 4585,
      "vanished": 4586,
      "struggle": 4587,
      "hurting": 4588,
      "invitation": 4589,
      "gifts": 4590,
      "licks": 4591,
      "petal": 4592,
      "snuggled": 4593,
      "quietly": 4594,
      "awe": 4595,
      "jazz": 4596,
      "disagree": 4597,
      "blood": 4598,
      "elephants": 4599,
      "fallen": 4600,
      "Liz": 4601,
      "release": 4602,
      "reci": 4603,
      "dried": 4604,
      "sizes": 4605,
      "poss": 4606,
      "landscape": 4607,
      "neighbour": 4608,
      "Tues": 4609,
      "mice": 4610,
      "exit": 4611,
      "sprink": 4612,
      "sailing": 4613,
      "eagerly": 4614,
      "appreci": 4615,
      "Sunday": 4616,
      "paused": 4617,
      "ooped": 4618,
      "Ste": 4619,
      "Surpr": 4620,
      "vanish": 4621,
      "worth": 4622,
      "Uncle": 4623,
      "style": 4624,
      "aking": 4625,
      "shined": 4626,
      "ashion": 4627,
      "reaches": 4628,
      "mm": 4629,
      "Wigg": 4630,
      "atta": 4631,
      "bricks": 4632,
      "kisses": 4633,
      "Sm": 4634,
      "plays": 4635,
      "ideas": 4636,
      "balan": 4637,
      "wob": 4638,
      "fireworks": 4639,
      "seeing": 4640,
      "ucked": 4641,
      "Yum": 4642,
      "tomatoes": 4643,
      "accepted": 4644,
      "stra": 4645,
      "blink": 4646,
      "fashion": 4647,
      "memory": 4648,
      "ups": 4649,
      "married": 4650,
      "nce": 4651,
      "muddy": 4652,
      "Each": 4653,
      "reeze": 4654,
      "Watch": 4655,
      "resp": 4656,
      "Rosie": 4657,
      "wagging": 4658,
      "Clara": 4659,
      "wandered": 4660,
      "captain": 4661,
      "manage": 4662,
      "gloves": 4663,
      "rang": 4664,
      "receive": 4665,
      "famil": 4666,
      "God": 4667,
      "during": 4668,
      "lick": 4669,
      "petals": 4670,
      "zipped": 4671,
      "Mo": 4672,
      "watered": 4673,
      "pillows": 4674,
      "Spark": 4675,
      "couraged": 4676,
      "meow": 4677,
      "brings": 4678,
      "Ke": 4679,
      "Che": 4680,
      "pinched": 4681,
      "destroyed": 4682,
      "printer": 4683,
      "Wiggly": 4684,
      "shot": 4685,
      "bones": 4686,
      "Tuesday": 4687,
      "hadn": 4688,
      "catching": 4689,
      "treasures": 4690,
      "hers": 4691,
      "worse": 4692,
      "beam": 4693,
      "hi": 4694,
      "aches": 4695,
      "scattered": 4696,
      "hits": 4697,
      "sorts": 4698,
      "toes": 4699,
      "memories": 4700,
      "xu": 4701,
      "Kat": 4702,
      "velvet": 4703,
      "scolded": 4704,
      "oranges": 4705,
      "seats": 4706,
      "snapped": 4707,
      "signs": 4708,
      "sits": 4709,
      "Mor": 4710,
      "bby": 4711,
      "gazed": 4712,
      "pears": 4713,
      "raised": 4714,
      "acked": 4715,
      "pies": 4716,
      "sliding": 4717,
      "Wally": 4718,
      "rect": 4719,
      "climbs": 4720,
      "baked": 4721,
      "llen": 4722,
      "easier": 4723,
      "King": 4724,
      "skills": 4725,
      "Beep": 4726,
      "luxu": 4727,
      "ccer": 4728,
      "omed": 4729,
      "forgotten": 4730,
      "twirled": 4731,
      "blankets": 4732,
      "possible": 4733,
      "difference": 4734,
      "zero": 4735,
      "sterday": 4736,
      "cutting": 4737,
      "wed": 4738,
      "Ha": 4739,
      "golden": 4740,
      "Surprise": 4741,
      "kitty": 4742,
      "olive": 4743,
      "season": 4744,
      "Maggie": 4745,
      "soccer": 4746,
      "ys": 4747,
      "bru": 4748,
      "beha": 4749,
      "nowhere": 4750,
      "lung": 4751,
      "emer": 4752,
      "Slow": 4753,
      "dared": 4754,
      "Tuna": 4755,
      "Zo": 4756,
      "bites": 4757,
      "Out": 4758,
      "celebrated": 4759,
      "Hop": 4760,
      "west": 4761,
      "sorting": 4762,
      "sters": 4763,
      "straight": 4764,
      "ah": 4765,
      "padd": 4766,
      "unlocked": 4767,
      "Moral": 4768,
      "bleed": 4769,
      "comed": 4770,
      "nies": 4771,
      "welcomed": 4772,
      "collected": 4773,
      "stitch": 4774,
      "visited": 4775,
      "spoons": 4776,
      "Ok": 4777,
      "jogging": 4778,
      "warn": 4779,
      "medi": 4780,
      "tore": 4781,
      "mediately": 4782,
      "isn": 4783,
      "buzz": 4784,
      "trave": 4785,
      "recei": 4786,
      "since": 4787,
      "winner": 4788,
      "ruin": 4789,
      "fortun": 4790,
      "bab": 4791,
      "prepar": 4792,
      "ipping": 4793,
      "attached": 4794,
      "luxury": 4795,
      "bur": 4796,
      "Suzy": 4797,
      "Din": 4798,
      "imple": 4799,
      "weeping": 4800,
      "Meow": 4801,
      "marching": 4802,
      "simple": 4803,
      "Both": 4804,
      "shouldn": 4805,
      "guessed": 4806,
      "stuffed": 4807,
      "selling": 4808,
      "Smith": 4809,
      "pets": 4810,
      "created": 4811,
      "vic": 4812,
      "urged": 4813,
      "waist": 4814,
      "bowed": 4815,
      "floating": 4816,
      "Someone": 4817,
      "kingdom": 4818,
      "olives": 4819,
      "Always": 4820,
      "kicking": 4821,
      "printed": 4822,
      "punished": 4823,
      "Dr": 4824,
      "muscles": 4825,
      "understanding": 4826,
      "beds": 4827,
      "melted": 4828,
      "uses": 4829,
      "jewels": 4830,
      "lets": 4831,
      "perfor": 4832,
      "lined": 4833,
      "grin": 4834,
      "measured": 4835,
      "collection": 4836,
      "slice": 4837,
      "grant": 4838,
      "omeday": 4839,
      "fortunately": 4840,
      "acted": 4841,
      "offic": 4842,
      "trapped": 4843,
      "gers": 4844,
      "encouraged": 4845,
      "resu": 4846,
      "iers": 4847,
      "waffles": 4848,
      "received": 4849,
      "sip": 4850,
      "ents": 4851,
      "patterns": 4852,
      "mouths": 4853,
      "hest": 4854,
      "kins": 4855,
      "peaches": 4856,
      "breeze": 4857,
      "chy": 4858,
      "six": 4859,
      "someday": 4860,
      "Stay": 4861,
      "potatoes": 4862,
      "soldiers": 4863,
      "result": 4864,
      "Toto": 4865,
      "presents": 4866,
      "experience": 4867,
      "pupil": 4868,
      "drinks": 4869,
      "none": 4870,
      "ging": 4871,
      "flap": 4872,
      "Rocky": 4873,
      "surround": 4874,
      "appro": 4875,
      "drinking": 4876,
      "voices": 4877,
      "breaking": 4878,
      "relaxed": 4879,
      "victory": 4880,
      "tongue": 4881,
      "twink": 4882,
      "bak": 4883,
      "fetch": 4884,
      "hurried": 4885,
      "paints": 4886,
      "stumes": 4887,
      "whistling": 4888,
      "costumes": 4889,
      "mentioned": 4890,
      "Chicky": 4891,
      "disagreed": 4892,
      "begged": 4893,
      "Pepper": 4894,
      "teasing": 4895,
      "pearl": 4896,
      "flat": 4897,
      "lips": 4898,
      "permission": 4899,
      "Like": 4900,
      "skipping": 4901,
      "highest": 4902,
      "sorted": 4903,
      "cus": 4904,
      "works": 4905,
      "Its": 4906,
      "sniff": 4907,
      "fishing": 4908,
      "ringing": 4909,
      "aded": 4910,
      "watches": 4911,
      "tonight": 4912,
      "opin": 4913,
      "shadows": 4914,
      "Sky": 4915,
      "Milly": 4916,
      "crun": 4917,
      "immediately": 4918,
      "perfectly": 4919,
      "suppo": 4920,
      "ruck": 4921,
      "icing": 4922,
      "warmth": 4923,
      "remained": 4924,
      "herbs": 4925,
      "obey": 4926,
      "Our": 4927,
      "mbers": 4928,
      "sett": 4929,
      "sneak": 4930,
      "emergen": 4931,
      "napping": 4932,
      "Dino": 4933,
      "kneeled": 4934,
      "\",": 4935,
      "lines": 4936,
      "colours": 4937,
      "contest": 4938,
      "cartoons": 4939,
      "east": 4940,
      "headed": 4941,
      "ago": 4942,
      "stamps": 4943,
      "Bug": 4944,
      "sidewalk": 4945,
      "Pr": 4946,
      "girls": 4947,
      "rust": 4948,
      "roots": 4949,
      "supposed": 4950,
      "cones": 4951,
      "mixing": 4952,
      "members": 4953,
      "Zigzag": 4954,
      "For": 4955,
      "Dav": 4956,
      "Frank": 4957,
      "decorations": 4958,
      "Keep": 4959,
      "Ex": 4960,
      "melting": 4961,
      "Friend": 4962,
      "Rab": 4963,
      "lily": 4964,
      "sid": 4965,
      "setting": 4966,
      "laid": 4967,
      "Really": 4968,
      "utter": 4969,
      "Ye": 4970,
      "Thanks": 4971,
      "wiggle": 4972,
      "studied": 4973,
      "succeeded": 4974,
      "strangers": 4975,
      "fields": 4976,
      "ding": 4977,
      "shock": 4978,
      "twigs": 4979,
      "theirs": 4980,
      "!\",": 4981,
      "ordered": 4982,
      "stirring": 4983,
      "However": 4984,
      "screams": 4985,
      "Something": 4986,
      "stealing": 4987,
      "alright": 4988,
      "moments": 4989,
      "threat": 4990,
      "mister": 4991,
      "Rabbit": 4992,
      "David": 4993,
      "bravely": 4994,
      "Steve": 4995,
      "!'": 4996,
      "playtime": 4997,
      "esca": 4998,
      "tucked": 4999,
      "invest": 5000,
      "scratched": 5001,
      "waits": 5002,
      "ripped": 5003,
      "burning": 5004,
      "Lizzy": 5005,
      "investig": 5006,
      "text": 5007,
      "inch": 5008,
      "matched": 5009,
      "ishes": 5010,
      "bridges": 5011,
      "settled": 5012,
      "otion": 5013,
      "Rac": 5014,
      "officer": 5015,
      "Je": 5016,
      "bun": 5017,
      "Hope": 5018,
      "lap": 5019,
      "emergency": 5020,
      "texture": 5021,
      "achie": 5022,
      "turning": 5023,
      "Unfortunately": 5024,
      "keys": 5025,
      "trembling": 5026,
      "nails": 5027,
      "Aunt": 5028,
      "nie": 5029,
      "sore": 5030,
      "izard": 5031,
      "piles": 5032,
      "muffins": 5033,
      "decis": 5034,
      "escaped": 5035,
      "Ray": 5036,
      "silence": 5037,
      "babies": 5038,
      "investigate": 5039,
      "admir": 5040,
      "sisters": 5041,
      "appreciate": 5042,
      "Star": 5043,
      "Slowly": 5044,
      "dads": 5045,
      "slapped": 5046,
      "chewing": 5047,
      "Katie": 5048,
      "area": 5049,
      "answers": 5050,
      "importance": 5051,
      "safety": 5052,
      "pupp": 5053,
      "broom": 5054,
      "Put": 5055,
      "wizard": 5056,
      "iggy": 5057,
      "owned": 5058,
      "Abig": 5059,
      "Moo": 5060,
      "beat": 5061,
      "sparkle": 5062,
      "soared": 5063,
      "touching": 5064,
      "quack": 5065,
      "antly": 5066,
      "amaze": 5067,
      "sings": 5068,
      "Abigail": 5069,
      "dam": 5070,
      "chip": 5071,
      "Those": 5072,
      "amazement": 5073,
      "Squ": 5074,
      "brushes": 5075,
      "ms": 5076,
      "soaked": 5077,
      "hesit": 5078,
      "twin": 5079,
      "revealed": 5080,
      "writ": 5081,
      "keeps": 5082,
      "Leave": 5083,
      "Mmm": 5084,
      "Rachel": 5085,
      "foods": 5086,
      "dinosaurs": 5087,
      "recorded": 5088,
      "rides": 5089,
      "curled": 5090,
      "tickle": 5091,
      "spaceship": 5092,
      "trips": 5093,
      "glowed": 5094,
      "rr": 5095,
      "ached": 5096,
      "vor": 5097,
      "beamed": 5098,
      "ppers": 5099,
      "shopping": 5100,
      "Zoe": 5101,
      "hated": 5102,
      "direct": 5103,
      "eats": 5104,
      "wooden": 5105,
      "Spl": 5106,
      "Joy": 5107,
      "studying": 5108,
      "praised": 5109,
      "crawling": 5110,
      "thri": 5111,
      "ruler": 5112,
      "ids": 5113,
      "bringing": 5114,
      "anna": 5115,
      "marks": 5116,
      "mittens": 5117,
      "includ": 5118,
      "downstairs": 5119,
      "shooting": 5120,
      "dot": 5121,
      "tastes": 5122,
      "cuddled": 5123,
      "collecting": 5124,
      "Hold": 5125,
      "sprinkles": 5126,
      "families": 5127,
      "fut": 5128,
      "monsters": 5129,
      "ef": 5130,
      "measuring": 5131,
      "Ma": 5132,
      "ib": 5133,
      "challen": 5134,
      "future": 5135,
      "'.": 5136,
      "Jess": 5137,
      "irts": 5138,
      "ising": 5139,
      "fy": 5140,
      "approached": 5141,
      "crunchy": 5142,
      "ladybug": 5143,
      "Yummy": 5144,
      "leader": 5145,
      "tails": 5146,
      "disturbed": 5147,
      "boom": 5148,
      "remembers": 5149,
      "bleeding": 5150,
      "nicer": 5151,
      "isten": 5152,
      "sneaky": 5153,
      "scaring": 5154,
      "peel": 5155,
      "Sad": 5156,
      "Splash": 5157,
      "vi": 5158,
      "snowball": 5159,
      "Behind": 5160,
      "neighborhood": 5161,
      "grey": 5162,
      "Jam": 5163,
      "motion": 5164,
      "firemen": 5165,
      "Listen": 5166,
      "weighed": 5167,
      "apologized": 5168,
      "gained": 5169,
      "tickets": 5170,
      "loose": 5171,
      "woof": 5172,
      "naps": 5173,
      "youth": 5174,
      "pride": 5175,
      "worker": 5176,
      "behaved": 5177,
      "strings": 5178,
      "Pippa": 5179,
      "Vel": 5180,
      "recognized": 5181,
      "Nan": 5182,
      "sire": 5183,
      "siren": 5184,
      "crashed": 5185,
      "poking": 5186,
      "fied": 5187,
      "wonders": 5188,
      "En": 5189,
      "tricked": 5190,
      "Velvet": 5191,
      "Quick": 5192,
      "Robby": 5193,
      "wanting": 5194,
      "prepared": 5195,
      "struck": 5196,
      "draws": 5197,
      ".'": 5198,
      "seesaw": 5199,
      "zooming": 5200,
      "opinion": 5201,
      "scooped": 5202,
      "By": 5203,
      "acting": 5204,
      "grinned": 5205,
      "yelling": 5206,
      "poems": 5207,
      "happiest": 5208,
      "rubbing": 5209,
      "doggy": 5210,
      "Get": 5211,
      "respons": 5212,
      "zes": 5213,
      "chef": 5214,
      "sneaked": 5215,
      "Achoo": 5216,
      "fer": 5217,
      "Quack": 5218,
      "lier": 5219,
      "zen": 5220,
      "anytime": 5221,
      "knelt": 5222,
      "decorated": 5223,
      "pedals": 5224,
      "sides": 5225,
      "bunnies": 5226,
      "Jan": 5227,
      "ena": 5228,
      "agreement": 5229,
      "secrets": 5230,
      "tallest": 5231,
      "horns": 5232,
      "rescu": 5233,
      "During": 5234,
      "sen": 5235,
      "De": 5236,
      "Time": 5237,
      "decides": 5238,
      "bank": 5239,
      "ided": 5240,
      "Stitch": 5241,
      "challenge": 5242,
      "tugged": 5243,
      "goodnight": 5244,
      "Spr": 5245,
      "Bree": 5246,
      "Exc": 5247,
      "slim": 5248,
      "sparkling": 5249,
      "chirped": 5250,
      "osity": 5251,
      "Bad": 5252,
      "Thom": 5253,
      "precious": 5254,
      "repeated": 5255,
      "indy": 5256,
      "Ava": 5257,
      "pause": 5258,
      "Friends": 5259,
      "Being": 5260,
      "Green": 5261,
      "uggling": 5262,
      "loaded": 5263,
      "claps": 5264,
      "Birdie": 5265,
      "contain": 5266,
      "ourselves": 5267,
      "rs": 5268,
      "Bouncy": 5269,
      "snowballs": 5270,
      "eight": 5271,
      "Dare": 5272,
      "giraffes": 5273,
      "frozen": 5274,
      "balancing": 5275,
      "kindly": 5276,
      "Gogo": 5277,
      "united": 5278,
      "alien": 5279,
      "Sn": 5280,
      "spending": 5281,
      "writes": 5282,
      "comp": 5283,
      "Thomas": 5284,
      "Po": 5285,
      "hissed": 5286,
      "flavor": 5287,
      "frosting": 5288,
      "Two": 5289,
      "struggled": 5290,
      "buzzing": 5291,
      "rele": 5292,
      "admiring": 5293,
      "sweeties": 5294,
      "slimy": 5295,
      "brushed": 5296,
      "Water": 5297,
      "Mi": 5298,
      "polished": 5299,
      "bloomed": 5300,
      "comfy": 5301,
      "Olly": 5302,
      "Fish": 5303,
      "rings": 5304,
      "loving": 5305,
      "Mouse": 5306,
      "powers": 5307,
      "staying": 5308,
      "Julie": 5309,
      "honk": 5310,
      "folding": 5311,
      "thrilled": 5312,
      "Zero": 5313,
      "beside": 5314,
      "rocking": 5315,
      "Kids": 5316,
      "Cla": 5317,
      "Mir": 5318,
      "Wis": 5319,
      "pockets": 5320,
      "earlier": 5321,
      "Wisdom": 5322,
      "seems": 5323,
      "yesterday": 5324,
      "machines": 5325,
      "traveled": 5326,
      "ities": 5327,
      "sew": 5328,
      "spraying": 5329,
      "radishes": 5330,
      "zookeeper": 5331,
      "hugging": 5332,
      "cracked": 5333,
      "opening": 5334,
      "tim": 5335,
      "pebbles": 5336,
      "gaze": 5337,
      "surrounded": 5338,
      "removed": 5339,
      "demanded": 5340,
      "curiosity": 5341,
      "paintings": 5342,
      "Spring": 5343,
      "hardly": 5344,
      "pots": 5345,
      "Beth": 5346,
      "petted": 5347,
      "Day": 5348,
      "catches": 5349,
      "circus": 5350,
      "stripes": 5351,
      "Abby": 5352,
      "matching": 5353,
      "crumb": 5354,
      "cub": 5355,
      "urry": 5356,
      "deser": 5357,
      "Jamie": 5358,
      "splashes": 5359,
      "cin": 5360,
      "Lou": 5361,
      "aster": 5362,
      "ric": 5363,
      "toss": 5364,
      "stare": 5365,
      "Fl": 5366,
      "belly": 5367,
      "stron": 5368,
      "Everyday": 5369,
      "whatever": 5370,
      "apologize": 5371,
      "sled": 5372,
      "tles": 5373,
      "ribbons": 5374,
      "comforted": 5375,
      "stored": 5376,
      "roads": 5377,
      "rocked": 5378,
      "expected": 5379,
      "struggling": 5380,
      "chases": 5381,
      "decision": 5382,
      "steep": 5383,
      "lied": 5384,
      "protected": 5385,
      "Mon": 5386,
      "beard": 5387,
      "neighbors": 5388,
      "granted": 5389,
      "loe": 5390,
      "diving": 5391,
      "smiley": 5392,
      "purred": 5393,
      "heroes": 5394,
      "Nina": 5395,
      "eagle": 5396,
      "stro": 5397,
      "sadness": 5398,
      "organizing": 5399,
      "disco": 5400,
      "safer": 5401,
      "dipped": 5402,
      "goals": 5403,
      "argued": 5404,
      "sunlight": 5405,
      "pastels": 5406,
      "Take": 5407,
      "discovery": 5408,
      "villag": 5409,
      "dragons": 5410,
      "peered": 5411,
      "buildings": 5412,
      "Chloe": 5413,
      "parties": 5414,
      "buckets": 5415,
      "cuts": 5416,
      "shirts": 5417,
      "wedding": 5418,
      "smar": 5419,
      "flutter": 5420,
      "polishing": 5421,
      "Josh": 5422,
      "fas": 5423,
      "refu": 5424,
      "planets": 5425,
      "crabs": 5426,
      "Ear": 5427,
      "sausages": 5428,
      "Hippy": 5429,
      "released": 5430,
      "Silly": 5431,
      "ads": 5432,
      "wiggled": 5433,
      "clearing": 5434,
      "vies": 5435,
      "teased": 5436,
      "arguing": 5437,
      "roaring": 5438,
      "bottles": 5439,
      "dragged": 5440,
      "gathering": 5441,
      "actu": 5442,
      "Kay": 5443,
      "ley": 5444,
      "movies": 5445,
      "Run": 5446,
      "teaches": 5447,
      "limes": 5448,
      "cough": 5449,
      "Bop": 5450,
      "joyed": 5451,
      "spiders": 5452,
      "Prin": 5453,
      "actually": 5454,
      "continue": 5455,
      "sighs": 5456,
      "Hanna": 5457,
      "overjoyed": 5458,
      "caut": 5459,
      "cuddle": 5460,
      "cubes": 5461,
      "smallest": 5462,
      "soaring": 5463,
      "situ": 5464,
      "drives": 5465,
      "prov": 5466,
      "sparkles": 5467,
      "grandmother": 5468,
      "proper": 5469,
      "Catty": 5470,
      "rol": 5471,
      "mane": 5472,
      "fascin": 5473,
      "Flo": 5474,
      "peppers": 5475,
      "pouring": 5476,
      "pretends": 5477,
      "wondering": 5478,
      "shivered": 5479,
      "stretching": 5480,
      "len": 5481,
      "quarreling": 5482,
      "dusty": 5483,
      "Jump": 5484,
      "ippy": 5485,
      "weeks": 5486,
      "wherever": 5487,
      "villagers": 5488,
      "darker": 5489,
      "company": 5490,
      "Enjoy": 5491,
      "onwards": 5492,
      "weed": 5493,
      "laying": 5494,
      "iggling": 5495,
      "tiest": 5496,
      "tions": 5497,
      "youn": 5498,
      "prettiest": 5499,
      "Oli": 5500,
      "realize": 5501,
      "Lena": 5502,
      "penguins": 5503,
      "knights": 5504,
      "bedtime": 5505,
      "Earth": 5506,
      "control": 5507,
      "othing": 5508,
      "”.": 5509,
      "completed": 5510,
      "instruc": 5511,
      "flags": 5512,
      "stom": 5513,
      "actions": 5514,
      "shrug": 5515,
      "Chew": 5516,
      "Love": 5517,
      "dolph": 5518,
      "kites": 5519,
      "patience": 5520,
      "conf": 5521,
      "Anne": 5522,
      "responsible": 5523,
      "learns": 5524,
      "die": 5525,
      "Squirrel": 5526,
      "playroom": 5527,
      "gotten": 5528,
      "packing": 5529,
      "Adam": 5530,
      "Try": 5531,
      "destination": 5532,
      "sobb": 5533,
      "reply": 5534,
      "inda": 5535,
      "fault": 5536,
      "Uh": 5537,
      "mountains": 5538,
      "scrubbed": 5539,
      "wires": 5540,
      "applauded": 5541,
      "Blink": 5542,
      "wins": 5543,
      "fears": 5544,
      "wrist": 5545,
      "crept": 5546,
      "rac": 5547,
      "satis": 5548,
      "pencils": 5549,
      "wound": 5550,
      "Want": 5551,
      "sticking": 5552,
      "Brownie": 5553,
      "baker": 5554,
      "third": 5555,
      "visiting": 5556,
      "ibb": 5557,
      "aren": 5558,
      "uct": 5559,
      "peas": 5560,
      "awake": 5561,
      "reminder": 5562,
      "joking": 5563,
      "Mira": 5564,
      "ky": 5565,
      "Princess": 5566,
      "parked": 5567,
      "healed": 5568,
      "hitting": 5569,
      "Luck": 5570,
      "screaming": 5571,
      "staring": 5572,
      "icorn": 5573,
      "unicorn": 5574,
      "Hannah": 5575,
      "acti": 5576,
      "begin": 5577,
      "copy": 5578,
      "helmets": 5579,
      "Luckily": 5580,
      "bie": 5581,
      "creation": 5582,
      "crumbs": 5583,
      "shelves": 5584,
      "wasted": 5585,
      "chips": 5586,
      "towels": 5587,
      "nets": 5588,
      "masks": 5589,
      "items": 5590,
      "chat": 5591,
      "Claire": 5592,
      "agrees": 5593,
      "Hoot": 5594,
      "died": 5595,
      "lollipops": 5596,
      "uddles": 5597,
      "guns": 5598,
      "glitter": 5599,
      "ica": 5600,
      "firefight": 5601,
      "Jilly": 5602,
      "logs": 5603,
      "stole": 5604,
      "arrive": 5605,
      "scales": 5606,
      "weren": 5607,
      "tune": 5608,
      "Dot": 5609,
      "ilo": 5610,
      "Ah": 5611,
      "Ally": 5612,
      "perched": 5613,
      "nect": 5614,
      "candies": 5615,
      "whose": 5616,
      "seven": 5617,
      "instructions": 5618,
      "snakes": 5619,
      "practicing": 5620,
      "achieve": 5621,
      "wid": 5622,
      "pumpkins": 5623,
      "Foxy": 5624,
      "Ball": 5625,
      "batteries": 5626,
      "chirping": 5627,
      "Roar": 5628,
      "protecting": 5629,
      "activ": 5630,
      "patiently": 5631,
      "exact": 5632,
      "shoulders": 5633,
      "Tree": 5634,
      "blows": 5635,
      "crowd": 5636,
      "El": 5637,
      "faced": 5638,
      "promises": 5639,
      "Cra": 5640,
      "airplane": 5641,
      "videos": 5642,
      "ners": 5643,
      "yum": 5644,
      "examined": 5645,
      "jamas": 5646,
      "cans": 5647,
      "accompl": 5648,
      "roses": 5649,
      "Duck": 5650,
      "project": 5651,
      "Ja": 5652,
      "tasks": 5653,
      "aws": 5654,
      "Susan": 5655,
      "Great": 5656,
      "beads": 5657,
      "Cuddles": 5658,
      "bowls": 5659,
      "rubs": 5660,
      "guest": 5661,
      "listens": 5662,
      "Jeff": 5663,
      "scoop": 5664,
      "remote": 5665,
      "requested": 5666,
      "dies": 5667,
      "ining": 5668,
      "dent": 5669,
      "anta": 5670,
      "rolls": 5671,
      "dolphins": 5672,
      "bunch": 5673,
      "photos": 5674,
      "ops": 5675,
      "improved": 5676,
      "cheering": 5677,
      "brand": 5678,
      "reaching": 5679,
      "Santa": 5680,
      "stumble": 5681,
      "robb": 5682,
      "Dizzy": 5683,
      "hunt": 5684,
      "Fine": 5685,
      "workers": 5686,
      "Luke": 5687,
      "filling": 5688,
      "timer": 5689,
      "stern": 5690,
      "leaning": 5691,
      "Jessie": 5692,
      "adult": 5693,
      "eath": 5694,
      "replaced": 5695,
      "neither": 5696,
      "tum": 5697,
      "confli": 5698,
      "misses": 5699,
      "twirl": 5700,
      "curtains": 5701,
      "passing": 5702,
      "rainbows": 5703,
      "uctantly": 5704,
      "irm": 5705,
      "beneath": 5706,
      "complaining": 5707,
      "puppet": 5708,
      "conflict": 5709,
      "pajamas": 5710,
      "patted": 5711,
      "outdoors": 5712,
      "sweat": 5713,
      "refuse": 5714,
      "Juli": 5715,
      "fact": 5716,
      "closes": 5717,
      "Henny": 5718,
      "Trust": 5719,
      "drums": 5720,
      "Nothing": 5721,
      "hoo": 5722,
      "balanced": 5723,
      "angled": 5724,
      "introduc": 5725,
      "quacked": 5726,
      "rescued": 5727,
      "athy": 5728,
      "awesome": 5729,
      "Fire": 5730,
      "...": 5731,
      "neath": 5732,
      "rip": 5733,
      "guys": 5734,
      "Days": 5735,
      "ker": 5736,
      "effort": 5737,
      "observed": 5738,
      "trig": 5739,
      "rule": 5740,
      "cautious": 5741,
      "exactly": 5742,
      "Oops": 5743,
      "becoming": 5744,
      "pastries": 5745,
      "Rover": 5746,
      "policeman": 5747,
      "Linda": 5748,
      "doctors": 5749,
      "rockets": 5750,
      "Milo": 5751,
      "mies": 5752,
      "insist": 5753,
      "blooming": 5754,
      "fairies": 5755,
      "Whistle": 5756,
      "Vroom": 5757,
      "tractor": 5758,
      "farther": 5759,
      "Gina": 5760,
      "teamwork": 5761,
      "zie": 5762,
      "Jenna": 5763,
      "included": 5764,
      "remembering": 5765,
      "curly": 5766,
      "Jacob": 5767,
      "fascinated": 5768,
      "Sha": 5769,
      "helpers": 5770,
      "truly": 5771,
      "sights": 5772,
      "slam": 5773,
      "Only": 5774,
      "firm": 5775,
      "wobbled": 5776,
      "onge": 5777,
      "recording": 5778,
      "paddle": 5779,
      "caused": 5780,
      "prayer": 5781,
      "Rain": 5782,
      "Jon": 5783,
      "loading": 5784,
      "cost": 5785,
      "traded": 5786,
      "starfish": 5787,
      "thro": 5788,
      "inviting": 5789,
      "neighbourhood": 5790,
      "pointy": 5791,
      "Ske": 5792,
      "throat": 5793,
      "Skelly": 5794,
      "usually": 5795,
      "sponge": 5796,
      "supplies": 5797,
      "situation": 5798,
      "prett": 5799,
      "valued": 5800,
      "everyday": 5801,
      "adding": 5802,
      "dots": 5803,
      "bare": 5804,
      "steady": 5805,
      "bows": 5806,
      "reluctantly": 5807,
      "ornaments": 5808,
      "minerals": 5809,
      "prettier": 5810,
      "ledge": 5811,
      "seas": 5812,
      "shaped": 5813,
      "stays": 5814,
      "Betsy": 5815,
      "tables": 5816,
      "Dara": 5817,
      "desert": 5818,
      "anger": 5819,
      "snowmen": 5820,
      "faraway": 5821,
      "Dee": 5822,
      "Whee": 5823,
      "thorn": 5824,
      "Lion": 5825,
      "strum": 5826,
      "solut": 5827,
      "swooped": 5828,
      "forks": 5829,
      "Twink": 5830,
      "pans": 5831,
      "badge": 5832,
      "colored": 5833,
      "winked": 5834,
      "Suzie": 5835,
      "sneezing": 5836,
      "Ash": 5837,
      "confident": 5838,
      "insects": 5839,
      "sobbed": 5840,
      "growling": 5841,
      "noses": 5842,
      "Dodo": 5843,
      "itchy": 5844,
      "homework": 5845,
      "scarves": 5846,
      "windy": 5847,
      "superheroes": 5848,
      "smarter": 5849,
      "ora": 5850,
      "yourselves": 5851,
      "ido": 5852,
      "Ziggy": 5853,
      "Nana": 5854,
      "Paws": 5855,
      "lett": 5856,
      "kicks": 5857,
      "librarian": 5858,
      "Bang": 5859,
      "Mart": 5860,
      "gems": 5861,
      "jackets": 5862,
      "underneath": 5863,
      "Wink": 5864,
      "master": 5865,
      "knowledge": 5866,
      "untie": 5867,
      "Snap": 5868,
      "ropes": 5869,
      "...\"": 5870,
      "Yeah": 5871,
      "princesses": 5872,
      "vin": 5873,
      "Gu": 5874,
      "Fido": 5875,
      "warnings": 5876,
      "cot": 5877,
      "giggling": 5878,
      "reads": 5879,
      "squares": 5880,
      "Skip": 5881,
      "rusty": 5882,
      "zzed": 5883,
      "orted": 5884,
      "swallow": 5885,
      "biting": 5886,
      "Sadly": 5887,
      "Yesterday": 5888,
      "deal": 5889,
      "Ew": 5890,
      "aut": 5891,
      "seag": 5892,
      "clowns": 5893,
      "younger": 5894,
      "seagull": 5895,
      "delivered": 5896,
      "Fe": 5897,
      "wears": 5898,
      "Pu": 5899,
      "nine": 5900,
      "Twinkle": 5901,
      "pite": 5902,
      "complained": 5903,
      "buzzed": 5904,
      "iv": 5905,
      "rance": 5906,
      "Shh": 5907,
      "Jessica": 5908,
      "Buggy": 5909,
      "paddled": 5910,
      "onions": 5911,
      "bumpy": 5912,
      "piggy": 5913,
      "dived": 5914,
      "direction": 5915,
      "startled": 5916,
      "Jones": 5917,
      "froze": 5918,
      "surface": 5919,
      "Cara": 5920,
      "Cindy": 5921,
      "tangled": 5922,
      "Cathy": 5923,
      "Ba": 5924,
      "vowed": 5925,
      "covers": 5926,
      "napkins": 5927,
      "tickled": 5928,
      "squeal": 5929,
      "itches": 5930,
      "cous": 5931,
      "ripe": 5932,
      "Near": 5933,
      "yells": 5934,
      "swims": 5935,
      "satisfied": 5936,
      "knocks": 5937,
      "Mine": 5938,
      "fits": 5939,
      "freshed": 5940,
      "wow": 5941,
      "refreshed": 5942,
      "Tara": 5943,
      "signed": 5944,
      "marked": 5945,
      "arrows": 5946,
      "Kayla": 5947,
      "speaking": 5948,
      "lettuce": 5949,
      "wipes": 5950,
      "choices": 5951,
      "praying": 5952,
      "ented": 5953,
      "seeker": 5954,
      "guessing": 5955,
      "fab": 5956,
      "hides": 5957,
      "creating": 5958,
      "introduced": 5959,
      "slower": 5960,
      "Nice": 5961,
      "singer": 5962,
      "ref": 5963,
      "behaving": 5964,
      "Oliver": 5965,
      "joked": 5966,
      "explorers": 5967,
      "provided": 5968,
      "Julia": 5969,
      "toaster": 5970,
      "uggles": 5971,
      "Excuse": 5972,
      "Mat": 5973,
      "discovering": 5974,
      "rainy": 5975,
      "bars": 5976,
      "paying": 5977,
      "written": 5978,
      "Fu": 5979,
      "mushrooms": 5980,
      "magnets": 5981,
      "knees": 5982,
      "Mic": 5983,
      "hider": 5984,
      "wandering": 5985,
      "images": 5986,
      "Rolly": 5987,
      "ese": 5988,
      "ences": 5989,
      "barely": 5990,
      "Grumpy": 5991,
      "restored": 5992,
      "leading": 5993,
      "stung": 5994,
      "sequ": 5995,
      "?\",": 5996,
      "Snuggles": 5997,
      "Copper": 5998,
      "Mikey": 5999,
      "Matt": 6000,
      "chuck": 6001,
      "ranger": 6002,
      "bravery": 6003,
      "competition": 6004,
      "properly": 6005,
      "Laser": 6006,
      "wishing": 6007,
      "ventured": 6008,
      "however": 6009,
      "deserve": 6010,
      "gears": 6011,
      "salty": 6012,
      "blocking": 6013,
      "dances": 6014,
      "matters": 6015,
      "vines": 6016,
      "darkness": 6017,
      "stem": 6018,
      "chefs": 6019,
      "consequ": 6020,
      "cobwebs": 6021,
      "ruining": 6022,
      "scur": 6023,
      "fabric": 6024,
      "avocados": 6025,
      "basement": 6026,
      "hum": 6027,
      "entire": 6028,
      "lower": 6029,
      "least": 6030,
      "performed": 6031,
      "Jay": 6032,
      "scratches": 6033,
      "Bark": 6034,
      "Pup": 6035,
      "losing": 6036,
      "heavier": 6037,
      "bbie": 6038,
      "amb": 6039,
      "Without": 6040,
      "mints": 6041,
      "twirling": 6042,
      "wraps": 6043,
      "scurried": 6044,
      "haust": 6045,
      "reflect": 6046,
      "suits": 6047,
      "rever": 6048,
      "swords": 6049,
      "sunflowers": 6050,
      "flake": 6051,
      "snat": 6052,
      "flames": 6053,
      "necklaces": 6054,
      "si": 6055,
      "solution": 6056,
      "rotting": 6057,
      "relief": 6058,
      "tricky": 6059,
      "silent": 6060,
      "jobs": 6061,
      "sewed": 6062,
      "Bloom": 6063,
      "Peanut": 6064,
      "burst": 6065,
      "stain": 6066,
      "lighter": 6067,
      "exhaust": 6068,
      "thud": 6069,
      "consequences": 6070,
      "Larry": 6071,
      "pins": 6072,
      "unpacked": 6073,
      "Sophia": 6074,
      "races": 6075,
      "partic": 6076,
      "accomplish": 6077,
      "bumps": 6078,
      "Fro": 6079,
      "noy": 6080,
      "tires": 6081,
      "rious": 6082,
      "purr": 6083,
      "decorating": 6084,
      "Doctor": 6085,
      "backed": 6086,
      "click": 6087,
      "dentist": 6088,
      "Up": 6089,
      "ene": 6090,
      "lifting": 6091,
      "annoy": 6092,
      "iar": 6093,
      "isies": 6094,
      "crackers": 6095,
      "ouch": 6096,
      "needles": 6097,
      "Lizz": 6098,
      "cautiously": 6099,
      "growls": 6100,
      "ties": 6101,
      "hesitated": 6102,
      "Woo": 6103,
      "familiar": 6104,
      "bodies": 6105,
      "daisies": 6106,
      "triangles": 6107,
      "Lizzie": 6108,
      "rains": 6109,
      "grabbing": 6110,
      "mater": 6111,
      "buying": 6112,
      "figured": 6113,
      "grows": 6114,
      "stomped": 6115,
      "sweets": 6116,
      "material": 6117,
      "bly": 6118,
      "cheeks": 6119,
      "bakery": 6120,
      "interested": 6121,
      "June": 6122,
      "groups": 6123,
      "Ant": 6124,
      "swans": 6125,
      "Ele": 6126,
      "Sim": 6127,
      "suffering": 6128,
      "lungs": 6129,
      "owners": 6130,
      "repa": 6131,
      "ded": 6132,
      "freed": 6133,
      "chuckled": 6134,
      "ters": 6135,
      "?'": 6136,
      "source": 6137,
      "swept": 6138,
      "twinkling": 6139,
      "exhausted": 6140,
      "Frosty": 6141,
      "darling": 6142,
      "worries": 6143,
      "tapped": 6144,
      "feast": 6145,
      "tunnels": 6146,
      "Very": 6147,
      "repaired": 6148,
      "yan": 6149,
      "activities": 6150,
      "nectar": 6151,
      "indro": 6152,
      "Mel": 6153,
      "reason": 6154,
      "plent": 6155,
      "Moon": 6156,
      "mailed": 6157,
      "changing": 6158,
      "Pam": 6159,
      "kings": 6160,
      "Que": 6161,
      "dip": 6162,
      "entrance": 6163,
      "completely": 6164,
      "pecked": 6165,
      "sense": 6166,
      "fuzzy": 6167,
      "cuddly": 6168,
      "nests": 6169,
      "particular": 6170,
      "raindro": 6171,
      "meals": 6172,
      "stool": 6173,
      "waiter": 6174,
      "plenty": 6175,
      "forehead": 6176,
      "Rollie": 6177,
      "Birthday": 6178,
      "peeking": 6179,
      "Nick": 6180,
      "rist": 6181,
      "Bigg": 6182,
      "slammed": 6183,
      "ks": 6184,
      "players": 6185,
      "Stell": 6186,
      "printing": 6187,
      "month": 6188,
      "Stella": 6189,
      "handful": 6190,
      "forgets": 6191,
      "feeding": 6192,
      "gle": 6193,
      "rum": 6194,
      "budge": 6195,
      "scra": 6196,
      "Chris": 6197,
      "passports": 6198,
      "Other": 6199,
      "Cu": 6200,
      "lon": 6201,
      "Queen": 6202,
      "genie": 6203,
      "impossible": 6204,
      "talks": 6205,
      "baths": 6206,
      "determination": 6207,
      "films": 6208,
      "spikes": 6209,
      "designed": 6210,
      "wobble": 6211,
      "opp": 6212,
      "counts": 6213,
      "squish": 6214,
      "buses": 6215,
      "spreading": 6216,
      "honked": 6217,
      "blings": 6218,
      "chop": 6219,
      "steer": 6220,
      "stolen": 6221,
      "Christ": 6222,
      "wiping": 6223,
      "separated": 6224,
      "Hurry": 6225,
      "Magic": 6226,
      "Sleep": 6227,
      "lamb": 6228,
      "ranny": 6229,
      "fires": 6230,
      "siblings": 6231,
      "Biggie": 6232,
      "behavi": 6233,
      "irl": 6234,
      "ply": 6235,
      "Eleph": 6236,
      "hops": 6237,
      "thest": 6238,
      "Abbie": 6239,
      "fever": 6240,
      "sewing": 6241,
      "Missy": 6242,
      "Robert": 6243,
      "iss": 6244,
      "liqu": 6245,
      "celebration": 6246,
      "pose": 6247,
      "Lau": 6248,
      "twinkle": 6249,
      "Robo": 6250,
      "toed": 6251,
      "backward": 6252,
      "Robbie": 6253,
      "camping": 6254,
      "Maya": 6255,
      "Izzy": 6256,
      "bi": 6257,
      "Rock": 6258,
      "snatched": 6259,
      "serving": 6260,
      "Stre": 6261,
      "immer": 6262,
      "creams": 6263,
      "squealed": 6264,
      "shrinking": 6265,
      "cash": 6266,
      "moo": 6267,
      "celebrating": 6268,
      "twice": 6269,
      "sway": 6270,
      "hog": 6271,
      "dollhouse": 6272,
      "Lia": 6273,
      "hus": 6274,
      "kittens": 6275,
      "plain": 6276,
      "shops": 6277,
      "touches": 6278,
      "Honey": 6279,
      "spat": 6280,
      "mate": 6281,
      "avoid": 6282,
      "Stretch": 6283,
      "Toot": 6284,
      "pancakes": 6285,
      "paths": 6286,
      "students": 6287,
      "dropping": 6288,
      "twisting": 6289,
      "calmed": 6290,
      "tram": 6291,
      "ul": 6292,
      "untied": 6293,
      "wrapping": 6294,
      "stroked": 6295,
      "cers": 6296,
      "peck": 6297,
      "liquid": 6298,
      "rotten": 6299,
      "iles": 6300,
      "somebody": 6301,
      "Laura": 6302,
      "Which": 6303,
      "seaweed": 6304,
      "Sparky": 6305,
      "ingo": 6306,
      "Fuzzy": 6307,
      "cent": 6308,
      "astron": 6309,
      "playhouse": 6310,
      "screws": 6311,
      "Farm": 6312,
      "haw": 6313,
      "loops": 6314,
      "bracelets": 6315,
      "wakes": 6316,
      "itched": 6317,
      "igning": 6318,
      "shoo": 6319,
      "puppies": 6320,
      "astronaut": 6321,
      "thrown": 6322,
      "planning": 6323,
      "Rudy": 6324,
      "Elephant": 6325,
      "aimed": 6326,
      "ends": 6327,
      "skunk": 6328,
      "bras": 6329,
      "firefly": 6330,
      "dancers": 6331,
      "rewarded": 6332,
      "chie": 6333,
      "belts": 6334,
      "sparks": 6335,
      "poster": 6336,
      "pennies": 6337,
      "lifts": 6338,
      "beginning": 6339,
      "Christmas": 6340,
      "husband": 6341,
      "Isn": 6342,
      "sale": 6343,
      "trampol": 6344,
      "reflection": 6345,
      "objects": 6346,
      "directions": 6347,
      "lia": 6348,
      "endy": 6349,
      "Karen": 6350,
      "increased": 6351,
      "tempt": 6352,
      "rising": 6353,
      "Ryan": 6354,
      "clues": 6355,
      "scor": 6356,
      "leads": 6357,
      "cousin": 6358,
      "ading": 6359,
      "blocked": 6360,
      "trampoline": 6361,
      "gar": 6362,
      "forgetting": 6363,
      "--": 6364,
      "Open": 6365,
      "bits": 6366,
      "angle": 6367,
      "trigued": 6368,
      "pouted": 6369,
      "Martha": 6370,
      "itor": 6371,
      "storekeeper": 6372,
      "borrowed": 6373,
      "mesmer": 6374,
      "hedgehog": 6375,
      "countryside": 6376,
      "instrum": 6377,
      "dama": 6378,
      "lings": 6379,
      "damage": 6380,
      "Along": 6381,
      "frowning": 6382,
      "beyond": 6383,
      "zebras": 6384,
      "snowflake": 6385,
      "vehicles": 6386,
      "presses": 6387,
      "whispers": 6388,
      "ivity": 6389,
      "ount": 6390,
      "forts": 6391,
      "marker": 6392,
      "Mabel": 6393,
      "maker": 6394,
      "Emmy": 6395,
      "flapping": 6396,
      "cert": 6397,
      "Does": 6398,
      "warmer": 6399,
      "ammy": 6400,
      "regretted": 6401,
      "slips": 6402,
      "Snowman": 6403,
      "glued": 6404,
      "tiptoed": 6405,
      "Farmer": 6406,
      "Granny": 6407,
      "everybody": 6408,
      "bells": 6409,
      "yelp": 6410,
      "cushions": 6411,
      "colder": 6412,
      "creations": 6413,
      "smelling": 6414,
      "Show": 6415,
      "hearing": 6416,
      "earn": 6417,
      "iam": 6418,
      "tying": 6419,
      "fins": 6420,
      "Crab": 6421,
      "airy": 6422,
      "streets": 6423,
      "Tia": 6424,
      "os": 6425,
      "Ne": 6426,
      "farthest": 6427,
      "Univer": 6428,
      "spins": 6429,
      "iti": 6430,
      "Beaky": 6431,
      "strongest": 6432,
      "Ribb": 6433,
      "creativity": 6434,
      "Ron": 6435,
      "talent": 6436,
      "ortun": 6437,
      "Make": 6438,
      "sank": 6439,
      "lending": 6440,
      "Ribbit": 6441,
      "Spir": 6442,
      "including": 6443,
      "Too": 6444,
      "puff": 6445,
      "dollars": 6446,
      "cashier": 6447,
      "Never": 6448,
      "stopping": 6449,
      "health": 6450,
      "Ana": 6451,
      "spells": 6452,
      "wobbly": 6453,
      "sniffs": 6454,
      "Say": 6455,
      "trembled": 6456,
      "guests": 6457,
      "Spirit": 6458,
      "hael": 6459,
      "single": 6460,
      "pon": 6461,
      "indeed": 6462,
      "raincoat": 6463,
      "bbled": 6464,
      "Win": 6465,
      "recommended": 6466,
      "Afterwards": 6467,
      "surprising": 6468,
      "accomplishment": 6469,
      "Simon": 6470,
      "stands": 6471,
      "hopeful": 6472,
      "tweet": 6473,
      "pered": 6474,
      "supported": 6475,
      "suffered": 6476,
      "gross": 6477,
      "seasons": 6478,
      "drivers": 6479,
      "vanilla": 6480,
      "Barky": 6481,
      "forgiving": 6482,
      "slowed": 6483,
      "Titi": 6484,
      "plans": 6485,
      "Michael": 6486,
      "Holly": 6487,
      "mance": 6488,
      "suitcase": 6489,
      "artist": 6490,
      "performance": 6491,
      "fle": 6492,
      "raindrops": 6493,
      "flavors": 6494,
      "turtles": 6495,
      "labels": 6496,
      "racco": 6497,
      "coloured": 6498,
      "ware": 6499,
      "delivery": 6500,
      "Bones": 6501,
      "Nobody": 6502,
      "pops": 6503,
      "ility": 6504,
      "pours": 6505,
      "willing": 6506,
      "Patch": 6507,
      "guy": 6508,
      "Janie": 6509,
      "Kit": 6510,
      "hadow": 6511,
      "Guess": 6512,
      "drawn": 6513,
      "Hor": 6514,
      "geese": 6515,
      "corners": 6516,
      "Mad": 6517,
      "Turt": 6518,
      "recipe": 6519,
      "hallway": 6520,
      "charac": 6521,
      "wept": 6522,
      "surfboard": 6523,
      "widened": 6524,
      "Zee": 6525,
      "queens": 6526,
      "squeak": 6527,
      "itude": 6528,
      "watering": 6529,
      "sailboat": 6530,
      "imagining": 6531,
      "grip": 6532,
      "Mother": 6533,
      "raging": 6534,
      "robber": 6535,
      "nif": 6536,
      "seconds": 6537,
      "preparing": 6538,
      "sending": 6539,
      "minded": 6540,
      "talented": 6541,
      "grocer": 6542,
      "Cow": 6543,
      "aside": 6544,
      "softer": 6545,
      "Share": 6546,
      "tipped": 6547,
      "outfit": 6548,
      "unsure": 6549,
      "delivering": 6550,
      "sailors": 6551,
      "Baa": 6552,
      "notes": 6553,
      "treehouse": 6554,
      "knots": 6555,
      "inst": 6556,
      "horiz": 6557,
      "echo": 6558,
      "Find": 6559,
      "Poor": 6560,
      "zipping": 6561,
      "pleasure": 6562,
      "figures": 6563,
      "blinking": 6564,
      "horizon": 6565,
      "angels": 6566,
      "Momma": 6567,
      "achieved": 6568,
      "Ar": 6569,
      "rumble": 6570,
      "lle": 6571,
      "curiously": 6572,
      "visitor": 6573,
      "acle": 6574,
      "hotter": 6575,
      "pupils": 6576,
      "Ral": 6577,
      "backwards": 6578,
      "burrow": 6579,
      "Since": 6580,
      "pigeons": 6581,
      "prove": 6582,
      "bandages": 6583,
      "symbols": 6584,
      "tummies": 6585,
      "Ralph": 6586,
      "ives": 6587,
      "Fight": 6588,
      "hour": 6589,
      "Toys": 6590,
      "robots": 6591,
      "tossed": 6592,
      "Zoey": 6593,
      "raccoon": 6594,
      "rather": 6595,
      "roars": 6596,
      "atur": 6597,
      "Wake": 6598,
      "Se": 6599,
      "Excited": 6600,
      "blown": 6601,
      "merma": 6602,
      "groceries": 6603,
      "Wise": 6604,
      "iding": 6605,
      "Marie": 6606,
      "among": 6607,
      "Jackie": 6608,
      "Lenny": 6609,
      "date": 6610,
      "nu": 6611,
      "afterwards": 6612,
      "!”.": 6613,
      "Wendy": 6614,
      "Abi": 6615,
      "Wor": 6616,
      "shovels": 6617,
      "merry": 6618,
      "overcome": 6619,
      "ments": 6620,
      "sped": 6621,
      "glee": 6622,
      "firefighters": 6623,
      "Rich": 6624,
      "issue": 6625,
      "Any": 6626,
      "heading": 6627,
      "reversed": 6628,
      "Des": 6629,
      "Davey": 6630,
      "slices": 6631,
      "swallowed": 6632,
      "flipped": 6633,
      "Fighting": 6634,
      "Am": 6635,
      "Willy": 6636,
      "squeezing": 6637,
      "disturbing": 6638,
      "scored": 6639,
      "Tweetie": 6640,
      "Bro": 6641,
      "Turtle": 6642,
      "Ra": 6643,
      "waking": 6644,
      "ades": 6645,
      "couraging": 6646,
      "item": 6647,
      "center": 6648,
      "intrigued": 6649,
      "Playing": 6650,
      "Ame": 6651,
      "encouraging": 6652,
      "hawk": 6653,
      "Roo": 6654,
      "dged": 6655,
      "squishy": 6656,
      "Yog": 6657,
      "chosen": 6658,
      "slipping": 6659,
      "University": 6660,
      "iley": 6661,
      "designs": 6662,
      "Shr": 6663,
      "markers": 6664,
      "screwdriver": 6665,
      "Mix": 6666,
      "gardener": 6667,
      "Jacky": 6668,
      "secure": 6669,
      "tigers": 6670,
      "Puppy": 6671,
      "crew": 6672,
      "rivers": 6673,
      "frowns": 6674,
      "couple": 6675,
      "respond": 6676,
      "fluttered": 6677,
      "ignoring": 6678,
      "lling": 6679,
      "sharks": 6680,
      "lent": 6681,
      "tighter": 6682,
      "jars": 6683,
      "tissue": 6684,
      "sprinkled": 6685,
      "firefighter": 6686,
      "assur": 6687,
      "ships": 6688,
      "giggles": 6689,
      "creamy": 6690,
      "firmly": 6691,
      "amed": 6692,
      "shown": 6693,
      "audi": 6694,
      "thorns": 6695,
      "ais": 6696,
      "Boys": 6697,
      "lies": 6698,
      "Judy": 6699,
      "performing": 6700,
      "Chewy": 6701,
      "audience": 6702,
      "crossing": 6703,
      "daring": 6704,
      "todd": 6705,
      "drawers": 6706,
      "til": 6707,
      "Todd": 6708,
      "gracefully": 6709,
      "cloudy": 6710,
      "Kip": 6711,
      "addie": 6712,
      "stroke": 6713,
      "yielded": 6714,
      "ev": 6715,
      "pedaled": 6716,
      "ilder": 6717,
      "mixture": 6718,
      "sports": 6719,
      "haircuts": 6720,
      "Ali": 6721,
      "Maddie": 6722,
      "respected": 6723,
      "ponies": 6724,
      "Bally": 6725,
      "sim": 6726,
      "ias": 6727,
      "ory": 6728,
      "crowns": 6729,
      "Yet": 6730,
      "nervously": 6731,
      "express": 6732,
      "Jojo": 6733,
      "Soft": 6734,
      "pays": 6735,
      "Dear": 6736,
      "wrink": 6737,
      "hangers": 6738,
      "tested": 6739,
      "ddie": 6740,
      "obeyed": 6741,
      "avy": 6742,
      "Sparkle": 6743,
      "surfing": 6744,
      "Sadie": 6745,
      "Mina": 6746,
      "drif": 6747,
      "Outside": 6748,
      "beehive": 6749,
      "sails": 6750,
      "Alright": 6751,
      "shady": 6752,
      "Man": 6753,
      "wisely": 6754,
      "bathing": 6755,
      "melons": 6756,
      "enthusias": 6757,
      "enthusiasm": 6758,
      "sever": 6759,
      "stitches": 6760,
      "magician": 6761,
      "Although": 6762,
      "neighbours": 6763,
      "rays": 6764,
      "darlings": 6765,
      "flip": 6766,
      "reminds": 6767,
      "surroundings": 6768,
      "rup": 6769,
      "foc": 6770,
      "temper": 6771,
      "thoughts": 6772,
      "iona": 6773,
      "fleas": 6774,
      "spits": 6775,
      "scooters": 6776,
      "paintbrush": 6777,
      "Samant": 6778,
      "Samantha": 6779,
      "fills": 6780,
      "lever": 6781,
      "ongrat": 6782,
      "Ange": 6783,
      "teams": 6784,
      "Fiona": 6785,
      "eted": 6786,
      "lessons": 6787,
      "sill": 6788,
      "Mixy": 6789,
      "cleaner": 6790,
      "lves": 6791,
      "amount": 6792,
      "10": 6793,
      "explo": 6794,
      "panicked": 6795,
      "mermaid": 6796,
      "forgiven": 6797,
      "ann": 6798,
      "longest": 6799,
      "Start": 6800,
      "oysters": 6801,
      "beloved": 6802,
      "Everybody": 6803,
      "hoops": 6804,
      "tock": 6805,
      "asing": 6806,
      "immering": 6807,
      "Mint": 6808,
      "solving": 6809,
      "fus": 6810,
      "rushing": 6811,
      "elf": 6812,
      "tasting": 6813,
      "certain": 6814,
      "oni": 6815,
      "magazines": 6816,
      "repeating": 6817,
      "ita": 6818,
      "Herb": 6819,
      "discussed": 6820,
      "licking": 6821,
      "Eddie": 6822,
      "sweetest": 6823,
      "wadd": 6824,
      "tubes": 6825,
      "sprang": 6826,
      "nightmares": 6827,
      "spoonful": 6828,
      "kill": 6829,
      "Yoga": 6830,
      "guide": 6831,
      "sweep": 6832,
      "understands": 6833,
      "Chess": 6834,
      "manners": 6835,
      "pad": 6836,
      "bully": 6837,
      "nood": 6838,
      "breathed": 6839,
      "nur": 6840,
      "compe": 6841,
      "sheets": 6842,
      "Amelia": 6843,
      "neare": 6844,
      "Pop": 6845,
      "onna": 6846,
      "footsteps": 6847,
      "Choo": 6848,
      "deed": 6849,
      "Back": 6850,
      "tered": 6851,
      "bulbs": 6852,
      "grassy": 6853,
      "Meg": 6854,
      "wiggly": 6855,
      "testing": 6856,
      "speeding": 6857,
      "Fairy": 6858,
      "Unt": 6859,
      "spies": 6860,
      "weekend": 6861,
      "imb": 6862,
      "More": 6863,
      "lan": 6864,
      "ilda": 6865,
      "Micro": 6866,
      "polar": 6867,
      "Until": 6868,
      "?!\"": 6869,
      "joining": 6870,
      "Sof": 6871,
      "ounced": 6872,
      "focused": 6873,
      "Smo": 6874,
      "Bess": 6875,
      "braver": 6876,
      "mesmerized": 6877,
      "hesitant": 6878,
      "Ruff": 6879,
      "perate": 6880,
      "Deal": 6881,
      "awn": 6882,
      "cutter": 6883,
      "evil": 6884,
      "Raz": 6885,
      "scattering": 6886,
      "changes": 6887,
      "Despite": 6888,
      "worn": 6889,
      "greeted": 6890,
      "camel": 6891,
      "materials": 6892,
      "nuzz": 6893,
      "peacefully": 6894,
      "Mean": 6895,
      "cept": 6896,
      "spice": 6897,
      "dred": 6898,
      "Goodnight": 6899,
      "Judge": 6900,
      "Gary": 6901,
      "Shadow": 6902,
      "ashed": 6903,
      "gonna": 6904,
      "spills": 6905,
      "ongratul": 6906,
      "politely": 6907,
      "terrified": 6908,
      "bicycles": 6909,
      "healing": 6910,
      "asers": 6911,
      "Ruth": 6912,
      "miles": 6913,
      "knives": 6914,
      "Spin": 6915,
      "aeroplanes": 6916,
      "burying": 6917,
      "ppies": 6918,
      "scarecrow": 6919,
      "seals": 6920,
      "sation": 6921,
      "gazing": 6922,
      "Razor": 6923,
      "blast": 6924,
      "worrying": 6925,
      "Ice": 6926,
      "Navy": 6927,
      "amboo": 6928,
      "loses": 6929,
      "stacked": 6930,
      "Eat": 6931,
      "puzzled": 6932,
      "ows": 6933,
      "travelled": 6934,
      "donkey": 6935,
      "dump": 6936,
      "soaking": 6937,
      "baskets": 6938,
      "force": 6939,
      "antic": 6940,
      "dripping": 6941,
      "Hug": 6942,
      "locks": 6943,
      "Arr": 6944,
      "pinching": 6945,
      "tar": 6946,
      "rats": 6947,
      "temperature": 6948,
      "formed": 6949,
      "clue": 6950,
      "reassur": 6951,
      "ipes": 6952,
      "Another": 6953,
      "Mindy": 6954,
      "recor": 6955,
      "oosh": 6956,
      "believing": 6957,
      "humans": 6958,
      "Should": 6959,
      "Dina": 6960,
      "sisted": 6961,
      "punishment": 6962,
      "Climb": 6963,
      "banged": 6964,
      "swimmer": 6965,
      "Meanwhile": 6966,
      "covering": 6967,
      "Stan": 6968,
      "ipper": 6969,
      "sandy": 6970,
      "Prince": 6971,
      "toddler": 6972,
      "Sofia": 6973,
      "crashing": 6974,
      "Still": 6975,
      "een": 6976,
      "hundred": 6977,
      "orrow": 6978,
      "relaxing": 6979,
      "backpacks": 6980,
      "Eliz": 6981,
      "Eliza": 6982,
      "joins": 6983,
      "beeped": 6984,
      "dressing": 6985,
      "Use": 6986,
      "snowflakes": 6987,
      "resisted": 6988,
      "quarreled": 6989,
      "bage": 6990,
      "rows": 6991,
      "Bri": 6992,
      "correct": 6993,
      "delayed": 6994,
      "Maddy": 6995,
      "potion": 6996,
      "Ria": 6997,
      "arran": 6998,
      "encouragement": 6999,
      "toward": 7000,
      "'.\"": 7001,
      "purpose": 7002,
      "Tig": 7003,
      "py": 7004,
      "ramp": 7005,
      "twinkled": 7006,
      "cheers": 7007,
      "Jonny": 7008,
      "scraped": 7009,
      "hil": 7010,
      "benches": 7011,
      "languages": 7012,
      "permitted": 7013,
      "months": 7014,
      "Maisy": 7015,
      "wounds": 7016,
      "bamboo": 7017,
      "risks": 7018,
      "freedom": 7019,
      "Eva": 7020,
      "La": 7021,
      "rier": 7022,
      "Shelly": 7023,
      "Blinky": 7024,
      "faded": 7025,
      "poppies": 7026,
      "annoyed": 7027,
      "orders": 7028,
      "adults": 7029,
      "Loop": 7030,
      "sniffing": 7031,
      "noodles": 7032,
      "abby": 7033,
      "nodding": 7034,
      "shmall": 7035,
      "Flick": 7036,
      "Tri": 7037,
      "handsome": 7038,
      "tearing": 7039,
      "cells": 7040,
      "Pick": 7041,
      "flown": 7042,
      "floats": 7043,
      "burnt": 7044,
      "opinions": 7045,
      "pand": 7046,
      "cca": 7047,
      "ease": 7048,
      "sou": 7049,
      "Tomorrow": 7050,
      "Bon": 7051,
      "pleaded": 7052,
      "damaged": 7053,
      "drifted": 7054,
      "within": 7055,
      "pea": 7056,
      "ientist": 7057,
      "slither": 7058,
      "Ring": 7059,
      "Megan": 7060,
      "height": 7061,
      "sneezes": 7062,
      "bothering": 7063,
      "Gerry": 7064,
      "Muff": 7065,
      "blu": 7066,
      "instruments": 7067,
      "hiss": 7068,
      "Close": 7069,
      "Ricky": 7070,
      "ition": 7071,
      "treated": 7072,
      "Dani": 7073,
      "lipstick": 7074,
      "Fishy": 7075,
      "Cari": 7076,
      "Frankie": 7077,
      "Nut": 7078,
      "wasting": 7079,
      "birdhouse": 7080,
      "pound": 7081,
      "brushing": 7082,
      "seller": 7083,
      "results": 7084,
      "scientist": 7085,
      "flight": 7086,
      "handing": 7087,
      "destroying": 7088,
      "sweaty": 7089,
      "Zippy": 7090,
      "dreamt": 7091,
      "Pret": 7092,
      "talents": 7093,
      "Play": 7094,
      "behavior": 7095,
      "characters": 7096,
      "explains": 7097,
      "oops": 7098,
      "onward": 7099,
      "ousy": 7100,
      "mischie": 7101,
      "files": 7102,
      "Fly": 7103,
      "Tre": 7104,
      "bravest": 7105,
      "Whoever": 7106,
      "decisions": 7107,
      "Shrink": 7108,
      "Mousy": 7109,
      "snuck": 7110,
      "sternly": 7111,
      "switched": 7112,
      "apologised": 7113,
      "Sc": 7114,
      "tuck": 7115,
      "puck": 7116,
      "squeaked": 7117,
      "reminding": 7118,
      "engines": 7119,
      "swirl": 7120,
      "Boom": 7121,
      "bitten": 7122,
      "postman": 7123,
      "minds": 7124,
      "breathing": 7125,
      "mosquitoes": 7126,
      "builder": 7127,
      "Nurse": 7128,
      "scares": 7129,
      "peeled": 7130,
      "Tw": 7131,
      "manag": 7132,
      "Ca": 7133,
      "grandparents": 7134,
      "quie": 7135,
      "purrs": 7136,
      "Curious": 7137,
      "displayed": 7138,
      "planting": 7139,
      "Katy": 7140,
      "smashed": 7141,
      "singers": 7142,
      "scam": 7143,
      "neatly": 7144,
      "tilted": 7145,
      "shines": 7146,
      "Muffin": 7147,
      "rustling": 7148,
      "shor": 7149,
      "gap": 7150,
      "bellies": 7151,
      "Louise": 7152,
      "via": 7153,
      "yelped": 7154,
      "zooms": 7155,
      "Patty": 7156,
      "combed": 7157,
      "marshmall": 7158,
      "failed": 7159,
      "focus": 7160,
      "coloring": 7161,
      "cracks": 7162,
      "business": 7163,
      "charge": 7164,
      "nasty": 7165,
      "squaw": 7166,
      "Rita": 7167,
      "Sweet": 7168,
      "despite": 7169,
      "Speed": 7170,
      "spapers": 7171,
      "edges": 7172,
      "Nancy": 7173,
      "Min": 7174,
      "wider": 7175,
      "pandas": 7176,
      "plug": 7177,
      "spy": 7178,
      "Kelly": 7179,
      "doorway": 7180,
      "sweaters": 7181,
      "nib": 7182,
      "action": 7183,
      "robbers": 7184,
      "conne": 7185,
      "tage": 7186,
      "echoed": 7187,
      "tops": 7188,
      "curl": 7189,
      "gobbled": 7190,
      "taped": 7191,
      "cafe": 7192,
      "backs": 7193,
      "connected": 7194,
      "flaps": 7195,
      "bably": 7196,
      "Er": 7197,
      "goo": 7198,
      "gras": 7199,
      "scolds": 7200,
      "student": 7201,
      "Jax": 7202,
      "Tell": 7203,
      "cond": 7204,
      "plucked": 7205,
      "probably": 7206,
      "magnif": 7207,
      "Con": 7208,
      "encounter": 7209,
      "rior": 7210,
      "newspapers": 7211,
      "warrior": 7212,
      "shinier": 7213,
      "crawls": 7214,
      "Bubba": 7215,
      "Wooly": 7216,
      "several": 7217,
      "Elle": 7218,
      "assm": 7219,
      "stetho": 7220,
      "whistles": 7221,
      "Sl": 7222,
      "plot": 7223,
      "Butter": 7224,
      "swap": 7225,
      "mood": 7226,
      "cares": 7227,
      "waterfall": 7228,
      "gues": 7229,
      "gesture": 7230,
      "quieter": 7231,
      "Ty": 7232,
      "Taking": 7233,
      "Kevin": 7234,
      "cottage": 7235,
      "simply": 7236,
      "aint": 7237,
      "rescuing": 7238,
      "swo": 7239,
      "swimsuit": 7240,
      "Phil": 7241,
      "bothered": 7242,
      "shorter": 7243,
      "swollen": 7244,
      "doorbell": 7245,
      "snaps": 7246,
      "astronauts": 7247,
      "accidents": 7248,
      "grandson": 7249,
      "trusting": 7250,
      "lor": 7251,
      "phones": 7252,
      "belle": 7253,
      "unpacking": 7254,
      "Right": 7255,
      "prayers": 7256,
      "ssss": 7257,
      "dresser": 7258,
      "stalk": 7259,
      "Elsa": 7260,
      "causing": 7261,
      "ibi": 7262,
      "stethoscope": 7263,
      "elbow": 7264,
      "runner": 7265,
      "joyful": 7266,
      "pills": 7267,
      "throughout": 7268,
      "Sal": 7269,
      "munch": 7270,
      "flips": 7271,
      "Sa": 7272,
      "leapt": 7273,
      "Sir": 7274,
      "beaver": 7275,
      "Zipper": 7276,
      "Vi": 7277,
      "Arrr": 7278,
      "Sis": 7279,
      "lowered": 7280,
      "Daniel": 7281,
      "goats": 7282,
      "Bumpy": 7283,
      "inches": 7284,
      "Flop": 7285,
      "Ot": 7286,
      "Startled": 7287,
      "waddled": 7288,
      "stepping": 7289,
      "explorer": 7290,
      "teachers": 7291,
      "Vivi": 7292,
      "dears": 7293,
      "envelopes": 7294,
      "knocking": 7295,
      "Grow": 7296,
      "anticip": 7297,
      "Becky": 7298,
      "rowed": 7299,
      "gasp": 7300,
      "cowboy": 7301,
      "efforts": 7302,
      "whim": 7303,
      "uniforms": 7304,
      "Ly": 7305,
      "Biggy": 7306,
      "Bibi": 7307,
      "aware": 7308,
      "grandchild": 7309,
      "ruff": 7310,
      "Jolly": 7311,
      "floors": 7312,
      "footprints": 7313,
      "except": 7314,
      "wenty": 7315,
      "glitt": 7316,
      "Joan": 7317,
      "appreciation": 7318,
      "nearly": 7319,
      "llas": 7320,
      "collap": 7321,
      "sets": 7322,
      "trot": 7323,
      "Pretty": 7324,
      "prick": 7325,
      "Seeing": 7326,
      "necks": 7327,
      "burns": 7328,
      "stamped": 7329,
      "Yawn": 7330,
      "Thunder": 7331,
      "checks": 7332,
      "fluttering": 7333,
      "posit": 7334,
      "statues": 7335,
      "Cro": 7336,
      "whoosh": 7337,
      "umbrellas": 7338,
      "engers": 7339,
      "Softy": 7340,
      "shrank": 7341,
      "sandcastles": 7342,
      ".'\"": 7343,
      "Truck": 7344,
      "finishing": 7345,
      "Care": 7346,
      "Jason": 7347,
      "Chick": 7348,
      "tran": 7349,
      "squir": 7350,
      "dodged": 7351,
      "bounces": 7352,
      "hunters": 7353,
      "weeds": 7354,
      "issa": 7355,
      "adds": 7356,
      "germs": 7357,
      "chocolates": 7358,
      "shall": 7359,
      "Gray": 7360,
      "aisle": 7361,
      "plugged": 7362,
      "aprons": 7363,
      "matey": 7364,
      "iscu": 7365,
      "passengers": 7366,
      "Missile": 7367,
      "demanding": 7368,
      "scratching": 7369,
      "sented": 7370,
      "minding": 7371,
      "Sup": 7372,
      "ashes": 7373,
      "becomes": 7374,
      "presented": 7375,
      "novels": 7376,
      "laptop": 7377,
      "address": 7378,
      "driveway": 7379,
      "meows": 7380,
      "Sw": 7381,
      "refresh": 7382,
      "Roger": 7383,
      "discussing": 7384,
      "nurses": 7385,
      "Mae": 7386,
      "killed": 7387,
      "cas": 7388,
      "attack": 7389,
      "toolbox": 7390,
      "lope": 7391,
      "vented": 7392,
      "friendships": 7393,
      "Bingo": 7394,
      "Lina": 7395,
      "closing": 7396,
      "twists": 7397,
      "slapping": 7398,
      "Snake": 7399,
      "sprays": 7400,
      "scampered": 7401,
      "Hmm": 7402,
      "ghosts": 7403,
      "models": 7404,
      "belongings": 7405,
      "springing": 7406,
      "supplied": 7407,
      "Gus": 7408,
      "invites": 7409,
      "anticipation": 7410,
      "ford": 7411,
      "newfound": 7412,
      "suggestion": 7413,
      "cotton": 7414,
      "Vicky": 7415,
      "forgives": 7416,
      "mommies": 7417,
      "massages": 7418,
      "aim": 7419,
      "grandfather": 7420,
      "Hallow": 7421,
      "humming": 7422,
      "Halloween": 7423,
      "Flutter": 7424,
      "stroll": 7425,
      "expecting": 7426,
      "snuggle": 7427,
      "lappy": 7428,
      "buckled": 7429,
      "responded": 7430,
      "Piggy": 7431,
      "cheated": 7432,
      "traveling": 7433,
      "battle": 7434,
      "invitations": 7435,
      "although": 7436,
      "ien": 7437,
      "Jet": 7438,
      "Grand": 7439,
      "omb": 7440,
      "duckling": 7441,
      "Freddie": 7442,
      "refreshing": 7443,
      "carries": 7444,
      "laces": 7445,
      "Zack": 7446,
      "twenty": 7447,
      "tricycle": 7448,
      "Caro": 7449,
      "Wolf": 7450,
      "Dotty": 7451,
      "haird": 7452,
      "Charlot": 7453,
      "Elsie": 7454,
      "Tru": 7455,
      "essa": 7456,
      "final": 7457,
      "clicked": 7458,
      "convin": 7459,
      "ats": 7460,
      "Light": 7461,
      "Te": 7462,
      "foxes": 7463,
      "Charlotte": 7464,
      "Terry": 7465,
      "designing": 7466,
      "insp": 7467,
      "marshmallows": 7468,
      "William": 7469,
      "jets": 7470,
      "mugs": 7471,
      "Angel": 7472,
      "Feli": 7473,
      "Pig": 7474,
      "oudest": 7475,
      "strips": 7476,
      "usty": 7477,
      "clip": 7478,
      "Book": 7479,
      "greet": 7480,
      "picnics": 7481,
      "travels": 7482,
      "osite": 7483,
      "Cir": 7484,
      "scoops": 7485,
      "coral": 7486,
      "Quacky": 7487,
      "defe": 7488,
      "consid": 7489,
      "tests": 7490,
      "aliens": 7491,
      "opposite": 7492,
      "Twist": 7493,
      "Eric": 7494,
      "Flappy": 7495,
      "connect": 7496,
      "Amanda": 7497,
      "questioned": 7498,
      "Brrr": 7499,
      "Tweety": 7500,
      "Nutty": 7501,
      "pant": 7502,
      "fights": 7503,
      "groan": 7504,
      "encountered": 7505,
      "Bun": 7506,
      "rout": 7507,
      "rely": 7508,
      "defin": 7509,
      "bless": 7510,
      "Monkey": 7511,
      "raising": 7512,
      "afford": 7513,
      "odd": 7514,
      "custo": 7515,
      "winners": 7516,
      "realizes": 7517,
      "Satur": 7518,
      "upside": 7519,
      "freezing": 7520,
      "calmly": 7521,
      "byes": 7522,
      "cupcakes": 7523,
      "flashed": 7524,
      "inter": 7525,
      "cock": 7526,
      "conver": 7527,
      "yawning": 7528,
      "buddy": 7529,
      "serv": 7530,
      "Freeze": 7531,
      "Step": 7532,
      "packages": 7533,
      "coach": 7534,
      "messes": 7535,
      "goodbyes": 7536,
      "itely": 7537,
      "cheat": 7538,
      "',": 7539,
      "Per": 7540,
      "ening": 7541,
      "Brian": 7542,
      "sacks": 7543,
      "weapons": 7544,
      "Swim": 7545,
      "chea": 7546,
      "crystals": 7547,
      "App": 7548,
      "Match": 7549,
      "Andre": 7550,
      "enem": 7551,
      "returning": 7552,
      "admiration": 7553,
      "enemies": 7554,
      "ching": 7555,
      "parted": 7556,
      "yumm": 7557,
      "born": 7558,
      "stomp": 7559,
      "cosy": 7560,
      "yummiest": 7561,
      "unable": 7562,
      "brightest": 7563,
      "sadder": 7564,
      "craft": 7565,
      "prevented": 7566,
      "respon": 7567,
      "Life": 7568,
      "Janey": 7569,
      "response": 7570,
      "Pur": 7571,
      "Yell": 7572,
      "sess": 7573,
      "dragonfly": 7574,
      "ream": 7575,
      "ugging": 7576,
      "journeys": 7577,
      "Cook": 7578,
      "Sil": 7579,
      "Jean": 7580,
      "garbage": 7581,
      "tment": 7582,
      "diamonds": 7583,
      "Auntie": 7584,
      "Saturday": 7585,
      "pout": 7586,
      "Joke": 7587,
      "Floppy": 7588,
      "astic": 7589,
      "whispering": 7590,
      "honking": 7591,
      "spices": 7592,
      "stall": 7593,
      "whoever": 7594,
      "bride": 7595,
      "erase": 7596,
      "stretches": 7597,
      "stuffing": 7598,
      "visitors": 7599,
      "Moppy": 7600,
      "Rebe": 7601,
      "awful": 7602,
      "automobiles": 7603,
      "weighs": 7604,
      "Amber": 7605,
      "Cic": 7606,
      "customer": 7607,
      "Cici": 7608,
      "sincere": 7609,
      "opportun": 7610,
      "definitely": 7611,
      "caps": 7612,
      "traps": 7613,
      "honesty": 7614,
      "Math": 7615,
      "awoke": 7616,
      "Gra": 7617,
      "Tippy": 7618,
      "bomb": 7619,
      "Jumpy": 7620,
      "playdate": 7621,
      "examining": 7622,
      "Pine": 7623,
      "washes": 7624,
      "reassured": 7625,
      "Tammy": 7626,
      "ya": 7627,
      "erk": 7628,
      "argum": 7629,
      "grily": 7630,
      "wiser": 7631,
      "beetles": 7632,
      "travelling": 7633,
      "weal": 7634,
      "grum": 7635,
      "poses": 7636,
      "tumbled": 7637,
      ",'": 7638,
      "bou": 7639,
      "loudest": 7640,
      "emma": 7641,
      "occas": 7642,
      "Hopper": 7643,
      "bouque": 7644,
      "Prom": 7645,
      "inspired": 7646,
      "scrub": 7647,
      "Sasha": 7648,
      "beanstalk": 7649,
      "offering": 7650,
      "correctly": 7651,
      "Gabby": 7652,
      "welcoming": 7653,
      "Grac": 7654,
      "congratul": 7655,
      "owns": 7656,
      "declar": 7657,
      "type": 7658,
      "Birds": 7659,
      "decoration": 7660,
      "hairdress": 7661,
      "Rebecca": 7662,
      "Jelly": 7663,
      "flowing": 7664,
      "active": 7665,
      "increasing": 7666,
      "whales": 7667,
      "Over": 7668,
      "Super": 7669,
      "Rat": 7670,
      "wrigg": 7671,
      "Olivia": 7672,
      "Gracie": 7673,
      "Jas": 7674,
      "Helping": 7675,
      "Rufus": 7676,
      "recorder": 7677,
      "Cloud": 7678,
      "Im": 7679,
      "cleared": 7680,
      "Ashley": 7681,
      "nuzzled": 7682,
      "athan": 7683,
      "campfire": 7684,
      "declared": 7685,
      "Tyler": 7686,
      "beaks": 7687,
      "thump": 7688,
      "leap": 7689,
      "custom": 7690,
      "rewards": 7691,
      "warmly": 7692,
      "cowboys": 7693,
      "Animal": 7694,
      "comforting": 7695,
      "experien": 7696,
      "ots": 7697,
      "dollar": 7698,
      "prizes": 7699,
      "surrend": 7700,
      "sirens": 7701,
      "insisting": 7702,
      "Danger": 7703,
      "customers": 7704,
      "loss": 7705,
      "towns": 7706,
      "spoiling": 7707,
      "bends": 7708,
      "Promise": 7709,
      "nch": 7710,
      "troubles": 7711,
      "fantastic": 7712,
      "shares": 7713,
      "supporting": 7714,
      "wrinkled": 7715,
      "moons": 7716,
      "brake": 7717,
      "storms": 7718,
      "trigger": 7719,
      "pipes": 7720,
      "scent": 7721,
      "shorts": 7722,
      "beaming": 7723,
      "surrendered": 7724,
      "scurry": 7725,
      "iri": 7726,
      "cleans": 7727,
      "hairdresser": 7728,
      "thanking": 7729,
      "cular": 7730,
      "chopped": 7731,
      "Isa": 7732,
      "enjoyable": 7733,
      "environ": 7734,
      "streamers": 7735,
      "arranged": 7736,
      "snowy": 7737,
      "wee": 7738,
      "ana": 7739,
      "ooking": 7740,
      "classm": 7741,
      "bruises": 7742,
      "Nora": 7743,
      "environment": 7744,
      "Flora": 7745,
      "shooed": 7746,
      "Tiger": 7747,
      "grat": 7748,
      "tin": 7749,
      "hisses": 7750,
      "exercises": 7751,
      "nibb": 7752,
      "nights": 7753,
      "visits": 7754,
      "steering": 7755,
      "dangers": 7756,
      "Wil": 7757,
      "cuddles": 7758,
      "coug": 7759,
      "convinced": 7760,
      "Cally": 7761,
      "Ky": 7762,
      "uster": 7763,
      "pilots": 7764,
      "Bert": 7765,
      "signing": 7766,
      "squished": 7767,
      "distra": 7768,
      "nearest": 7769,
      "gratitude": 7770,
      "Turn": 7771,
      "peep": 7772,
      "sunscreen": 7773,
      "ooky": 7774,
      "applauding": 7775,
      "providing": 7776,
      "earned": 7777,
      "Captain": 7778,
      "Barry": 7779,
      "anny": 7780,
      "unfortunately": 7781,
      "rails": 7782,
      "activity": 7783,
      "wealth": 7784,
      "Com": 7785,
      "choosing": 7786,
      "lody": 7787,
      "tapping": 7788,
      "Old": 7789,
      "Tessa": 7790,
      "tickles": 7791,
      "Spicy": 7792,
      "munk": 7793,
      "scram": 7794,
      "coughed": 7795,
      "Pene": 7796,
      "cope": 7797,
      "responsib": 7798,
      "hoy": 7799,
      "annoying": 7800,
      "ilities": 7801,
      "ative": 7802,
      "badger": 7803,
      "weighing": 7804,
      "brains": 7805,
      "Berry": 7806,
      "Gilly": 7807,
      "Set": 7808,
      "Boat": 7809,
      "rewarding": 7810,
      "exploded": 7811,
      "bond": 7812,
      "Helen": 7813,
      "Catch": 7814,
      "laws": 7815,
      "tempted": 7816,
      "youngest": 7817,
      "Microscope": 7818,
      "Waff": 7819,
      "Peace": 7820,
      "Gold": 7821,
      "baa": 7822,
      "soapy": 7823,
      "heartbroken": 7824,
      "appreciated": 7825,
      "emerged": 7826,
      "Penelope": 7827,
      "Fay": 7828,
      "Ahoy": 7829,
      "bathed": 7830,
      "ared": 7831,
      "caw": 7832,
      "clerk": 7833,
      "crocodiles": 7834,
      "ribbit": 7835,
      "Fre": 7836,
      "fet": 7837,
      "range": 7838,
      "messed": 7839,
      "hooks": 7840,
      "threads": 7841,
      "congratulated": 7842,
      "attempt": 7843,
      "guarding": 7844,
      "Candy": 7845,
      "Fortun": 7846,
      "Got": 7847,
      "hover": 7848,
      "example": 7849,
      "apolo": 7850,
      "blank": 7851,
      "common": 7852,
      "beast": 7853,
      "Pegg": 7854,
      "erosity": 7855,
      "Yellow": 7856,
      "Fortunately": 7857,
      "Riri": 7858,
      "dee": 7859,
      "manager": 7860,
      "experienced": 7861,
      "Felix": 7862,
      "Li": 7863,
      "chipmunk": 7864,
      "boards": 7865,
      "Buster": 7866,
      "erasers": 7867,
      "etah": 7868,
      "digs": 7869,
      "tips": 7870,
      "nibbled": 7871,
      "ketch": 7872,
      "bats": 7873,
      "chews": 7874,
      "cheetah": 7875,
      "finishes": 7876,
      "particularly": 7877,
      "forgiveness": 7878,
      "faith": 7879,
      "observing": 7880,
      "mischievous": 7881,
      "bouquet": 7882,
      "Sand": 7883,
      "kinder": 7884,
      "Squeak": 7885,
      "trotted": 7886,
      "cheaper": 7887,
      "Andrew": 7888,
      "Oxygen": 7889,
      "generosity": 7890,
      "Rub": 7891,
      "Three": 7892,
      "target": 7893,
      "Won": 7894,
      "mered": 7895,
      "rips": 7896,
      "Monster": 7897,
      "Peggy": 7898,
      "Gill": 7899,
      "Har": 7900,
      "Pin": 7901,
      "stores": 7902,
      "fishes": 7903,
      "meowing": 7904,
      "argument": 7905,
      "Mila": 7906,
      "dial": 7907,
      "shopper": 7908,
      "Excitedly": 7909,
      "Circle": 7910,
      "Peep": 7911,
      "instantly": 7912,
      "Zog": 7913,
      "Bobbie": 7914,
      "foam": 7915,
      "cages": 7916,
      "gasps": 7917,
      "passes": 7918,
      "limp": 7919,
      "teles": 7920,
      "whir": 7921,
      "mattered": 7922,
      "sleeps": 7923,
      "abra": 7924,
      "masterpiece": 7925,
      "Lung": 7926,
      "Puffy": 7927,
      "Sing": 7928,
      "mats": 7929,
      "breaths": 7930,
      "Matilda": 7931,
      "farmers": 7932,
      "smartest": 7933,
      "accomplished": 7934,
      "idey": 7935,
      "rumbling": 7936,
      "syrup": 7937,
      "Otto": 7938,
      "telescope": 7939,
      "meaning": 7940,
      "styles": 7941,
      "scrambled": 7942,
      "angrily": 7943,
      "forests": 7944,
      "affect": 7945,
      "fif": 7946,
      "moat": 7947,
      "discoveries": 7948,
      "snapping": 7949,
      "vests": 7950,
      "medals": 7951,
      "experiences": 7952,
      "collapsed": 7953,
      "intent": 7954,
      "skirts": 7955,
      "behaviour": 7956,
      "whined": 7957,
      "gardens": 7958,
      "otters": 7959,
      "vegg": 7960,
      "conqu": 7961,
      "imagin": 7962,
      "acles": 7963,
      "trans": 7964,
      "hardest": 7965,
      "Brad": 7966,
      "types": 7967,
      "Doll": 7968,
      "Rainbow": 7969,
      "lers": 7970,
      "chilly": 7971,
      "movements": 7972,
      "bubbly": 7973,
      "webs": 7974,
      "faint": 7975,
      "adabra": 7976,
      "expression": 7977,
      "grasshopper": 7978,
      "Mus": 7979,
      "Race": 7980,
      "patches": 7981,
      "scores": 7982,
      "idy": 7983,
      "pokes": 7984,
      "extraordinary": 7985,
      "Melissa": 7986,
      "horri": 7987,
      "attitude": 7988,
      "Cars": 7989,
      "unfair": 7990,
      "momma": 7991,
      "toothbrush": 7992,
      "March": 7993,
      "ketchup": 7994,
      "Mam": 7995,
      "Vio": 7996,
      "Rosa": 7997,
      "prickly": 7998,
      "Annabelle": 7999,
      "Feel": 8000,
      "bbling": 8001,
      "erts": 8002,
      "Bonnie": 8003,
      "chin": 8004,
      "sooner": 8005,
      "Bar": 8006,
      "afar": 8007,
      "pleas": 8008,
      "spears": 8009,
      "sprout": 8010,
      "Spidey": 8011,
      "Silver": 8012,
      "classmates": 8013,
      "slithered": 8014,
      "iscuit": 8015,
      "consider": 8016,
      "shrunk": 8017,
      "mony": 8018,
      "squeezes": 8019,
      "Ed": 8020,
      "Fun": 8021,
      "dock": 8022,
      "chill": 8023,
      "marking": 8024,
      "glittering": 8025,
      "Mixie": 8026,
      "Ac": 8027,
      "thicker": 8028,
      "luckily": 8029,
      "announced": 8030,
      "iff": 8031,
      "court": 8032,
      "expert": 8033,
      "squin": 8034,
      "elect": 8035,
      "kneeling": 8036,
      "acts": 8037,
      "concer": 8038,
      "Mole": 8039,
      "deserved": 8040,
      "Riley": 8041,
      "thieves": 8042,
      "costs": 8043,
      "shh": 8044,
      "wolves": 8045,
      "jumper": 8046,
      "Tess": 8047,
      "bluebird": 8048,
      "idence": 8049,
      "raking": 8050,
      "trading": 8051,
      "Chip": 8052,
      "vast": 8053,
      "thumbs": 8054,
      "ability": 8055,
      "squeaky": 8056,
      "aret": 8057,
      "cocoon": 8058,
      "zigzags": 8059,
      "aven": 8060,
      "avi": 8061,
      "lunchtime": 8062,
      "tidied": 8063,
      "Paula": 8064,
      "cloths": 8065,
      "Wonder": 8066,
      "Pru": 8067,
      "Park": 8068,
      "seeking": 8069,
      "cheating": 8070,
      "ounce": 8071,
      "hatch": 8072,
      "knit": 8073,
      "spilling": 8074,
      "desserts": 8075,
      "dia": 8076,
      "rin": 8077,
      "Inky": 8078,
      "culp": 8079,
      "visible": 8080,
      "explaining": 8081,
      "Smoke": 8082,
      "Jose": 8083,
      "Waffle": 8084,
      "beating": 8085,
      "snar": 8086,
      "messages": 8087,
      "admit": 8088,
      "Books": 8089,
      "windowsill": 8090,
      "Abra": 8091,
      "zips": 8092,
      "peacock": 8093,
      "hissing": 8094,
      "Carla": 8095,
      "Slinky": 8096,
      "Apr": 8097,
      "actor": 8098,
      "Woolly": 8099,
      "winding": 8100,
      "Tooth": 8101,
      "pressing": 8102,
      "leans": 8103,
      "watermelon": 8104,
      "Steven": 8105,
      "compete": 8106,
      "teen": 8107,
      "April": 8108,
      "discouraged": 8109,
      "flashing": 8110,
      "shallow": 8111,
      "woodcutter": 8112,
      "teapot": 8113,
      "disagreeing": 8114,
      "Ce": 8115,
      "cops": 8116,
      "positive": 8117,
      "Tip": 8118,
      "Val": 8119,
      "glimmering": 8120,
      "dripped": 8121,
      "storing": 8122,
      "Ze": 8123,
      "papa": 8124,
      "trusts": 8125,
      "burger": 8126,
      "tidying": 8127,
      "kangaroos": 8128,
      "Faye": 8129,
      "landing": 8130,
      "Ratty": 8131,
      "fade": 8132,
      "drift": 8133,
      "veggies": 8134,
      "ides": 8135,
      "Sit": 8136,
      "keepers": 8137,
      "Drink": 8138,
      "sleds": 8139,
      "apology": 8140,
      "Ravi": 8141,
      "miller": 8142,
      "heels": 8143,
      "worst": 8144,
      "Beef": 8145,
      "situations": 8146,
      "Pink": 8147,
      "scurrying": 8148,
      "Bru": 8149,
      "Glow": 8150,
      "suns": 8151,
      "comets": 8152,
      "whel": 8153,
      "slee": 8154,
      "officers": 8155,
      "conversation": 8156,
      "ying": 8157,
      "”,": 8158,
      "foggy": 8159,
      "Liza": 8160,
      "foreshadow": 8161,
      "snorted": 8162,
      "differences": 8163,
      "overwhel": 8164,
      "granddaughter": 8165,
      "Quickly": 8166,
      "Drag": 8167,
      "Lemon": 8168,
      "cracker": 8169,
      "structures": 8170,
      "quacking": 8171,
      "pos": 8172,
      "gulp": 8173,
      "cubs": 8174,
      "heaven": 8175,
      "pizzas": 8176,
      "Violet": 8177,
      "possess": 8178,
      "hoot": 8179,
      "approach": 8180,
      "seagulls": 8181,
      "Immediately": 8182,
      "Pot": 8183,
      "bino": 8184,
      "Mona": 8185,
      "opportunity": 8186,
      "Animals": 8187,
      "Liam": 8188,
      "sculp": 8189,
      "drip": 8190,
      "rhino": 8191,
      "Ever": 8192,
      "Orange": 8193,
      "Tu": 8194,
      "rent": 8195,
      "robin": 8196,
      "Flopsy": 8197,
      "Par": 8198,
      "Past": 8199,
      "Wha": 8200,
      "Whose": 8201,
      "Pl": 8202,
      "cooperate": 8203,
      "levers": 8204,
      "amused": 8205,
      "acing": 8206,
      "?”.": 8207,
      "answering": 8208,
      "Coal": 8209,
      "repeats": 8210,
      "sneaks": 8211,
      "als": 8212,
      "acy": 8213,
      "White": 8214,
      "Move": 8215,
      "dodge": 8216,
      "lowers": 8217,
      "checking": 8218,
      "Cut": 8219,
      "surfed": 8220,
      "Jody": 8221,
      "scowl": 8222,
      "disappointment": 8223,
      "binocular": 8224,
      "speaks": 8225,
      "inj": 8226,
      "puppets": 8227,
      "unwrapped": 8228,
      "bud": 8229,
      "Robot": 8230,
      "groaned": 8231,
      "tab": 8232,
      "numbered": 8233,
      "croaked": 8234,
      "cidents": 8235,
      "sipped": 8236,
      "keyhole": 8237,
      "Bubu": 8238,
      "applause": 8239,
      "Oxy": 8240,
      "Spid": 8241,
      "checkout": 8242,
      "lump": 8243,
      "Cats": 8244,
      "striking": 8245,
      "guards": 8246,
      "risky": 8247,
      "paddling": 8248,
      "Fix": 8249,
      "swimsuits": 8250,
      "pepperoni": 8251,
      "Stand": 8252,
      "Cammy": 8253,
      "Icy": 8254,
      "local": 8255,
      "beautifully": 8256,
      "Uni": 8257,
      "attacked": 8258,
      "Again": 8259,
      "inger": 8260,
      "Heli": 8261,
      "spooky": 8262,
      "Johny": 8263,
      "risk": 8264,
      "Janet": 8265,
      "wig": 8266,
      "waters": 8267,
      "artwork": 8268,
      "inchworm": 8269,
      "facts": 8270,
      "Scissors": 8271,
      "Accidents": 8272,
      "cadabra": 8273,
      "groom": 8274,
      "iment": 8275,
      "lim": 8276,
      "caterpillars": 8277,
      "Bra": 8278,
      "exams": 8279,
      "Sug": 8280,
      "Horsie": 8281,
      "Looking": 8282,
      "shrugs": 8283,
      "sculpture": 8284,
      "Alf": 8285,
      "Imag": 8286,
      "drying": 8287,
      "shoots": 8288,
      "whimpered": 8289,
      "Oink": 8290,
      "shyly": 8291,
      "honks": 8292,
      "Mind": 8293,
      "Bea": 8294,
      "cheerfully": 8295,
      "Fru": 8296,
      "healthier": 8297,
      "Feeling": 8298,
      "Pen": 8299,
      "oken": 8300,
      "hangs": 8301,
      "sobbing": 8302,
      "Martin": 8303,
      "oring": 8304,
      "izzes": 8305,
      "magnifying": 8306,
      "squinted": 8307,
      "Through": 8308,
      "ction": 8309,
      "fascinating": 8310,
      "Sleepy": 8311,
      "facing": 8312,
      "frustration": 8313,
      "Lightning": 8314,
      "Triangle": 8315,
      "Number": 8316,
      "fries": 8317,
      "blamed": 8318,
      "Girl": 8319,
      "shimmering": 8320,
      "Things": 8321,
      "suck": 8322,
      "snip": 8323,
      "fans": 8324,
      "Raven": 8325,
      "grumbled": 8326,
      "nibble": 8327,
      "flock": 8328,
      "stew": 8329,
      "ron": 8330,
      "ellie": 8331,
      "snort": 8332,
      "stacks": 8333,
      "Du": 8334,
      "raked": 8335,
      "Black": 8336,
      "Squee": 8337,
      "swaying": 8338,
      "smoo": 8339,
      "tale": 8340,
      "sprinkle": 8341,
      "Mamma": 8342,
      "Sugar": 8343,
      "Could": 8344,
      "Lots": 8345,
      "knobs": 8346,
      "Dogs": 8347,
      "Shark": 8348,
      "Ber": 8349,
      "Gl": 8350,
      "sme": 8351,
      "details": 8352,
      "Johnson": 8353,
      "Belle": 8354,
      "striches": 8355,
      "carts": 8356,
      "petting": 8357,
      "moonlight": 8358,
      "hunting": 8359,
      "enemy": 8360,
      "goodies": 8361,
      "angrier": 8362,
      "marve": 8363,
      "wildflowers": 8364,
      "mysteries": 8365,
      "tablet": 8366,
      "Flap": 8367,
      "hew": 8368,
      "outfits": 8369,
      "popping": 8370,
      "bushy": 8371,
      "crops": 8372,
      "textures": 8373,
      "ki": 8374,
      "niece": 8375,
      "unfamiliar": 8376,
      "drowned": 8377,
      "scen": 8378,
      "scrun": 8379,
      "countries": 8380,
      "Hur": 8381,
      "bowing": 8382,
      "othy": 8383,
      "binoculars": 8384,
      "quizzes": 8385,
      "owls": 8386,
      "glared": 8387,
      "weaker": 8388,
      "hesitation": 8389,
      "crowded": 8390,
      "Crabby": 8391,
      "peeped": 8392,
      "endings": 8393,
      "mindful": 8394,
      "writer": 8395,
      "Bless": 8396,
      "tone": 8397,
      "necess": 8398,
      "ths": 8399,
      "maps": 8400,
      "Trucky": 8401,
      "rick": 8402,
      "boil": 8403,
      "flashes": 8404,
      "wrench": 8405,
      "unless": 8406,
      "Carly": 8407,
      "property": 8408,
      "OO": 8409,
      "pouch": 8410,
      "getic": 8411,
      "Leah": 8412,
      "folds": 8413,
      "pest": 8414,
      "venture": 8415,
      "interest": 8416,
      "imaginations": 8417,
      "''": 8418,
      "mers": 8419,
      "pace": 8420,
      "ently": 8421,
      "whine": 8422,
      "desks": 8423,
      "confidence": 8424,
      "responsibility": 8425,
      "Son": 8426,
      "Summer": 8427,
      "fond": 8428,
      "haven": 8429,
      "aston": 8430,
      "rocky": 8431,
      "Jennie": 8432,
      "noticing": 8433,
      "dirtier": 8434,
      "Cheese": 8435,
      "Dragon": 8436,
      "Nate": 8437,
      "natur": 8438,
      "ala": 8439,
      "compan": 8440,
      "Reliable": 8441,
      "speaker": 8442,
      "Abracadabra": 8443,
      "shat": 8444,
      "enger": 8445,
      "softened": 8446,
      "microwave": 8447,
      "disappearing": 8448,
      "ibly": 8449,
      "ppings": 8450,
      "funn": 8451,
      "swapped": 8452,
      "quacks": 8453,
      "Winter": 8454,
      "Imagine": 8455,
      "ering": 8456,
      "venir": 8457,
      "doorstep": 8458,
      "listener": 8459,
      "mayor": 8460,
      "palms": 8461,
      "blushed": 8462,
      "souvenir": 8463,
      "Cher": 8464,
      "stirs": 8465,
      "jing": 8466,
      "mun": 8467,
      "priv": 8468,
      "Hank": 8469,
      "woo": 8470,
      "disaster": 8471,
      "scree": 8472,
      "spaces": 8473,
      "burgers": 8474,
      "Law": 8475,
      "mailing": 8476,
      "timid": 8477,
      "injured": 8478,
      "mie": 8479,
      "render": 8480,
      "Joanna": 8481,
      "Surrender": 8482,
      "untangle": 8483,
      "Toy": 8484,
      "Flicker": 8485,
      "overwhelmed": 8486,
      "Dis": 8487,
      "Fa": 8488,
      "Mail": 8489,
      "tugging": 8490,
      "erup": 8491,
      "fixer": 8492,
      "concent": 8493,
      "desper": 8494,
      "faction": 8495,
      "Sandra": 8496,
      "satisfaction": 8497,
      "Coby": 8498,
      "Oscar": 8499,
      "otions": 8500,
      "prank": 8501,
      "flick": 8502,
      "habit": 8503,
      "Ken": 8504,
      "bound": 8505,
      "sal": 8506,
      "cases": 8507,
      "Sunshine": 8508,
      "Mop": 8509,
      "clut": 8510,
      "iky": 8511,
      "hooves": 8512,
      "Greeny": 8513,
      "instrument": 8514,
      "Settle": 8515,
      "anced": 8516,
      "Wr": 8517,
      "pecks": 8518,
      "flav": 8519,
      "Kyle": 8520,
      "icking": 8521,
      "creak": 8522,
      "warmed": 8523,
      "stains": 8524,
      "certainly": 8525,
      "Jasmine": 8526,
      "Whale": 8527,
      "lyn": 8528,
      "exploration": 8529,
      "lish": 8530,
      "adually": 8531,
      "rods": 8532,
      "capt": 8533,
      "skies": 8534,
      "fooled": 8535,
      "bumping": 8536,
      "wriggled": 8537,
      "Belie": 8538,
      "Ms": 8539,
      "Ooh": 8540,
      "bending": 8541,
      "rinse": 8542,
      "shave": 8543,
      "swir": 8544,
      "sandpit": 8545,
      "Stanley": 8546,
      "aling": 8547,
      "tunes": 8548,
      "clips": 8549,
      "chatted": 8550,
      "Au": 8551,
      "Ka": 8552,
      "endant": 8553,
      "dete": 8554,
      "glows": 8555,
      "motorcycles": 8556,
      "concerned": 8557,
      "Oc": 8558,
      "salon": 8559,
      "attaching": 8560,
      "prod": 8561,
      "Was": 8562,
      "toise": 8563,
      "oray": 8564,
      "clearly": 8565,
      "fetched": 8566,
      "necessary": 8567,
      "Puff": 8568,
      "halves": 8569,
      "lava": 8570,
      "blon": 8571,
      "arrie": 8572,
      "kissing": 8573,
      "Push": 8574,
      "Working": 8575,
      "differently": 8576,
      "cupcake": 8577,
      "sensation": 8578,
      "reversing": 8579,
      "Purple": 8580,
      "smelt": 8581,
      "blonde": 8582,
      "surv": 8583,
      "riverbank": 8584,
      "challenges": 8585,
      "natural": 8586,
      "Avery": 8587,
      "snug": 8588,
      "Winky": 8589,
      "sometime": 8590,
      "oldest": 8591,
      "realise": 8592,
      "fist": 8593,
      "stings": 8594,
      "fireflies": 8595,
      "unlocking": 8596,
      "Ug": 8597,
      "troll": 8598,
      "hates": 8599,
      "welve": 8600,
      "Starry": 8601,
      "hippos": 8602,
      "swirls": 8603,
      "conquered": 8604,
      "Four": 8605,
      "Ger": 8606,
      "wiggling": 8607,
      "Lucas": 8608,
      "Robin": 8609,
      "Shoo": 8610,
      "banging": 8611,
      "Ding": 8612,
      "glo": 8613,
      "bert": 8614,
      "lizards": 8615,
      "Patrick": 8616,
      "Giant": 8617,
      "ostriches": 8618,
      "disobey": 8619,
      "sends": 8620,
      "brakes": 8621,
      "Ginger": 8622,
      "sus": 8623,
      "toppings": 8624,
      "lest": 8625,
      "otherwise": 8626,
      "brant": 8627,
      "Alan": 8628,
      "swayed": 8629,
      "munched": 8630,
      "Carrie": 8631,
      "Di": 8632,
      "crushed": 8633,
      "rack": 8634,
      "cluck": 8635,
      "miracle": 8636,
      "vinegar": 8637,
      "shortcut": 8638,
      "mooed": 8639,
      "pleasant": 8640,
      "survive": 8641,
      "Tidy": 8642,
      "tents": 8643,
      "bubbling": 8644,
      "lectures": 8645,
      "vibrant": 8646,
      "Duke": 8647,
      "crunch": 8648,
      "Ernie": 8649,
      "Rusty": 8650,
      "erg": 8651,
      "stretchy": 8652,
      "Anytime": 8653,
      "Cake": 8654,
      "Grump": 8655,
      "repairing": 8656,
      "Kind": 8657,
      "fri": 8658,
      "aids": 8659,
      "Sundays": 8660,
      "Found": 8661,
      "passenger": 8662,
      "charm": 8663,
      "Josie": 8664,
      "joyfully": 8665,
      "scene": 8666,
      "arrives": 8667,
      "copied": 8668,
      "rubbish": 8669,
      "intently": 8670,
      "Iron": 8671,
      "level": 8672,
      "los": 8673,
      "pounced": 8674,
      "woken": 8675,
      "rags": 8676,
      "glided": 8677,
      "Eww": 8678,
      "cousins": 8679,
      "desperately": 8680,
      "Believe": 8681,
      "goodness": 8682,
      "maje": 8683,
      "cris": 8684,
      "coolest": 8685,
      "judges": 8686,
      "Bruce": 8687,
      "Five": 8688,
      "Stu": 8689,
      "Tears": 8690,
      "uing": 8691,
      "tortoise": 8692,
      "calmer": 8693,
      "successfully": 8694,
      "guesses": 8695,
      "Pinchy": 8696,
      "CD": 8697,
      "yuck": 8698,
      "reunited": 8699,
      "ricity": 8700,
      "capes": 8701,
      "hips": 8702,
      "dumb": 8703,
      "twelve": 8704,
      "Shake": 8705,
      "gooey": 8706,
      "astonished": 8707,
      "globe": 8708,
      "computers": 8709,
      "stacking": 8710,
      "invisible": 8711,
      "Carrot": 8712,
      "concentr": 8713,
      "inspec": 8714,
      "rider": 8715,
      "Reddy": 8716,
      "stomachs": 8717,
      "dou": 8718,
      "reappeared": 8719,
      "racer": 8720,
      "crickets": 8721,
      "companion": 8722,
      "Dilly": 8723,
      "Rever": 8724,
      "ssy": 8725,
      "disobeyed": 8726,
      "Leaf": 8727,
      "winds": 8728,
      "Jonathan": 8729,
      "Broccoli": 8730,
      "pounds": 8731,
      "Gemma": 8732,
      "Land": 8733,
      "pearls": 8734,
      "chatting": 8735,
      "!’": 8736,
      "gates": 8737,
      "nor": 8738,
      "narrow": 8739,
      "parks": 8740,
      "Socky": 8741,
      "paste": 8742,
      "gall": 8743,
      "hoses": 8744,
      "desperate": 8745,
      "sells": 8746,
      "Marley": 8747,
      "Hat": 8748,
      "invent": 8749,
      "soda": 8750,
      "luckiest": 8751,
      "popsic": 8752,
      "Apple": 8753,
      "stun": 8754,
      "communi": 8755,
      "Last": 8756,
      "Rara": 8757,
      "awhile": 8758,
      "ouched": 8759,
      "rowing": 8760,
      "loyalty": 8761,
      "caution": 8762,
      "Carol": 8763,
      "Free": 8764,
      "cated": 8765,
      "fived": 8766,
      "tongues": 8767,
      "cherish": 8768,
      "occasion": 8769,
      "Ahh": 8770,
      "Coffee": 8771,
      "surely": 8772,
      "intelligence": 8773,
      "Friendship": 8774,
      "aboard": 8775,
      "flu": 8776,
      "guardian": 8777,
      "Swimmy": 8778,
      "Pizz": 8779,
      "dging": 8780,
      "ka": 8781,
      "format": 8782,
      "learner": 8783,
      "creep": 8784,
      "Pebby": 8785,
      "croak": 8786,
      "Spinny": 8787,
      "onest": 8788,
      "guitars": 8789,
      "alligators": 8790,
      "cuc": 8791,
      "Comet": 8792,
      "solute": 8793,
      "blooms": 8794,
      "separating": 8795,
      "detective": 8796,
      "Dro": 8797,
      "inny": 8798,
      "whines": 8799,
      "bble": 8800,
      "chicks": 8801,
      "strokes": 8802,
      "Ami": 8803,
      "ridge": 8804,
      "ans": 8805,
      "underwater": 8806,
      "spiky": 8807,
      "udged": 8808,
      "Colin": 8809,
      "Breezy": 8810,
      "Pizza": 8811,
      "ites": 8812,
      "quilt": 8813,
      "crouched": 8814,
      "persistence": 8815,
      "Didi": 8816,
      "tickling": 8817,
      "centre": 8818,
      "Reverse": 8819,
      "leaking": 8820,
      "realizing": 8821,
      "Learn": 8822,
      "zookeepers": 8823,
      "revealing": 8824,
      "!'.": 8825,
      "servant": 8826,
      "Libby": 8827,
      "Hal": 8828,
      "tant": 8829,
      "taps": 8830,
      "allowing": 8831,
      "routine": 8832,
      "Potato": 8833,
      "Crusty": 8834,
      "Lay": 8835,
      "Sta": 8836,
      "Tick": 8837,
      "reck": 8838,
      "appearance": 8839,
      "Sharp": 8840,
      "Graceful": 8841,
      "oma": 8842,
      "hatched": 8843,
      "peeks": 8844,
      "Soar": 8845,
      "chopping": 8846,
      "Otherwise": 8847,
      "deeply": 8848,
      "Ten": 8849,
      "jugg": 8850,
      "urity": 8851,
      "mold": 8852,
      "throne": 8853,
      "ggles": 8854,
      "tempting": 8855,
      "Crane": 8856,
      "jack": 8857,
      "poo": 8858,
      "waded": 8859,
      "doves": 8860,
      "aloud": 8861,
      "squashes": 8862,
      "painful": 8863,
      "lighting": 8864,
      "sniffled": 8865,
      "Square": 8866,
      "electricity": 8867,
      "Spider": 8868,
      "shattered": 8869,
      "Father": 8870,
      "Oper": 8871,
      "Hurricane": 8872,
      "Eating": 8873,
      "exchange": 8874,
      "bolt": 8875,
      "blame": 8876,
      "cooks": 8877,
      "security": 8878,
      "sweeter": 8879,
      "glittered": 8880,
      "Crocodile": 8881,
      "squirted": 8882,
      "formation": 8883,
      "sweetly": 8884,
      "Allie": 8885,
      "larger": 8886,
      "melts": 8887,
      "furious": 8888,
      "buckles": 8889,
      "energetic": 8890,
      "defeated": 8891,
      "Gret": 8892,
      "Oak": 8893,
      "thew": 8894,
      "ands": 8895,
      "container": 8896,
      "complet": 8897,
      "Joseph": 8898,
      "tantrum": 8899,
      "Sy": 8900,
      "undone": 8901,
      "goggles": 8902,
      "Horsy": 8903,
      "competing": 8904,
      "Patient": 8905,
      "Panda": 8906,
      "rebuild": 8907,
      "melody": 8908,
      "ico": 8909,
      "Bees": 8910,
      "helicopters": 8911,
      "Mister": 8912,
      "chooses": 8913,
      "builders": 8914,
      "rinsed": 8915,
      "Jennif": 8916,
      "protection": 8917,
      "tossing": 8918,
      "Jennifer": 8919,
      "Brain": 8920,
      "Kar": 8921,
      "Randy": 8922,
      "bold": 8923,
      "runo": 8924,
      "cooed": 8925,
      "seriously": 8926,
      "tours": 8927,
      "Bruno": 8928,
      "Gir": 8929,
      "ani": 8930,
      "anie": 8931,
      "Gor": 8932,
      "solutely": 8933,
      "Pass": 8934,
      "hudd": 8935,
      "spar": 8936,
      "muster": 8937,
      "Roxy": 8938,
      "hummed": 8939,
      "attempts": 8940,
      "Music": 8941,
      "remy": 8942,
      "Jeremy": 8943,
      "deserves": 8944,
      "racers": 8945,
      "dedi": 8946,
      "whiskers": 8947,
      "wrapper": 8948,
      "courageous": 8949,
      "Hops": 8950,
      "Kenny": 8951,
      "dra": 8952,
      "Soap": 8953,
      "strated": 8954,
      "lull": 8955,
      "booth": 8956,
      "blades": 8957,
      "plat": 8958,
      "Giraffe": 8959,
      "nicest": 8960,
      "marvel": 8961,
      "patients": 8962,
      "meets": 8963,
      "ippers": 8964,
      "Hooray": 8965,
      "Clare": 8966,
      "strolled": 8967,
      "obst": 8968,
      "cruel": 8969,
      "improving": 8970,
      "Stealing": 8971,
      "Brother": 8972,
      "Thankfully": 8973,
      "meadows": 8974,
      "winks": 8975,
      "peels": 8976,
      "imaginary": 8977,
      "Drop": 8978,
      "Ned": 8979,
      "Boy": 8980,
      "\"!": 8981,
      "Doug": 8982,
      "OP": 8983,
      "Soup": 8984,
      "ping": 8985,
      "army": 8986,
      "lamps": 8987,
      "pairs": 8988,
      "munching": 8989,
      "Nelly": 8990,
      "circl": 8991,
      "tanks": 8992,
      "pedaling": 8993,
      "!'\"": 8994,
      "transformed": 8995,
      "Mild": 8996,
      "lob": 8997,
      "section": 8998,
      "condition": 8999,
      "Down": 9000,
      "treas": 9001,
      "fail": 9002,
      "spare": 9003,
      "messier": 9004,
      "incredibly": 9005,
      "Matthew": 9006,
      "nearer": 9007,
      "Clay": 9008,
      "Rad": 9009,
      "fuss": 9010,
      "compar": 9011,
      "izing": 9012,
      "dives": 9013,
      "holidays": 9014,
      "New": 9015,
      "ssssssss": 9016,
      "horrible": 9017,
      "Bi": 9018,
      "inju": 9019,
      "Ind": 9020,
      "School": 9021,
      "poop": 9022,
      "stur": 9023,
      "asy": 9024,
      "peak": 9025,
      "drill": 9026,
      "puffed": 9027,
      "Cookies": 9028,
      "Hook": 9029,
      "boiling": 9030,
      "thir": 9031,
      "overhead": 9032,
      "softest": 9033,
      "dryer": 9034,
      "Reading": 9035,
      "panicking": 9036,
      "Stri": 9037,
      "illas": 9038,
      "poles": 9039,
      "mustn": 9040,
      "glanced": 9041,
      "Cocoa": 9042,
      "dips": 9043,
      "current": 9044,
      "possib": 9045,
      "heights": 9046,
      "marveled": 9047,
      "mustered": 9048,
      "Ther": 9049,
      "allerg": 9050,
      "chains": 9051,
      "confus": 9052,
      "cooled": 9053,
      "elders": 9054,
      "Club": 9055,
      "treasured": 9056,
      "confusion": 9057,
      "Long": 9058,
      "uncovered": 9059,
      "closure": 9060,
      "offers": 9061,
      "rotted": 9062,
      "Skeleton": 9063,
      "parable": 9064,
      "lush": 9065,
      "coughing": 9066,
      "Fizzy": 9067,
      "Nature": 9068,
      "Ta": 9069,
      "sinking": 9070,
      "ower": 9071,
      "roller": 9072,
      "sleigh": 9073,
      "Gw": 9074,
      "enclosure": 9075,
      "ankle": 9076,
      "gress": 9077,
      "dashed": 9078,
      "liness": 9079,
      "inseparable": 9080,
      "cupboards": 9081,
      "Alarm": 9082,
      "lantern": 9083,
      "bobb": 9084,
      "smash": 9085,
      "shaky": 9086,
      "gratefully": 9087,
      "'?\"": 9088,
      "Teach": 9089,
      "Wal": 9090,
      "oatmeal": 9091,
      "Dream": 9092,
      "stantly": 9093,
      "ooh": 9094,
      "hairs": 9095,
      "heavily": 9096,
      "coop": 9097,
      "combs": 9098,
      "gallop": 9099,
      "Chil": 9100,
      "scenery": 9101,
      "Cell": 9102,
      "riddle": 9103,
      "mushy": 9104,
      "conv": 9105,
      "Peek": 9106,
      "clubs": 9107,
      "Rel": 9108,
      "aa": 9109,
      "biscuit": 9110,
      "rises": 9111,
      "vas": 9112,
      "ordering": 9113,
      "glittery": 9114,
      "Fore": 9115,
      "practised": 9116,
      "suggests": 9117,
      "completing": 9118,
      "HE": 9119,
      "Van": 9120,
      "nations": 9121,
      "sax": 9122,
      "idi": 9123,
      "Repe": 9124,
      "praise": 9125,
      "hundreds": 9126,
      "allergic": 9127,
      "convince": 9128,
      "Wind": 9129,
      "zippers": 9130,
      "pail": 9131,
      "juic": 9132,
      "character": 9133,
      "Minnie": 9134,
      "Prune": 9135,
      "Cherry": 9136,
      "Jodie": 9137,
      "floppy": 9138,
      "Fluff": 9139,
      "Nicky": 9140,
      "atest": 9141,
      "raincoats": 9142,
      "lullaby": 9143,
      "unity": 9144,
      "canvas": 9145,
      "recommendation": 9146,
      "Respec": 9147,
      "borrowing": 9148,
      "Juice": 9149,
      "Nap": 9150,
      "Pear": 9151,
      "Rick": 9152,
      "rash": 9153,
      "seated": 9154,
      "owning": 9155,
      "musicians": 9156,
      "disagreement": 9157,
      "Trees": 9158,
      "vastated": 9159,
      "Children": 9160,
      "Using": 9161,
      "soothing": 9162,
      "JoJo": 9163,
      "enjoys": 9164,
      "Bebe": 9165,
      "scal": 9166,
      "agreeing": 9167,
      "hovering": 9168,
      "Ugly": 9169,
      "slot": 9170,
      "devastated": 9171,
      "airplanes": 9172,
      "charged": 9173,
      "skips": 9174,
      "huddled": 9175,
      "Respect": 9176,
      "Gas": 9177,
      "Lady": 9178,
      "sly": 9179,
      "uctor": 9180,
      "Inch": 9181,
      "cooper": 9182,
      "reckless": 9183,
      "Repeat": 9184,
      "Aw": 9185,
      "ages": 9186,
      "interrup": 9187,
      "Kai": 9188,
      "otch": 9189,
      "compromise": 9190,
      "values": 9191,
      "Mais": 9192,
      "Off": 9193,
      "lun": 9194,
      "absolutely": 9195,
      "ighty": 9196,
      "chili": 9197,
      "chalks": 9198,
      "Cho": 9199,
      "Nibb": 9200,
      "Worm": 9201,
      "mest": 9202,
      "headache": 9203,
      "considerate": 9204,
      "royal": 9205,
      "folders": 9206,
      "Mumma": 9207,
      "distracted": 9208,
      "platform": 9209,
      "Gwen": 9210,
      "Greg": 9211,
      "showers": 9212,
      "Noah": 9213,
      "Choose": 9214,
      "cords": 9215,
      "temptation": 9216,
      "Cal": 9217,
      "piled": 9218,
      "wax": 9219,
      "anten": 9220,
      "clam": 9221,
      "struction": 9222,
      "conductor": 9223,
      "Joanne": 9224,
      "Pir": 9225,
      "immered": 9226,
      "plo": 9227,
      "Magnet": 9228,
      "townspeople": 9229,
      "actors": 9230,
      "Value": 9231,
      "Maisie": 9232,
      "Rory": 9233,
      "Shall": 9234,
      "lasers": 9235,
      "rie": 9236,
      "smoking": 9237,
      "shields": 9238,
      "Dinner": 9239,
      "alie": 9240,
      "recess": 9241,
      "aroma": 9242,
      "wanna": 9243,
      "mustaches": 9244,
      "scotch": 9245,
      "horror": 9246,
      "fences": 9247,
      "gorillas": 9248,
      "disappears": 9249,
      "pantry": 9250,
      "communicate": 9251,
      "sturdy": 9252,
      "Tay": 9253,
      "wil": 9254,
      "Cha": 9255,
      "Fran": 9256,
      "Tuck": 9257,
      "Vic": 9258,
      "War": 9259,
      "blade": 9260,
      "silk": 9261,
      "spades": 9262,
      "beeping": 9263,
      "Nibbles": 9264,
      "Timothy": 9265,
      "hamster": 9266,
      "loads": 9267,
      "soul": 9268,
      "Carefully": 9269,
      "Spoon": 9270,
      "pads": 9271,
      "buys": 9272,
      "lifeguard": 9273,
      "silently": 9274,
      "Hide": 9275,
      "unwrap": 9276,
      "def": 9277,
      "earrings": 9278,
      "science": 9279,
      "Feather": 9280,
      "Grab": 9281,
      "Eve": 9282,
      "aback": 9283,
      "warmest": 9284,
      "ladybugs": 9285,
      "Dancing": 9286,
      "cables": 9287,
      "wobbles": 9288,
      "Cream": 9289,
      "Mac": 9290,
      "Mighty": 9291,
      "hollow": 9292,
      "payoff": 9293,
      "huff": 9294,
      "vit": 9295,
      "plank": 9296,
      "ripp": 9297,
      "snoring": 9298,
      "movement": 9299,
      "chatter": 9300,
      "Matty": 9301,
      "Jes": 9302,
      "motions": 9303,
      "icent": 9304,
      "blush": 9305,
      "aring": 9306,
      "History": 9307,
      "caves": 9308,
      "alongside": 9309,
      "embarrassing": 9310,
      "squawk": 9311,
      "Careful": 9312,
      "Cleaning": 9313,
      "ift": 9314,
      "oky": 9315,
      "dumped": 9316,
      "scowled": 9317,
      "slight": 9318,
      "sleepover": 9319,
      "chanted": 9320,
      "Deaf": 9321,
      "aisles": 9322,
      "possibilities": 9323,
      "mur": 9324,
      "toot": 9325,
      "hare": 9326,
      "woodpeck": 9327,
      "confidently": 9328,
      "Offic": 9329,
      "Small": 9330,
      "lil": 9331,
      "flowed": 9332,
      "Tuesdays": 9333,
      "Hot": 9334,
      "lookout": 9335,
      "handles": 9336,
      "workshop": 9337,
      "Patches": 9338,
      "scratchy": 9339,
      "dedication": 9340,
      "Bring": 9341,
      "Funny": 9342,
      "Seat": 9343,
      "roast": 9344,
      "antlers": 9345,
      "flyer": 9346,
      "Though": 9347,
      "conut": 9348,
      "pres": 9349,
      "Zoomie": 9350,
      "cherished": 9351,
      "Ronny": 9352,
      "Heidi": 9353,
      "Button": 9354,
      "code": 9355,
      "hurtful": 9356,
      "barrow": 9357,
      "collars": 9358,
      "eyed": 9359,
      "mesmerised": 9360,
      "squawked": 9361,
      "Confused": 9362,
      "Top": 9363,
      "oned": 9364,
      "pistols": 9365,
      "Squeeze": 9366,
      "carton": 9367,
      "coconut": 9368,
      "process": 9369,
      "belief": 9370,
      "Ban": 9371,
      "NG": 9372,
      "alled": 9373,
      "raises": 9374,
      "signal": 9375,
      "Shiver": 9376,
      "Salt": 9377,
      "Bibo": 9378,
      "Officer": 9379,
      ".’": 9380,
      "Clo": 9381,
      "keen": 9382,
      "greatest": 9383,
      "guided": 9384,
      "bands": 9385,
      "wheelbarrow": 9386,
      "defeat": 9387,
      "Jellyfish": 9388,
      "Freya": 9389,
      "Gia": 9390,
      "Mu": 9391,
      "stinky": 9392,
      "harvest": 9393,
      "harmony": 9394,
      "tentacles": 9395,
      "gulped": 9396,
      "Ask": 9397,
      "Clean": 9398,
      "unkind": 9399,
      "hoof": 9400,
      "mixes": 9401,
      "whether": 9402,
      "respecting": 9403,
      "crosses": 9404,
      "capture": 9405,
      "thrill": 9406,
      "magnificent": 9407,
      "limits": 9408,
      "suspic": 9409,
      "Sly": 9410,
      "swat": 9411,
      "whipped": 9412,
      "magically": 9413,
      "cuddling": 9414,
      "Sean": 9415,
      "funniest": 9416,
      "dizz": 9417,
      "deciding": 9418,
      "progress": 9419,
      "Billie": 9420,
      "Anything": 9421,
      "Zoo": 9422,
      "thur": 9423,
      "pollen": 9424,
      "droop": 9425,
[...]
